{
  "version": "1.0",
  "truncation": null,
  "padding": null,
  "added_tokens": [
    {
      "id": 0,
      "content": "[EOS]",
      "single_word": false,
      "lstrip": false,
      "rstrip": false,
      "normalized": false,
      "special": true
    }
  ],
  "normalizer": null,
  "pre_tokenizer": {
    "type": "ByteLevel",
    "add_prefix_space": false,
    "trim_offsets": true,
    "use_regex": true
  },
  "post_processor": {
    "type": "ByteLevel",
    "add_prefix_space": true,
    "trim_offsets": false,
    "use_regex": true
  },
  "decoder": {
    "type": "ByteLevel",
    "add_prefix_space": true,
    "trim_offsets": true,
    "use_regex": true
  },
  "model": {
    "type": "BPE",
    "dropout": null,
    "unk_token": null,
    "continuing_subword_prefix": null,
    "end_of_word_suffix": null,
    "fuse_unk": false,
    "byte_fallback": false,
    "ignore_merges": false,
    "vocab": {
      "[EOS]": 0,
      "!": 1,
      "\"": 2,
      "#": 3,
      "$": 4,
      "%": 5,
      "&": 6,
      "'": 7,
      "(": 8,
      ")": 9,
      "*": 10,
      "+": 11,
      ",": 12,
      "-": 13,
      ".": 14,
      "/": 15,
      "0": 16,
      "1": 17,
      "2": 18,
      "3": 19,
      "4": 20,
      "5": 21,
      "6": 22,
      "7": 23,
      "8": 24,
      "9": 25,
      ":": 26,
      ";": 27,
      "<": 28,
      "=": 29,
      ">": 30,
      "?": 31,
      "@": 32,
      "A": 33,
      "B": 34,
      "C": 35,
      "D": 36,
      "E": 37,
      "F": 38,
      "G": 39,
      "H": 40,
      "I": 41,
      "J": 42,
      "K": 43,
      "L": 44,
      "M": 45,
      "N": 46,
      "O": 47,
      "P": 48,
      "Q": 49,
      "R": 50,
      "S": 51,
      "T": 52,
      "U": 53,
      "V": 54,
      "W": 55,
      "X": 56,
      "Y": 57,
      "Z": 58,
      "[": 59,
      "\\": 60,
      "]": 61,
      "^": 62,
      "_": 63,
      "`": 64,
      "a": 65,
      "b": 66,
      "c": 67,
      "d": 68,
      "e": 69,
      "f": 70,
      "g": 71,
      "h": 72,
      "i": 73,
      "j": 74,
      "k": 75,
      "l": 76,
      "m": 77,
      "n": 78,
      "o": 79,
      "p": 80,
      "q": 81,
      "r": 82,
      "s": 83,
      "t": 84,
      "u": 85,
      "v": 86,
      "w": 87,
      "x": 88,
      "y": 89,
      "z": 90,
      "{": 91,
      "|": 92,
      "}": 93,
      "~": 94,
      "¡": 95,
      "¢": 96,
      "£": 97,
      "¤": 98,
      "¥": 99,
      "¦": 100,
      "§": 101,
      "¨": 102,
      "©": 103,
      "ª": 104,
      "«": 105,
      "¬": 106,
      "®": 107,
      "¯": 108,
      "°": 109,
      "±": 110,
      "²": 111,
      "³": 112,
      "´": 113,
      "µ": 114,
      "¶": 115,
      "·": 116,
      "¸": 117,
      "¹": 118,
      "º": 119,
      "»": 120,
      "¼": 121,
      "½": 122,
      "¾": 123,
      "¿": 124,
      "À": 125,
      "Á": 126,
      "Â": 127,
      "Ã": 128,
      "Ä": 129,
      "Å": 130,
      "Æ": 131,
      "Ç": 132,
      "È": 133,
      "É": 134,
      "Ê": 135,
      "Ë": 136,
      "Ì": 137,
      "Í": 138,
      "Î": 139,
      "Ï": 140,
      "Ð": 141,
      "Ñ": 142,
      "Ò": 143,
      "Ó": 144,
      "Ô": 145,
      "Õ": 146,
      "Ö": 147,
      "×": 148,
      "Ø": 149,
      "Ù": 150,
      "Ú": 151,
      "Û": 152,
      "Ü": 153,
      "Ý": 154,
      "Þ": 155,
      "ß": 156,
      "à": 157,
      "á": 158,
      "â": 159,
      "ã": 160,
      "ä": 161,
      "å": 162,
      "æ": 163,
      "ç": 164,
      "è": 165,
      "é": 166,
      "ê": 167,
      "ë": 168,
      "ì": 169,
      "í": 170,
      "î": 171,
      "ï": 172,
      "ð": 173,
      "ñ": 174,
      "ò": 175,
      "ó": 176,
      "ô": 177,
      "õ": 178,
      "ö": 179,
      "÷": 180,
      "ø": 181,
      "ù": 182,
      "ú": 183,
      "û": 184,
      "ü": 185,
      "ý": 186,
      "þ": 187,
      "ÿ": 188,
      "Ā": 189,
      "ā": 190,
      "Ă": 191,
      "ă": 192,
      "Ą": 193,
      "ą": 194,
      "Ć": 195,
      "ć": 196,
      "Ĉ": 197,
      "ĉ": 198,
      "Ċ": 199,
      "ċ": 200,
      "Č": 201,
      "č": 202,
      "Ď": 203,
      "ď": 204,
      "Đ": 205,
      "đ": 206,
      "Ē": 207,
      "ē": 208,
      "Ĕ": 209,
      "ĕ": 210,
      "Ė": 211,
      "ė": 212,
      "Ę": 213,
      "ę": 214,
      "Ě": 215,
      "ě": 216,
      "Ĝ": 217,
      "ĝ": 218,
      "Ğ": 219,
      "ğ": 220,
      "Ġ": 221,
      "ġ": 222,
      "Ģ": 223,
      "ģ": 224,
      "Ĥ": 225,
      "ĥ": 226,
      "Ħ": 227,
      "ħ": 228,
      "Ĩ": 229,
      "ĩ": 230,
      "Ī": 231,
      "ī": 232,
      "Ĭ": 233,
      "ĭ": 234,
      "Į": 235,
      "į": 236,
      "İ": 237,
      "ı": 238,
      "Ĳ": 239,
      "ĳ": 240,
      "Ĵ": 241,
      "ĵ": 242,
      "Ķ": 243,
      "ķ": 244,
      "ĸ": 245,
      "Ĺ": 246,
      "ĺ": 247,
      "Ļ": 248,
      "ļ": 249,
      "Ľ": 250,
      "ľ": 251,
      "Ŀ": 252,
      "ŀ": 253,
      "Ł": 254,
      "ł": 255,
      "Ń": 256,
      "Ġt": 257,
      "Ġa": 258,
      "he": 259,
      "in": 260,
      "on": 261,
      "re": 262,
      "Ġthe": 263,
      "ti": 264,
      "Ġs": 265,
      "Ġo": 266,
      "er": 267,
      "en": 268,
      "Ġc": 269,
      "al": 270,
      "or": 271,
      "is": 272,
      "ed": 273,
      "Ġp": 274,
      "Ġof": 275,
      "at": 276,
      "es": 277,
      "Ġw": 278,
      "Ġin": 279,
      "Ġf": 280,
      "tion": 281,
      "nd": 282,
      "it": 283,
      "Ġd": 284,
      "Ġb": 285,
      "Ġm": 286,
      "an": 287,
      "ar": 288,
      "ro": 289,
      "ing": 290,
      "Ġand": 291,
      "ic": 292,
      "as": 293,
      "Ġe": 294,
      "le": 295,
      "Ġto": 296,
      "Ġre": 297,
      "ation": 298,
      "Ġ(": 299,
      "ent": 300,
      "Ġth": 301,
      "Ġn": 302,
      "el": 303,
      "ec": 304,
      "Ġis": 305,
      "us": 306,
      "et": 307,
      "om": 308,
      "ĠT": 309,
      "ac": 310,
      "ul": 311,
      "im": 312,
      "Ġh": 313,
      "Ġl": 314,
      "ol": 315,
      "ur": 316,
      "ve": 317,
      "Ġg": 318,
      "Ġfor": 319,
      "ly": 320,
      "st": 321,
      "Ġcon": 322,
      "ig": 323,
      "Ġst": 324,
      "ow": 325,
      "ith": 326,
      "id": 327,
      "ce": 328,
      "Ġthat": 329,
      "ot": 330,
      "il": 331,
      "Ġpro": 332,
      "Ġ1": 333,
      "Ġwith": 334,
      "ra": 335,
      "ut": 336,
      "Ġas": 337,
      "os": 338,
      "Ġwe": 339,
      "Ġon": 340,
      "Ġv": 341,
      "Ġbe": 342,
      "od": 343,
      "ĠThe": 344,
      "uc": 345,
      "Ġ2": 346,
      "qu": 347,
      "Ġan": 348,
      "Ġal": 349,
      "um": 350,
      "if": 351,
      "Ġex": 352,
      "ter": 353,
      "Ġâ": 354,
      "res": 355,
      "un": 356,
      "ĠA": 357,
      "tic": 358,
      "am": 359,
      "ĠI": 360,
      "ĠS": 361,
      "em": 362,
      "ity": 363,
      "ver": 364,
      "Ġare": 365,
      "ts": 366,
      "Ġby": 367,
      "ri": 368,
      "ab": 369,
      "ĠC": 370,
      "ate": 371,
      "si": 372,
      "ure": 373,
      "Ġcom": 374,
      "ir": 375,
      "ge": 376,
      "ĠF": 377,
      "per": 378,
      "pl": 379,
      "Ġres": 380,
      "her": 381,
      "ated": 382,
      "Ġ[": 383,
      "oc": 384,
      "Ġwh": 385,
      "Ġde": 386,
      "rom": 387,
      "ment": 388,
      "ain": 389,
      "ud": 390,
      "ore": 391,
      "Ġus": 392,
      ").": 393,
      "ĠM": 394,
      "Ġor": 395,
      "se": 396,
      "ati": 397,
      "ect": 398,
      "ĠP": 399,
      "Ġac": 400,
      "ĠÎ": 401,
      "ĠH": 402,
      "ant": 403,
      "Ġr": 404,
      "Ġat": 405,
      "Ġ=": 406,
      "ere": 407,
      "ess": 408,
      "und": 409,
      "ay": 410,
      "ĠâĪ": 411,
      "op": 412,
      "Ġcomp": 413,
      "Ġsp": 414,
      "Ġfrom": 415,
      "ad": 416,
      "ical": 417,
      "Ġthis": 418,
      "og": 419,
      "Ġsh": 420,
      "iz": 421,
      "pp": 422,
      "Ġsu": 423,
      "Ġwas": 424,
      "orm": 425,
      "ations": 426,
      "Ġcan": 427,
      "Ġit": 428,
      "Ġdis": 429,
      "Ġch": 430,
      "ĠW": 431,
      "ĠB": 432,
      "Ġim": 433,
      "di": 434,
      "ff": 435,
      "ich": 436,
      "Ġ0": 437,
      "ag": 438,
      "ell": 439,
      "ĠR": 440,
      "ĠL": 441,
      "Ġco": 442,
      "igh": 443,
      "Ġse": 444,
      "ine": 445,
      "ies": 446,
      "Ġk": 447,
      "ĠE": 448,
      "Ġle": 449,
      "Ġha": 450,
      "vel": 451,
      "Ġmod": 452,
      "ĠN": 453,
      "th": 454,
      "Ġpar": 455,
      "Ġwhich": 456,
      "tions": 457,
      "ers": 458,
      "ĠIn": 459,
      "Ġen": 460,
      "sion": 461,
      "ase": 462,
      "ĠD": 463,
      "ted": 464,
      "Ġint": 465,
      "Ġcont": 466,
      "Ġ,": 467,
      "Ġne": 468,
      "Ġnot": 469,
      "iv": 470,
      "Ġ3": 471,
      "duc": 472,
      "Ġsy": 473,
      "Ġwere": 474,
      "ĠG": 475,
      "Ġwhe": 476,
      "),": 477,
      "Ġ.": 478,
      "ch": 479,
      "up": 480,
      "ran": 481,
      "Ġob": 482,
      "ion": 483,
      "form": 484,
      "ence": 485,
      "Ġinc": 486,
      "Ġcl": 487,
      "Ġhave": 488,
      "ents": 489,
      "low": 490,
      "ous": 491,
      "able": 492,
      "iff": 493,
      "ally": 494,
      "00": 495,
      "ign": 496,
      "ary": 497,
      "act": 498,
      "Ġper": 499,
      "Ġad": 500,
      "eren": 501,
      "red": 502,
      "ther": 503,
      "ari": 504,
      "tive": 505,
      "and": 506,
      "Ġdiff": 507,
      "all": 508,
      "ass": 509,
      "Ġqu": 510,
      "ill": 511,
      "ak": 512,
      "unc": 513,
      "ĠTh": 514,
      "Ġgen": 515,
      "ach": 516,
      "Ġstud": 517,
      "ĠÏ": 518,
      "ap": 519,
      "Ġmet": 520,
      "ble": 521,
      "ance": 522,
      "ph": 523,
      "lec": 524,
      "etw": 525,
      "ue": 526,
      "vi": 527,
      "Ġhe": 528,
      "est": 529,
      "].": 530,
      "Ġmodel": 531,
      "ist": 532,
      "ug": 533,
      "end": 534,
      "ys": 535,
      "ors": 536,
      "Ġshow": 537,
      "Ġi": 538,
      "Ġsc": 539,
      "ort": 540,
      "enti": 541,
      "erm": 542,
      "ĠO": 543,
      "age": 544,
      "Ġresul": 545,
      "Ġab": 546,
      "ple": 547,
      "Ġcons": 548,
      "rib": 549,
      "Ġme": 550,
      "Ġapp": 551,
      "Ġass": 552,
      "Ġinter": 553,
      "stem": 554,
      "Ġun": 555,
      "Ġev": 556,
      "so": 557,
      "Ġdifferen": 558,
      "uch": 559,
      "ong": 560,
      "Ġfi": 561,
      "Ġeff": 562,
      "Ġ4": 563,
      "Ġhas": 564,
      "ial": 565,
      "ution": 566,
      "ace": 567,
      "ding": 568,
      "Ġexp": 569,
      "Ġdi": 570,
      "ates": 571,
      "ĠWe": 572,
      "tim": 573,
      "ight": 574,
      "Ġform": 575,
      "ific": 576,
      "ost": 577,
      "ric": 578,
      "ear": 579,
      "ruc": 580,
      "Ġpre": 581,
      "Ġsystem": 582,
      "ular": 583,
      "Ġrel": 584,
      "Ġrep": 585,
      "Ġtw": 586,
      "Ġra": 587,
      "Ġpl": 588,
      "Ġy": 589,
      "Ġimp": 590,
      "Ġpres": 591,
      "Ġsim": 592,
      "Ġcor": 593,
      "Ġtran": 594,
      "tain": 595,
      "Ġall": 596,
      "ĠThis": 597,
      "Ġph": 598,
      "Ġalso": 599,
      "ep": 600,
      "Ġsub": 601,
      "ory": 602,
      "our": 603,
      "Ġdat": 604,
      "ĠâĪĴ": 605,
      "Ġgro": 606,
      "een": 607,
      "Ġone": 608,
      "Ġ)": 609,
      "ork": 610,
      "ip": 611,
      "ome": 612,
      "uld": 613,
      "Ġfunc": 614,
      "ased": 615,
      "ber": 616,
      "ative": 617,
      "Ġwhere": 618,
      "ide": 619,
      "etween": 620,
      "ound": 621,
      "olog": 622,
      "Ġtim": 623,
      "The": 624,
      "ection": 625,
      "ugh": 626,
      "Ġdet": 627,
      "Ġet": 628,
      "Ġbetween": 629,
      "ast": 630,
      "Ġtwo": 631,
      "ose": 632,
      "yp": 633,
      "ren": 634,
      "Ġanal": 635,
      "ties": 636,
      "erv": 637,
      "Ġfol": 638,
      "ds": 639,
      "Ġgener": 640,
      "Ġ5": 641,
      "Ġval": 642,
      "01": 643,
      "ens": 644,
      "ility": 645,
      "enc": 646,
      "Ġequ": 647,
      "Ġrec": 648,
      "Ġcell": 649,
      "Ġreg": 650,
      "ĠU": 651,
      "Ġfollow": 652,
      "Ġdes": 653,
      "te": 654,
      "Ġj": 655,
      "cess": 656,
      "ĠÂ": 657,
      "hod": 658,
      "Ġsam": 659,
      "ang": 660,
      "Ġnum": 661,
      "tr": 662,
      "Ġthese": 663,
      "Ġar": 664,
      "ree": 665,
      "der": 666,
      "Ġind": 667,
      "ied": 668,
      "ting": 669,
      "Ġtrans": 670,
      "oin": 671,
      "Ġsuch": 672,
      "Ġsign": 673,
      "ĠK": 674,
      "tiv": 675,
      "Ġmat": 676,
      "ĠFig": 677,
      "ely": 678,
      "ual": 679,
      "Ġused": 680,
      "ite": 681,
      "Ġvari": 682,
      "ack": 683,
      "Ġdata": 684,
      "fin": 685,
      "Ġusing": 686,
      "Ġpos": 687,
      "Ġresp": 688,
      "Ġro": 689,
      "Ġmethod": 690,
      "Ġfin": 691,
      "ew": 692,
      "Ġthere": 693,
      "Ġout": 694,
      "Ġacc": 695,
      "rec": 696,
      "Ġother": 697,
      "ech": 698,
      "Ġmore": 699,
      "out": 700,
      "Ġthan": 701,
      "Ġtime": 702,
      "aus": 703,
      "Ġwill": 704,
      "Ġset": 705,
      "Ġappro": 706,
      "ĠV": 707,
      "ard": 708,
      "Ġtheir": 709,
      "ition": 710,
      "Ġund": 711,
      "Ġnon": 712,
      "Ġbeen": 713,
      "Ġdist": 714,
      "dition": 715,
      "ax": 716,
      "tical": 717,
      "Ġstudy": 718,
      "ating": 719,
      "Ġno": 720,
      "Ġ+": 721,
      "oth": 722,
      "rain": 723,
      "Ġover": 724,
      "Ġincre": 725,
      "Ġour": 726,
      "Ġfunction": 727,
      "ures": 728,
      "lud": 729,
      "Ġman": 730,
      "Ġresults": 731,
      "les": 732,
      "pos": 733,
      "Ġinv": 734,
      "ia": 735,
      "Ġunder": 736,
      "Ġdec": 737,
      "ond": 738,
      "ever": 739,
      "ulation": 740,
      "ature": 741,
      "irst": 742,
      "Ġsol": 743,
      "Ġonly": 744,
      "Ġits": 745,
      "ruct": 746,
      "ization": 747,
      "Ġeach": 748,
      "Ġpartic": 749,
      ".,": 750,
      "'s": 751,
      "plic": 752,
      "Ġbut": 753,
      "Ġsur": 754,
      "Ġcol": 755,
      "Ġconst": 756,
      "pt": 757,
      "Ġmeas": 758,
      "Ġobs": 759,
      "Ġ|": 760,
      "Ġgroup": 761,
      "Ġem": 762,
      "ould": 763,
      "ces": 764,
      "ex": 765,
      "erg": 766,
      "Ġdifferent": 767,
      "ry": 768,
      "ases": 769,
      "Ġfact": 770,
      "vely": 771,
      "Ġfiel": 772,
      "Ġhigh": 773,
      "Ġ6": 774,
      "Ġmay": 775,
      "ram": 776,
      "ub": 777,
      "Ġ201": 778,
      "ons": 779,
      "ll": 780,
      "amet": 781,
      "Ġinto": 782,
      "Ġx": 783,
      "ized": 784,
      "Ġver": 785,
      "ĠâĢ": 786,
      "ib": 787,
      "ability": 788,
      "Ġconsid": 789,
      "Ġgiv": 790,
      "Ġnumber": 791,
      "Ġprov": 792,
      "ues": 793,
      "ysis": 794,
      "ici": 795,
      "are": 796,
      "ĠâĪĪ": 797,
      "Ġprocess": 798,
      "Ġpa": 799,
      "ne": 800,
      "Ġso": 801,
      "Ġdo": 802,
      "ects": 803,
      "ĠFor": 804,
      "ten": 805,
      "Ġcase": 806,
      "ĠX": 807,
      "Ġ\"": 808,
      "Ġdisc": 809,
      "ments": 810,
      "Ġpoin": 811,
      "ile": 812,
      "Ġlow": 813,
      "Ġperform": 814,
      "fore": 815,
      "Ġam": 816,
      "velop": 817,
      "ail": 818,
      "ust": 819,
      "yn": 820,
      "Ġinf": 821,
      "Ġspec": 822,
      "owever": 823,
      "Ġcomple": 824,
      "Ġlar": 825,
      "ism": 826,
      "Ġsm": 827,
      "Ġpati": 828,
      "Ġfirst": 829,
      "Ġmo": 830,
      "fter": 831,
      "Ġuse": 832,
      "Ġthen": 833,
      "Ġpresent": 834,
      "Ġobserv": 835,
      "Ġpr": 836,
      "Ġif": 837,
      "reat": 838,
      "oci": 839,
      "In": 840,
      "ark": 841,
      "ros": 842,
      "Ġobtain": 843,
      "ĠIt": 844,
      "ik": 845,
      "now": 846,
      "ress": 847,
      "Ġz": 848,
      "Ġterm": 849,
      "ning": 850,
      "Ġag": 851,
      "eg": 852,
      "ected": 853,
      "Ġwhen": 854,
      "Ġsome": 855,
      "Ġâī": 856,
      "Ġop": 857,
      "ath": 858,
      "Ġboth": 859,
      "][": 860,
      "Ġcomm": 861,
      "Ġexper": 862,
      "Ġclass": 863,
      "formation": 864,
      "Ġcells": 865,
      "Ġdevelop": 866,
      "Ġ10": 867,
      "Ġfl": 868,
      "Ġbec": 869,
      "Ġ-": 870,
      "Ġmeasure": 871,
      "Ġdefin": 872,
      "Ġloc": 873,
      "Ġid": 874,
      "Ġinclud": 875,
      "ange": 876,
      "Ġchar": 877,
      "Ġparamet": 878,
      "Ġcur": 879,
      "ood": 880,
      "action": 881,
      "Ġ19": 882,
      "ym": 883,
      "Ġbl": 884,
      "Ġexam": 885,
      "Ġstruct": 886,
      "Ġup": 887,
      "Ġmass": 888,
      "Ġ200": 889,
      "ian": 890,
      "Ġwork": 891,
      "Ġorder": 892,
      "Ġes": 893,
      "duced": 894,
      "Ġanalysis": 895,
      "ective": 896,
      "iti": 897,
      "âĢ": 898,
      "ĠJ": 899,
      "Ġdesc": 900,
      "ential": 901,
      "Ġgra": 902,
      "],": 903,
      "Ġany": 904,
      "ational": 905,
      "uring": 906,
      "Ġwell": 907,
      "Ġstr": 908,
      "ered": 909,
      "Ġsignific": 910,
      "Ġap": 911,
      "one": 912,
      "Ġlevel": 913,
      "Ġoper": 914,
      "ize": 915,
      "Ġsec": 916,
      "Ġdep": 917,
      "Ġgiven": 918,
      "hem": 919,
      "ult": 920,
      "Ġpol": 921,
      "ved": 922,
      "Ġconc": 923,
      "atic": 924,
      "âĪ": 925,
      "ression": 926,
      "acter": 927,
      "Ġfield": 928,
      "ice": 929,
      "Ġmin": 930,
      "ise": 931,
      "rough": 932,
      "Ġtyp": 933,
      "Ġrepres": 934,
      "Ġcal": 935,
      "ension": 936,
      "Ġsame": 937,
      "Ġline": 938,
      "ency": 939,
      "ality": 940,
      "hed": 941,
      "als": 942,
      "Ġrem": 943,
      "Ġidenti": 944,
      "Ġfe": 945,
      "ause": 946,
      "hes": 947,
      "ĠFigure": 948,
      "ince": 949,
      "Ġfollowing": 950,
      "ĠQ": 951,
      "Ġmost": 952,
      "ord": 953,
      "ob": 954,
      "Ġsignificant": 955,
      "cc": 956,
      "Ġthey": 957,
      "resp": 958,
      "rent": 959,
      "oun": 960,
      "Ġmul": 961,
      "ator": 962,
      "Ġ7": 963,
      "Ġshown": 964,
      "qui": 965,
      "ie": 966,
      "Ġlim": 967,
      "atis": 968,
      "ĠAs": 969,
      "Ġspace": 970,
      "ves": 971,
      "hen": 972,
      "tivity": 973,
      "ove": 974,
      "Ġknow": 975,
      "Ġscal": 976,
      "Ġcontro": 977,
      "Ġafter": 978,
      "tern": 979,
      "par": 980,
      "ays": 981,
      "ven": 982,
      "of": 983,
      "Ġtr": 984,
      "Ġmean": 985,
      "Ġpatients": 986,
      "ĠHowever": 987,
      "Ġsmall": 988,
      "10": 989,
      "duction": 990,
      "imension": 991,
      "ological": 992,
      "rel": 993,
      "gor": 994,
      "urther": 995,
      "ty": 996,
      "ough": 997,
      "Ġref": 998,
      "ral": 999,
      "ilar": 1000,
      "met": 1001,
      "ared": 1002,
      "its": 1003,
      "Ġstate": 1004,
      "Ġdirec": 1005,
      "Ġdeterm": 1006,
      "Ġdistrib": 1007,
      "Ġstar": 1008,
      "blem": 1009,
      "Ġthrough": 1010,
      "iqu": 1011,
      "Ġfound": 1012,
      "ergy": 1013,
      "ions": 1014,
      "Ġcalc": 1015,
      "ural": 1016,
      "sible": 1017,
      "Ġ8": 1018,
      "Ġmulti": 1019,
      "Ġsupp": 1020,
      "Ġsym": 1021,
      "ĨĴ": 1022,
      "Ġhig": 1023,
      "str": 1024,
      "echn": 1025,
      "anc": 1026,
      "Ġassoci": 1027,
      "Ġpot": 1028,
      "ology": 1029,
      "ĠÎ±": 1030,
      "ake": 1031,
      "Ġcar": 1032,
      "19": 1033,
      "over": 1034,
      "Ġcorresp": 1035,
      "Ġrepresent": 1036,
      "Ġelec": 1037,
      "Ġproblem": 1038,
      "istic": 1039,
      "Ġrequi": 1040,
      "tively": 1041,
      "Ġindic": 1042,
      "Ġpred": 1043,
      "Ġstudies": 1044,
      "ater": 1045,
      "ĠZ": 1046,
      "antum": 1047,
      "Ġdescrib": 1048,
      "ft": 1049,
      "ving": 1050,
      "Ġexperim": 1051,
      "Ġcomput": 1052,
      "Ġbased": 1053,
      "Ġmain": 1054,
      "Ġvalue": 1055,
      "olution": 1056,
      "Ġconsider": 1057,
      "ement": 1058,
      "Ġext": 1059,
      "Ġestim": 1060,
      "Ġbound": 1061,
      "ĠThere": 1062,
      "Ġu": 1063,
      "Ġgeneral": 1064,
      "Ġproper": 1065,
      "Ġthree": 1066,
      "ently": 1067,
      "ics": 1068,
      "ption": 1069,
      "Ġimport": 1070,
      "Ġcharacter": 1071,
      "Ġinteg": 1072,
      "Ġnew": 1073,
      "ages": 1074,
      "ha": 1075,
      "Ġ9": 1076,
      "Ġidentif": 1077,
      "iver": 1078,
      "ks": 1079,
      "Ġpoint": 1080,
      "Ġmodels": 1081,
      "Ġsing": 1082,
      "tal": 1083,
      "Ġaut": 1084,
      "ithm": 1085,
      "Ġbi": 1086,
      "Ġtem": 1087,
      "Ġneed": 1088,
      "Ġlarge": 1089,
      "Ġinformation": 1090,
      "vious": 1091,
      "Ġresear": 1092,
      "ants": 1093,
      "Ġlear": 1094,
      "Ġresult": 1095,
      "Ġlimit": 1096,
      "ensity": 1097,
      "ĠâĨĴ": 1098,
      "Ġ<": 1099,
      "rop": 1100,
      "Ġins": 1101,
      "Ġvalues": 1102,
      "Ġtechn": 1103,
      "Ġhy": 1104,
      "Ġenergy": 1105,
      "Ġquantum": 1106,
      "ynam": 1107,
      "ically": 1108,
      "ormal": 1109,
      "Ġcould": 1110,
      "val": 1111,
      "20": 1112,
      "Ġmed": 1113,
      "yl": 1114,
      "ĠÂµ": 1115,
      "ject": 1116,
      "Ġduring": 1117,
      "inc": 1118,
      "ined": 1119,
      "ines": 1120,
      "old": 1121,
      "ann": 1122,
      "Ġele": 1123,
      "Ġconf": 1124,
      "Ġassum": 1125,
      "Ġbas": 1126,
      "ix": 1127,
      "Ġmon": 1128,
      "Ġpaper": 1129,
      "Ġiniti": 1130,
      "cl": 1131,
      "get": 1132,
      "ĠÃ": 1133,
      "ental": 1134,
      "ish": 1135,
      "ectively": 1136,
      "Ġaddition": 1137,
      "ges": 1138,
      "ive": 1139,
      "Ġpropos": 1140,
      "ma": 1141,
      "inal": 1142,
      "Ġ*": 1143,
      "Ġdue": 1144,
      "orph": 1145,
      "Ġgl": 1146,
      "ind": 1147,
      "orem": 1148,
      "etwork": 1149,
      "NA": 1150,
      "Ġlead": 1151,
      "put": 1152,
      "ene": 1153,
      "ĠY": 1154,
      "Ġobtained": 1155,
      "ities": 1156,
      "Ġpredic": 1157,
      "Ġlong": 1158,
      "Ġdepend": 1159,
      "Ġhigher": 1160,
      "Ġradi": 1161,
      "Ġcontrol": 1162,
      "ins": 1163,
      "Ġtheory": 1164,
      "Ġfre": 1165,
      "anti": 1166,
      "Ġstructure": 1167,
      "Ġexpl": 1168,
      "sive": 1169,
      "ote": 1170,
      "Ġwould": 1171,
      "Ġ:": 1172,
      "epend": 1173,
      "itive": 1174,
      "ful": 1175,
      "Ġsecond": 1176,
      "round": 1177,
      "Ġhad": 1178,
      "Ġsimilar": 1179,
      "ulated": 1180,
      "Ġshould": 1181,
      "usion": 1182,
      "Ġpotential": 1183,
      "Ġden": 1184,
      "Ġabove": 1185,
      "Ġobserved": 1186,
      "gorithm": 1187,
      "ration": 1188,
      "Ġocc": 1189,
      "Ġprob": 1190,
      "Ġphase": 1191,
      "ffici": 1192,
      "ears": 1193,
      "11": 1194,
      "Ġapproach": 1195,
      "ector": 1196,
      "echan": 1197,
      "Ġwithin": 1198,
      "Ġwhile": 1199,
      "ger": 1200,
      "Ġcorrespon": 1201,
      "utions": 1202,
      "Ġtra": 1203,
      "Ġcent": 1204,
      "ok": 1205,
      "sp": 1206,
      "agn": 1207,
      "ination": 1208,
      "Ġimpro": 1209,
      "ness": 1210,
      "Ġabout": 1211,
      "Ġdem": 1212,
      "alu": 1213,
      "Ġder": 1214,
      "ĠâĢ²": 1215,
      "ox": 1216,
      "Ġed": 1217,
      "tig": 1218,
      "uce": 1219,
      "ike": 1220,
      "Ġpath": 1221,
      "Ġnetwork": 1222,
      "ateg": 1223,
      "Ġpop": 1224,
      "Ġdefined": 1225,
      "Ġbecause": 1226,
      "Ġcomplex": 1227,
      "12": 1228,
      "face": 1229,
      "Ġterms": 1230,
      "idual": 1231,
      "err": 1232,
      "Ġrate": 1233,
      "ĠAl": 1234,
      "ditions": 1235,
      "Ġtreat": 1236,
      "Ġspect": 1237,
      "gan": 1238,
      "Ġprovid": 1239,
      "Ġevalu": 1240,
      "gth": 1241,
      "por": 1242,
      "omet": 1243,
      "ross": 1244,
      "Ġimportant": 1245,
      "Ġcy": 1246,
      "ĠSt": 1247,
      "Ġprog": 1248,
      "Ġwho": 1249,
      "ron": 1250,
      "Ġprote": 1251,
      "lear": 1252,
      "Ġbeha": 1253,
      "Ġtest": 1254,
      "Ġsequ": 1255,
      "Ġq": 1256,
      "av": 1257,
      "ĠThese": 1258,
      "Ġdef": 1259,
      "Ġmechan": 1260,
      "ples": 1261,
      "Ġchang": 1262,
      "led": 1263,
      "Ġreal": 1264,
      "Ġassociated": 1265,
      "Ġend": 1266,
      "Ġconditions": 1267,
      "Ġlocal": 1268,
      "Ġalgorithm": 1269,
      "Ġcap": 1270,
      "the": 1271,
      "Ġ20": 1272,
      "Ġparticular": 1273,
      "Ġmethods": 1274,
      "Ġresearch": 1275,
      "ĠAn": 1276,
      "Ġsug": 1277,
      "ower": 1278,
      "Ġeffect": 1279,
      "ute": 1280,
      "âĪĴ": 1281,
      "Ġindi": 1282,
      "ĠâĬ": 1283,
      "Ġdiscus": 1284,
      "ily": 1285,
      "Ġcontain": 1286,
      "ators": 1287,
      "cept": 1288,
      "rix": 1289,
      "Ġsystems": 1290,
      "We": 1291,
      "Ġsee": 1292,
      "ĠTo": 1293,
      "con": 1294,
      "Ġdom": 1295,
      "Ġstand": 1296,
      "Ġparameters": 1297,
      "rit": 1298,
      "de": 1299,
      "Ġcomb": 1300,
      "Ġent": 1301,
      "Ġexpression": 1302,
      "Ġdesign": 1303,
      "Ġsingle": 1304,
      "ulations": 1305,
      "line": 1306,
      "Ġ>": 1307,
      "Ġvery": 1308,
      "orted": 1309,
      "xim": 1310,
      "Ġrespectively": 1311,
      "ĠPro": 1312,
      "Ġthose": 1313,
      "oid": 1314,
      "ov": 1315,
      "ext": 1316,
      "Ġpe": 1317,
      "Ġlo": 1318,
      "Ġcases": 1319,
      "Ġdistribution": 1320,
      "geb": 1321,
      "iss": 1322,
      "Ġprevious": 1323,
      "Ġbehavi": 1324,
      "ane": 1325,
      "Ġris": 1326,
      "Ġsuper": 1327,
      "Ġthem": 1328,
      "Ġmax": 1329,
      "Ġlearning": 1330,
      "ĠÂ·": 1331,
      "Ġpossible": 1332,
      "Ġproposed": 1333,
      "Ġexample": 1334,
      "Ġinst": 1335,
      "Ġpart": 1336,
      "Ġdeg": 1337,
      "Ġcoun": 1338,
      "Ġproduc": 1339,
      "ock": 1340,
      "Ġanaly": 1341,
      "Ġtemper": 1342,
      "Ġbel": 1343,
      "Ġfrequ": 1344,
      "Ġmic": 1345,
      "ild": 1346,
      "tro": 1347,
      "Ġmany": 1348,
      "Ġequation": 1349,
      "sc": 1350,
      "Ġallow": 1351,
      "ording": 1352,
      "ival": 1353,
      "Ġselec": 1354,
      "ĠÎ»": 1355,
      "com": 1356,
      "ified": 1357,
      "Ġdynam": 1358,
      "elf": 1359,
      "Ġcontrib": 1360,
      "tit": 1361,
      "Ġgrow": 1362,
      "Ġdensity": 1363,
      "Ġoptim": 1364,
      "Ġfollows": 1365,
      "Ġmatrix": 1366,
      "ink": 1367,
      "raph": 1368,
      "Ġindiv": 1369,
      "view": 1370,
      "Ġcompared": 1371,
      "Ġsize": 1372,
      "Ġeffects": 1373,
      "13": 1374,
      "Ġcorrel": 1375,
      "Ġinitial": 1376,
      "ave": 1377,
      "uman": 1378,
      "ables": 1379,
      "Ġtotal": 1380,
      "Ġpower": 1381,
      "ependent": 1382,
      "Ġmem": 1383,
      "ived": 1384,
      "Ġsymmet": 1385,
      "Ġtri": 1386,
      "Ġaff": 1387,
      "urb": 1388,
      "hib": 1389,
      "iod": 1390,
      "Fig": 1391,
      "Ġlinear": 1392,
      "lu": 1393,
      "Ġser": 1394,
      "Ġav": 1395,
      "Ġgal": 1396,
      "alth": 1397,
      "duce": 1398,
      "aking": 1399,
      "Ġtreatment": 1400,
      "Ġfurther": 1401,
      "15": 1402,
      "Ġtum": 1403,
      "ertain": 1404,
      "Ġsolution": 1405,
      "to": 1406,
      "ĠLet": 1407,
      "ission": 1408,
      "14": 1409,
      "Ġdimension": 1410,
      "iron": 1411,
      "onal": 1412,
      "art": 1413,
      "Ġcompon": 1414,
      "hip": 1415,
      "Ġindividual": 1416,
      "Ġsection": 1417,
      "atures": 1418,
      "ists": 1419,
      "ĠCh": 1420,
      "Ġcondition": 1421,
      "ately": 1422,
      "med": 1423,
      "sequ": 1424,
      "Ġshows": 1425,
      "ually": 1426,
      "Ġfunctions": 1427,
      "ier": 1428,
      "Ġsum": 1429,
      "Ġincrease": 1430,
      "uster": 1431,
      "Ġperformance": 1432,
      "Ġinves": 1433,
      "Ġcurrent": 1434,
      "ification": 1435,
      "ĠÃĹ": 1436,
      "Ġeven": 1437,
      "Ġanti": 1438,
      "erest": 1439,
      "ĠTable": 1440,
      "eed": 1441,
      "ital": 1442,
      "Ġdevelopment": 1443,
      "Ġcontin": 1444,
      "Ġdoes": 1445,
      "Ġoccur": 1446,
      "Ġstates": 1447,
      "Ġinvestig": 1448,
      "Ġphys": 1449,
      "Ġcorresponding": 1450,
      "ision": 1451,
      "osed": 1452,
      "idence": 1453,
      "Ġsince": 1454,
      "Ġma": 1455,
      "Ġintro": 1456,
      "Ġregion": 1457,
      "Ġperformed": 1458,
      "Ġdirect": 1459,
      "Ġnormal": 1460,
      "ale": 1461,
      "rap": 1462,
      "Ġlower": 1463,
      "Ġchange": 1464,
      "Ġrelations": 1465,
      "upl": 1466,
      "ication": 1467,
      "Ġvi": 1468,
      "Ġconsidered": 1469,
      "Ġrisk": 1470,
      "ets": 1471,
      "ero": 1472,
      "acy": 1473,
      "els": 1474,
      "Ġprim": 1475,
      "Ġgalax": 1476,
      "ĠIf": 1477,
      "itud": 1478,
      "Ġerr": 1479,
      "Ġorgan": 1480,
      "Ġinvol": 1481,
      "Ġcompar": 1482,
      "ount": 1483,
      "Ġquanti": 1484,
      "Ġapproxim": 1485,
      "Ġactivity": 1486,
      "ern": 1487,
      "Ġfactor": 1488,
      "Ġremain": 1489,
      "ndom": 1490,
      "Ġ'": 1491,
      "Ġwor": 1492,
      "ings": 1493,
      "Ġtype": 1494,
      "Ġflu": 1495,
      "au": 1496,
      "ade": 1497,
      "ium": 1498,
      "Ġhow": 1499,
      "Ġrespon": 1500,
      "ĠThen": 1501,
      "Ġperiod": 1502,
      "ull": 1503,
      "Ġyears": 1504,
      "Ġstandard": 1505,
      "Ġapplic": 1506,
      "osis": 1507,
      "Ġdecre": 1508,
      "til": 1509,
      "ĠEq": 1510,
      "irc": 1511,
      "oy": 1512,
      "verage": 1513,
      "Ġchanges": 1514,
      "aw": 1515,
      "Ġhuman": 1516,
      "16": 1517,
      "Ġsen": 1518,
      "ĠÏĥ": 1519,
      "Ġpost": 1520,
      "viron": 1521,
      "see": 1522,
      "ĠTherefore": 1523,
      "Ġtemperature": 1524,
      "ef": 1525,
      "Ġâī¤": 1526,
      "Ġrandom": 1527,
      "Ġdescribed": 1528,
      "Ġminim": 1529,
      "Ġtrain": 1530,
      "Ġ||": 1531,
      "Ġtop": 1532,
      "Ġvol": 1533,
      "Ġ/": 1534,
      "Ġwithout": 1535,
      "Ġsurface": 1536,
      "vant": 1537,
      "atisf": 1538,
      "ĠThus": 1539,
      "Ġrange": 1540,
      "Ġsl": 1541,
      "Ġconn": 1542,
      "ences": 1543,
      "Ġstrong": 1544,
      "Ġgroups": 1545,
      "Ġsour": 1546,
      "Ġproperties": 1547,
      "agne": 1548,
      "Ġsyn": 1549,
      "Ġear": 1550,
      "Ġcluster": 1551,
      "Ġatt": 1552,
      "Ġ{": 1553,
      "other": 1554,
      "Ġaccur": 1555,
      "Ġfr": 1556,
      "Ġalgeb": 1557,
      "Ġparameter": 1558,
      "Ġfactors": 1559,
      "Ġrest": 1560,
      "Ġmap": 1561,
      "Ġtre": 1562,
      "fer": 1563,
      "Ġmaxim": 1564,
      "iel": 1565,
      "ength": 1566,
      "Ġincluding": 1567,
      "Ġback": 1568,
      "Ġexist": 1569,
      "Ġ12": 1570,
      "ld": 1571,
      "ton": 1572,
      "asing": 1573,
      "Ġshowed": 1574,
      "Ġ199": 1575,
      "ode": 1576,
      "Ġsatisf": 1577,
      "ced": 1578,
      "Ġincreased": 1579,
      "Ġreported": 1580,
      "Ġfour": 1581,
      "Ġassess": 1582,
      "ĠCon": 1583,
      "ĠÎ²": 1584,
      "Ġrelated": 1585,
      "very": 1586,
      "ner": 1587,
      "Ġpers": 1588,
      "Ġsever": 1589,
      "gen": 1590,
      "based": 1591,
      "Ġbeing": 1592,
      "tice": 1593,
      "Ġorig": 1594,
      "Ġconstant": 1595,
      "ogn": 1596,
      "18": 1597,
      "though": 1598,
      "Ġneg": 1599,
      "Ġless": 1600,
      "Ġinterest": 1601,
      "Ġeffective": 1602,
      "urn": 1603,
      "arget": 1604,
      "Ġspecific": 1605,
      "Ġlevels": 1606,
      "oss": 1607,
      "atory": 1608,
      "Ġdiscuss": 1609,
      "Ġsample": 1610,
      "Ġstep": 1611,
      "Ġpoints": 1612,
      "Ġabs": 1613,
      "Ġtechniqu": 1614,
      "Ġcorrec": 1615,
      "17": 1616,
      "actions": 1617,
      "Ġfix": 1618,
      "ule": 1619,
      "ited": 1620,
      "ick": 1621,
      "Ġpat": 1622,
      "bers": 1623,
      "Ġunderst": 1624,
      "plied": 1625,
      "bit": 1626,
      "Ġpositive": 1627,
      "Ġ&": 1628,
      "Ġcoupl": 1629,
      "Ġel": 1630,
      "Ġcommun": 1631,
      "Ġextr": 1632,
      "cop": 1633,
      "Ġpopulation": 1634,
      "Ġfind": 1635,
      "Ġenviron": 1636,
      "Ġdemon": 1637,
      "Ġcho": 1638,
      "Ġconsist": 1639,
      "Ġexc": 1640,
      "Ġmechanism": 1641,
      "ole": 1642,
      "Ġage": 1643,
      "ey": 1644,
      "Ġach": 1645,
      "Ġsit": 1646,
      "Ġdemonstr": 1647,
      "Ġang": 1648,
      "Ġformation": 1649,
      "Ġhand": 1650,
      "Ġway": 1651,
      "Ġknown": 1652,
      "Ġachie": 1653,
      "ubl": 1654,
      "ograph": 1655,
      "Ġfinite": 1656,
      "Ġlit": 1657,
      "Ġconver": 1658,
      "Ġcontinu": 1659,
      "Ġimage": 1660,
      "agnetic": 1661,
      "Ġhealth": 1662,
      "Ġgene": 1663,
      "ĠâĢ¢": 1664,
      "Ġcontr": 1665,
      "Ġcanc": 1666,
      "Ġnow": 1667,
      "ON": 1668,
      "II": 1669,
      "Ġte": 1670,
      "Ġfram": 1671,
      "Ġcommon": 1672,
      "Ġge": 1673,
      "tional": 1674,
      "position": 1675,
      "Ġpresented": 1676,
      "Ġrole": 1677,
      "Ġevery": 1678,
      "Ġcall": 1679,
      "Ġrati": 1680,
      "Ġbehavior": 1681,
      "not": 1682,
      "Ġfam": 1683,
      "Ġvector": 1684,
      "Ġclin": 1685,
      "Ġeffici": 1686,
      "Ġevolution": 1687,
      "Ġdise": 1688,
      "Ġright": 1689,
      "ledge": 1690,
      "jects": 1691,
      "Ġequations": 1692,
      "Ġmust": 1693,
      "Ġprovide": 1694,
      "effici": 1695,
      "Ġdetail": 1696,
      "Ġcirc": 1697,
      "ogen": 1698,
      "Ġthus": 1699,
      "Ġrat": 1700,
      "ward": 1701,
      "Ġadd": 1702,
      "ĠÎ³": 1703,
      "ĠâĪ¼": 1704,
      "ĠÏģ": 1705,
      "Ġlat": 1706,
      "Ġamong": 1707,
      "Ġtarget": 1708,
      "aces": 1709,
      "Ġunc": 1710,
      "erence": 1711,
      "Ġvis": 1712,
      "Ġsti": 1713,
      "Ġbre": 1714,
      "Ġrele": 1715,
      "Ġprot": 1716,
      "own": 1717,
      "Ġsignificantly": 1718,
      "ĠOn": 1719,
      "ither": 1720,
      "tial": 1721,
      "ĠTheorem": 1722,
      "arm": 1723,
      "Ġseveral": 1724,
      "21": 1725,
      "nal": 1726,
      "Ġlay": 1727,
      "Ġsubs": 1728,
      "ĠMore": 1729,
      "Ġgrowth": 1730,
      "Ġelectr": 1731,
      "jor": 1732,
      "Ġstatis": 1733,
      "Ġsepar": 1734,
      "zed": 1735,
      "Ġprof": 1736,
      "ible": 1737,
      "Ġstrateg": 1738,
      "Ġnec": 1739,
      "ĠUn": 1740,
      "Ġflow": 1741,
      "Ġfil": 1742,
      "ules": 1743,
      "Ġconstruc": 1744,
      "Ġvarious": 1745,
      "ished": 1746,
      "Ġgreat": 1747,
      "Ġprec": 1748,
      "aging": 1749,
      "Ġcharacteristic": 1750,
      "SC": 1751,
      "Ġscale": 1752,
      "Ġlog": 1753,
      "mun": 1754,
      "row": 1755,
      "Ġdomain": 1756,
      "Ġprobability": 1757,
      "25": 1758,
      "omorph": 1759,
      "ĠCom": 1760,
      "Ġfeatures": 1761,
      "Ġcre": 1762,
      "ressed": 1763,
      "Ġimprove": 1764,
      "oint": 1765,
      "Ġpair": 1766,
      "gest": 1767,
      "less": 1768,
      "otic": 1769,
      "ody": 1770,
      "Ġcaus": 1771,
      "omen": 1772,
      "onic": 1773,
      "ĠÎ´": 1774,
      "Ġfoc": 1775,
      "Ġlab": 1776,
      "sure": 1777,
      "Ġaverage": 1778,
      "rid": 1779,
      "ior": 1780,
      "201": 1781,
      "vers": 1782,
      "atively": 1783,
      "ĠSince": 1784,
      "Ġfrequency": 1785,
      "Ġclear": 1786,
      "Ġcoeffici": 1787,
      "reg": 1788,
      "ances": 1789,
      "Ġtak": 1790,
      "Ġlif": 1791,
      "ĠÏĨ": 1792,
      "Ġques": 1793,
      "abl": 1794,
      "Ġsignal": 1795,
      "Ġknowledge": 1796,
      "Ġfinding": 1797,
      "Ġhere": 1798,
      "Ġbu": 1799,
      "ture": 1800,
      "Ġapplied": 1801,
      "Ġcollec": 1802,
      "Ġbin": 1803,
      "plement": 1804,
      "Ġmark": 1805,
      "ries": 1806,
      "Ġgo": 1807,
      "ience": 1808,
      "Ġagain": 1809,
      "ĠBy": 1810,
      "ploy": 1811,
      "Ġalgebra": 1812,
      "pec": 1813,
      "ĠSection": 1814,
      "ou": 1815,
      "Ġshe": 1816,
      "Ġleft": 1817,
      "Ġcri": 1818,
      "Ġavail": 1819,
      "Ġenvironment": 1820,
      "erial": 1821,
      "Ġvariables": 1822,
      "Ġhist": 1823,
      "Ġbet": 1824,
      "Ġconstrain": 1825,
      "Ġconduc": 1826,
      "Ġdifference": 1827,
      "Ġmicro": 1828,
      "Ġloss": 1829,
      "ety": 1830,
      "arch": 1831,
      "Ġ15": 1832,
      "Ġtransi": 1833,
      "ĠÏĢ": 1834,
      "rm": 1835,
      "Ġep": 1836,
      "Ġaction": 1837,
      "Ġfields": 1838,
      "osp": 1839,
      "Ġarea": 1840,
      "sing": 1841,
      "AR": 1842,
      "Ġsk": 1843,
      "ĠâĪĨ": 1844,
      "ores": 1845,
      "Ġparticip": 1846,
      "ivers": 1847,
      "Ġdel": 1848,
      "here": 1849,
      "verse": 1850,
      "Ġreview": 1851,
      "Ġtherefore": 1852,
      "Ġâī¥": 1853,
      "Ġlet": 1854,
      "Ġbefore": 1855,
      "och": 1856,
      "Ġrelationship": 1857,
      "omic": 1858,
      "Ġoff": 1859,
      "Ġphot": 1860,
      "Ġprotein": 1861,
      "oph": 1862,
      "read": 1863,
      "Ġdeveloped": 1864,
      "Ġauth": 1865,
      "dro": 1866,
      "lying": 1867,
      "Ġtimes": 1868,
      "ĠÏĦ": 1869,
      "imensional": 1870,
      "22": 1871,
      "Ġconcent": 1872,
      "Ġhom": 1873,
      "Ġcoll": 1874,
      "Ġtumor": 1875,
      "ĠFurther": 1876,
      "ĠÎ¸": 1877,
      "Ġalong": 1878,
      "Ġunderstand": 1879,
      "ended": 1880,
      "Ġmajor": 1881,
      "Ġzero": 1882,
      "Ġnumer": 1883,
      "Ġchann": 1884,
      "Ġprac": 1885,
      "Ġnat": 1886,
      "Ġread": 1887,
      "term": 1888,
      "Ġ).": 1889,
      "Ġhyp": 1890,
      "Th": 1891,
      "ised": 1892,
      "Ġinflu": 1893,
      "Ġpatient": 1894,
      "Ġsequence": 1895,
      "Ġbasis": 1896,
      "Ġest": 1897,
      "Ġfocus": 1898,
      "Ġlength": 1899,
      "Ġimplement": 1900,
      "Ġmaterial": 1901,
      "ulate": 1902,
      "Ġmut": 1903,
      "Ġpresence": 1904,
      "Ġhel": 1905,
      "Ġhyper": 1906,
      "Ġstill": 1907,
      "Ġmom": 1908,
      "Ġgenerated": 1909,
      "Ġact": 1910,
      "Ġpri": 1911,
      "Ġtraining": 1912,
      "Ġdiag": 1913,
      "Ġvia": 1914,
      "Ġpubl": 1915,
      "Ġsupport": 1916,
      "Ġsem": 1917,
      "Ġsugges": 1918,
      "Ġproof": 1919,
      "Ġpur": 1920,
      "ype": 1921,
      "Ġoperator": 1922,
      "ĠEx": 1923,
      "Ġidentified": 1924,
      "Ġlik": 1925,
      "ĠÂ±": 1926,
      "Ġresponse": 1927,
      "equ": 1928,
      "Ġdetermined": 1929,
      "ices": 1930,
      "CT": 1931,
      "200": 1932,
      "time": 1933,
      "ume": 1934,
      "AT": 1935,
      "ĠAt": 1936,
      "Ġnecess": 1937,
      "lement": 1938,
      "Ġmuch": 1939,
      "Ġelements": 1940,
      "Ġrequired": 1941,
      "Ġsuc": 1942,
      "Ġaccording": 1943,
      "itude": 1944,
      "Ġmeans": 1945,
      "Ġspin": 1946,
      "Ġpattern": 1947,
      "Ġexperimental": 1948,
      "Ġeas": 1949,
      "for": 1950,
      "Ġself": 1951,
      "Ġprom": 1952,
      "Ġerror": 1953,
      "Ġreas": 1954,
      "Ġequival": 1955,
      "Ġfree": 1956,
      "Ġfixed": 1957,
      "way": 1958,
      "Ġcancer": 1959,
      "dimensional": 1960,
      "uture": 1961,
      "Ġimages": 1962,
      "ustr": 1963,
      "uration": 1964,
      "Ġrequire": 1965,
      "Ġdiagn": 1966,
      "ĠÏī": 1967,
      "Ġleast": 1968,
      "uted": 1969,
      "Ġcross": 1970,
      "Î±": 1971,
      "Ġspati": 1972,
      "Ġeither": 1973,
      "Ġratio": 1974,
      "ying": 1975,
      "Ġdifferences": 1976,
      "Ġsamples": 1977,
      "Ġsimple": 1978,
      "ĠHe": 1979,
      "Ġdid": 1980,
      "Ġgalaxies": 1981,
      "Ġproced": 1982,
      "Ġprop": 1983,
      "Ġtes": 1984,
      "Ġindependent": 1985,
      "Ġwave": 1986,
      "30": 1987,
      "Ġide": 1988,
      "abil": 1989,
      "odes": 1990,
      "Ġ100": 1991,
      "ople": 1992,
      "Ġprogram": 1993,
      "Ġeduc": 1994,
      "Ġclinical": 1995,
      "inally": 1996,
      "Ġseen": 1997,
      "omes": 1998,
      "ST": 1999,
      "Ġnuc": 2000,
      "cent": 2001,
      "Ġmultiple": 2002,
      "Ġmeasurement": 2003,
      "Ġinj": 2004,
      "Ġret": 2005,
      "Ġhowever": 2006,
      "Ġrespect": 2007,
      "sib": 2008,
      "Ġincreasing": 2009,
      "Ġhol": 2010,
      "Ġlight": 2011,
      "tif": 2012,
      "50": 2013,
      "24": 2014,
      "ĊĊ": 2015,
      "Ġmade": 2016,
      "Ġinhib": 2017,
      "ways": 2018,
      "ison": 2019,
      "Ġlarger": 2020,
      "23": 2021,
      "Ġ),": 2022,
      "Ġactiv": 2023,
      "ground": 2024,
      "Ġphysical": 2025,
      "ĠInd": 2026,
      "ead": 2027,
      "Ġnear": 2028,
      "Ġrot": 2029,
      "Ġmight": 2030,
      "Ġplan": 2031,
      "Ġhal": 2032,
      "Ġcritical": 2033,
      "Ġgas": 2034,
      "Ġwhether": 2035,
      "astic": 2036,
      "ols": 2037,
      "Ġtiss": 2038,
      "ift": 2039,
      "Ġcare": 2040,
      "ener": 2041,
      "hesis": 2042,
      "Ġmen": 2043,
      "Ġdisease": 2044,
      "Ġbetter": 2045,
      "Ġax": 2046,
      "Ġreduced": 2047,
      "Ġavailable": 2048,
      "ĠâĪŀ": 2049,
      "Ġgu": 2050,
      "ocial": 2051,
      "af": 2052,
      "Ġneur": 2053,
      "Ġinput": 2054,
      "emma": 2055,
      "SS": 2056,
      "ĠAd": 2057,
      "medi": 2058,
      "Ġlike": 2059,
      "Ġdr": 2060,
      "ĠCO": 2061,
      "pro": 2062,
      "Ġmolec": 2063,
      "Ġestabl": 2064,
      "Ġcost": 2065,
      "ordin": 2066,
      "Ġmanag": 2067,
      "ret": 2068,
      "Ġwhat": 2069,
      "ards": 2070,
      "ensor": 2071,
      "gment": 2072,
      "ably": 2073,
      "Ġmix": 2074,
      "Ġprocesses": 2075,
      "Ġshort": 2076,
      "Ġbrain": 2077,
      "Ġcorrelation": 2078,
      "Ġsimulation": 2079,
      "Ġreve": 2080,
      "ariant": 2081,
      "Ġmake": 2082,
      "Ġmeasured": 2083,
      "Ġchem": 2084,
      "Ġboundary": 2085,
      "Ġregions": 2086,
      "Ġschem": 2087,
      "Ġcomponents": 2088,
      "Ġbelow": 2089,
      "ides": 2090,
      "Ġhis": 2091,
      "mit": 2092,
      "cle": 2093,
      "Ġcalculated": 2094,
      "Ġspecies": 2095,
      "asc": 2096,
      "Ġsymmetry": 2097,
      "Ġunit": 2098,
      "Ġgood": 2099,
      "Ġmoment": 2100,
      "abol": 2101,
      "Ġill": 2102,
      "Ġcontext": 2103,
      "ula": 2104,
      "Ġdefine": 2105,
      "Ġarg": 2106,
      "Ġproduction": 2107,
      "ogene": 2108,
      "more": 2109,
      "Ġglob": 2110,
      "Ġinteraction": 2111,
      "Ġenc": 2112,
      "Ġrelative": 2113,
      "Ġrelation": 2114,
      "Ġtransform": 2115,
      "Ġchild": 2116,
      "Ġliter": 2117,
      "ĠWh": 2118,
      "As": 2119,
      "angu": 2120,
      "igen": 2121,
      "tics": 2122,
      "Ġvalid": 2123,
      "Ġview": 2124,
      "Ġexpected": 2125,
      "Ġampl": 2126,
      "Ġphen": 2127,
      "Ġemploy": 2128,
      "Ġderiv": 2129,
      "Ġvel": 2130,
      "Ġmagnetic": 2131,
      "Ġelement": 2132,
      "ER": 2133,
      "Ġrece": 2134,
      "Ġpeople": 2135,
      "Ġadj": 2136,
      "Ġ11": 2137,
      "ame": 2138,
      "Ġenh": 2139,
      "Ġincluded": 2140,
      "Ġstress": 2141,
      "ĠRes": 2142,
      "Ġtherm": 2143,
      "izing": 2144,
      "Ġfac": 2145,
      "Ġtypes": 2146,
      "lo": 2147,
      "Ġ30": 2148,
      "upp": 2149,
      "Ġsumm": 2150,
      "Ġquality": 2151,
      "ank": 2152,
      "Ġintegr": 2153,
      "air": 2154,
      "Ġimpact": 2155,
      "Ġaround": 2156,
      "Ġsolutions": 2157,
      "ĠMoreover": 2158,
      "Ġtherap": 2159,
      "Ġposition": 2160,
      "Ġinterp": 2161,
      "atal": 2162,
      "Ġsource": 2163,
      "cri": 2164,
      "ored": 2165,
      "rum": 2166,
      "ĠHere": 2167,
      "Ġfuture": 2168,
      "xt": 2169,
      "me": 2170,
      "Ġdistance": 2171,
      "ans": 2172,
      "Ġexten": 2173,
      "auge": 2174,
      "Ġgraph": 2175,
      "omial": 2176,
      "ris": 2177,
      "Ġcult": 2178,
      "uation": 2179,
      "reen": 2180,
      "Ġwater": 2181,
      "Ġlife": 2182,
      "Ġmatter": 2183,
      "orts": 2184,
      "Ġimpl": 2185,
      "Ġ13": 2186,
      "Ġstat": 2187,
      "tically": 2188,
      "Ġkey": 2189,
      "Ġadditional": 2190,
      "Ġdetermine": 2191,
      "Ġvir": 2192,
      "ars": 2193,
      "min": 2194,
      "Ġresour": 2195,
      "roup": 2196,
      "Ġweight": 2197,
      "Ġemb": 2198,
      "Ġearly": 2199,
      "amm": 2200,
      "man": 2201,
      "Pro": 2202,
      "Ġproduct": 2203,
      "ĠÎĵ": 2204,
      "Ġnatural": 2205,
      "ults": 2206,
      "Ġget": 2207,
      "Ġnegative": 2208,
      "aches": 2209,
      "ticle": 2210,
      "Ġyiel": 2211,
      "Ġmetric": 2212,
      "Ġdown": 2213,
      "Ġweak": 2214,
      "Ġstudents": 2215,
      "Ġgrav": 2216,
      "Ġblood": 2217,
      "Ġexplain": 2218,
      "Ġtake": 2219,
      "ĠOur": 2220,
      "Ġimmun": 2221,
      "linear": 2222,
      "Ġmaximum": 2223,
      "26": 2224,
      "Ġclassical": 2225,
      "Ġaccuracy": 2226,
      "Ġexact": 2227,
      "Ġrepresentation": 2228,
      "Ġdetection": 2229,
      "ape": 2230,
      "Ġcalled": 2231,
      "omy": 2232,
      "plicit": 2233,
      "Ġfamily": 2234,
      "Ġ14": 2235,
      "Ġinclude": 2236,
      "Ġcoordin": 2237,
      "Ġcannot": 2238,
      "Ġox": 2239,
      "Ġexperiments": 2240,
      "Ġspatial": 2241,
      "Ġ16": 2242,
      "yt": 2243,
      "Ġtas": 2244,
      "Ġfew": 2245,
      "Ġsuggest": 2246,
      "itor": 2247,
      "ering": 2248,
      "Ġhydro": 2249,
      "Ġgeomet": 2250,
      "Ġmagn": 2251,
      "Ġfull": 2252,
      "Ġgauge": 2253,
      "Ġreflec": 2254,
      "aneous": 2255,
      "Ġfeature": 2256,
      "Ġprimary": 2257,
      "ee": 2258,
      "Ġfit": 2259,
      "Ġevidence": 2260,
      "Ġacross": 2261,
      "Ġopen": 2262,
      "Ġprovided": 2263,
      "roscop": 2264,
      "Ġdegree": 2265,
      "ument": 2266,
      "Ġmas": 2267,
      "Ġacid": 2268,
      "Ġwid": 2269,
      "like": 2270,
      "27": 2271,
      "Ġ18": 2272,
      "rence": 2273,
      "Ġlines": 2274,
      "Ġside": 2275,
      "ware": 2276,
      "ĠWhen": 2277,
      "plac": 2278,
      "Ġsensi": 2279,
      "ĠAll": 2280,
      "oper": 2281,
      "Ġlangu": 2282,
      "Ġcertain": 2283,
      "jective": 2284,
      "ii": 2285,
      "mod": 2286,
      "Ġparticles": 2287,
      "Ġir": 2288,
      "Ġher": 2289,
      "Ġhelp": 2290,
      "Ġdiv": 2291,
      "SA": 2292,
      "ĠOne": 2293,
      "Ġresulting": 2294,
      "ata": 2295,
      "CA": 2296,
      "Ġwind": 2297,
      "Ġlast": 2298,
      "Ġpo": 2299,
      "Ġsocial": 2300,
      "ĠNote": 2301,
      "Ġoutput": 2302,
      "turb": 2303,
      "Ġaccount": 2304,
      "Ġprinc": 2305,
      "Ġrecogn": 2306,
      "Ġreveal": 2307,
      "Ġdiffic": 2308,
      "bran": 2309,
      "Ġderived": 2310,
      "ights": 2311,
      "Ġproblems": 2312,
      "anced": 2313,
      "28": 2314,
      "Ġdiscussed": 2315,
      "Ġoperators": 2316,
      "osure": 2317,
      "ocity": 2318,
      "Ġneut": 2319,
      "Ġlikely": 2320,
      "Ġliterature": 2321,
      "Ġstars": 2322,
      "Ġstructures": 2323,
      "ray": 2324,
      "ck": 2325,
      "osph": 2326,
      "ections": 2327,
      "cep": 2328,
      "Ġprovides": 2329,
      "Ġassume": 2330,
      "Ġiss": 2331,
      "Ġfraction": 2332,
      "ĠEn": 2333,
      "Ġuniqu": 2334,
      "Ġfunctional": 2335,
      "Ġdam": 2336,
      "sh": 2337,
      "ially": 2338,
      "ĠÎ½": 2339,
      "Ġdev": 2340,
      "Ġplay": 2341,
      "Ġreason": 2342,
      "order": 2343,
      "ories": 2344,
      "Ġmorph": 2345,
      "ION": 2346,
      "Ġwrit": 2347,
      "ths": 2348,
      "ze": 2349,
      "Ġconven": 2350,
      "Ġdefinition": 2351,
      "Ġasym": 2352,
      "Ġcos": 2353,
      "Ġ50": 2354,
      "To": 2355,
      "Ġdatas": 2356,
      "oms": 2357,
      "Ġprior": 2358,
      "Ġdynamics": 2359,
      "Ġsuccess": 2360,
      "ĠLemma": 2361,
      "Ġquestion": 2362,
      "ID": 2363,
      "Ġcompos": 2364,
      "rin": 2365,
      "Ġparticle": 2366,
      "Ġfinal": 2367,
      "Ġinteractions": 2368,
      "Ġincreases": 2369,
      "Ġfail": 2370,
      "mission": 2371,
      "Ġturn": 2372,
      "Ġoften": 2373,
      "ĠFurthermore": 2374,
      "Ġfindings": 2375,
      "lation": 2376,
      "ots": 2377,
      "Ġestimate": 2378,
      "othe": 2379,
      "ework": 2380,
      "Ġdenot": 2381,
      "ES": 2382,
      "ategory": 2383,
      "Ġequal": 2384,
      "ands": 2385,
      "allen": 2386,
      "IN": 2387,
      "ansion": 2388,
      "Ġbest": 2389,
      "ching": 2390,
      "Ġcomplete": 2391,
      "ellar": 2392,
      "29": 2393,
      "ĠÎ©": 2394,
      "Ġgive": 2395,
      "Ġspectrum": 2396,
      "Ġcharacteristics": 2397,
      "Ġmeasurements": 2398,
      "sy": 2399,
      "vent": 2400,
      "omorphism": 2401,
      "Ġcoupling": 2402,
      "Ġpressure": 2403,
      "Ġsoft": 2404,
      "Ġvelocity": 2405,
      "Ġrun": 2406,
      "Ġeigen": 2407,
      "ĠWith": 2408,
      "Ġanother": 2409,
      "Ġche": 2410,
      "Ġconfir": 2411,
      "Ġcontinuous": 2412,
      "Ġinduced": 2413,
      "eration": 2414,
      "Ġmy": 2415,
      "Ġcount": 2416,
      "Ġred": 2417,
      "Ġrestric": 2418,
      "MS": 2419,
      "Ġuncertain": 2420,
      "Ġcontrast": 2421,
      "Ġserv": 2422,
      "Ġnan": 2423,
      "ĠÎ·": 2424,
      "))": 2425,
      "Ġappear": 2426,
      "Ġdirectly": 2427,
      "Ġmetabol": 2428,
      "Ġlayer": 2429,
      "rim": 2430,
      "ĠDNA": 2431,
      "erve": 2432,
      "Ġtaken": 2433,
      "Ġgives": 2434,
      "Ġmanagement": 2435,
      "hers": 2436,
      "Ġgenes": 2437,
      "oma": 2438,
      "Ġidentify": 2439,
      "rad": 2440,
      "Ġadap": 2441,
      "ify": 2442,
      "Ġconsistent": 2443,
      "gl": 2444,
      "Ġess": 2445,
      "ĠSc": 2446,
      "Ġdenote": 2447,
      "Ġglobal": 2448,
      "Ġsets": 2449,
      "Ġvariable": 2450,
      "Ġfund": 2451,
      "tor": 2452,
      "Ġcomponent": 2453,
      "Ġrates": 2454,
      "Ġnecessary": 2455,
      "Ġimaging": 2456,
      "itation": 2457,
      "Ġtechniques": 2458,
      "Ġstudied": 2459,
      "ynomial": 2460,
      "Ġsus": 2461,
      "Ġbro": 2462,
      "ĠII": 2463,
      "ĠAm": 2464,
      "ĠThey": 2465,
      "pping": 2466,
      "resh": 2467,
      "40": 2468,
      "struc": 2469,
      "Ġseries": 2470,
      "ĠSim": 2471,
      "Ġframework": 2472,
      "amil": 2473,
      "Ġevaluation": 2474,
      "Ġdirection": 2475,
      "Ġchannel": 2476,
      "Ġpul": 2477,
      "Ġtheorem": 2478,
      "Ġcomparison": 2479,
      "Ġanalys": 2480,
      "Ġexpansion": 2481,
      "ried": 2482,
      "Ġconsequ": 2483,
      "wn": 2484,
      "Ġauthors": 2485,
      "Ġaim": 2486,
      "hy": 2487,
      "Ġbackground": 2488,
      "ĠCD": 2489,
      "ird": 2490,
      "Ġbr": 2491,
      "Ġenti": 2492,
      "Ġvolume": 2493,
      "Ġdays": 2494,
      "âĢĲ": 2495,
      "Ġareas": 2496,
      "Ġsimulations": 2497,
      "Ġexperiment": 2498,
      "Ġlater": 2499,
      "Ġeng": 2500,
      "%)": 2501,
      "Ġprocedure": 2502,
      "000": 2503,
      "ged": 2504,
      "izes": 2505,
      "Ġsetting": 2506,
      "ĠAfter": 2507,
      "Ġblock": 2508,
      "Ġexists": 2509,
      "Ġcentral": 2510,
      "Î²": 2511,
      "ai": 2512,
      "Ġreduc": 2513,
      "enari": 2514,
      "riter": 2515,
      "Ġrecent": 2516,
      "Ġ}": 2517,
      "Ġsw": 2518,
      "Ġchallen": 2519,
      "Ġstability": 2520,
      "Ġsuffici": 2521,
      "This": 2522,
      "Ġrather": 2523,
      "Ġnext": 2524,
      "Ġevents": 2525,
      "Ġproteins": 2526,
      "Ġwhose": 2527,
      "ters": 2528,
      "Ġtransition": 2529,
      "ĠÏĪ": 2530,
      "mon": 2531,
      "ĠÎĽ": 2532,
      "ectors": 2533,
      "ided": 2534,
      "Ġpossib": 2535,
      "Ġpolynomial": 2536,
      "Ġprove": 2537,
      "bl": 2538,
      "Ġsqu": 2539,
      "utes": 2540,
      "Ġable": 2541,
      "ining": 2542,
      "Ġutil": 2543,
      "Ġthough": 2544,
      "itions": 2545,
      ")-": 2546,
      "entially": 2547,
      "Ġrelevant": 2548,
      "Ġindex": 2549,
      "Ġdiagram": 2550,
      "cho": 2551,
      "Ġnumerical": 2552,
      "CD": 2553,
      "ĠSp": 2554,
      "Ġmice": 2555,
      "Ġapplication": 2556,
      "Ġimplies": 2557,
      "co": 2558,
      "Ġelect": 2559,
      "Ġlanguage": 2560,
      "RI": 2561,
      "05": 2562,
      "Ġreduction": 2563,
      "Ġefficiency": 2564,
      "oll": 2565,
      "Ġpeak": 2566,
      "eric": 2567,
      "Ġstren": 2568,
      "AP": 2569,
      "ĠFinally": 2570,
      "ope": 2571,
      "icity": 2572,
      "33": 2573,
      "sian": 2574,
      "Ġsurv": 2575,
      "ung": 2576,
      "aries": 2577,
      "ET": 2578,
      "ategor": 2579,
      "Ġallows": 2580,
      "Ġdri": 2581,
      "Ġbo": 2582,
      "EM": 2583,
      "Ġselected": 2584,
      "AC": 2585,
      "Ġnumbers": 2586,
      "Ġdifficult": 2587,
      "inant": 2588,
      "Ġscenari": 2589,
      "Ġsmaller": 2590,
      "Ġemission": 2591,
      "Ġstage": 2592,
      "Ġperturb": 2593,
      "ĠAlthough": 2594,
      "Ġtissue": 2595,
      "Ġspecial": 2596,
      "Ġnote": 2597,
      "Ġ$": 2598,
      "Ġobjects": 2599,
      "tonian": 2600,
      "Ġcontent": 2601,
      "most": 2602,
      "ĠÏķ": 2603,
      "Ġleads": 2604,
      "Ġpreviously": 2605,
      "vities": 2606,
      "Ġapproaches": 2607,
      "Ġeducation": 2608,
      "Ġmm": 2609,
      "ĠÎµ": 2610,
      "ĠDe": 2611,
      "Ġcour": 2612,
      "Ġjust": 2613,
      "ury": 2614,
      "ĠHence": 2615,
      "Ġlimited": 2616,
      "Ġcurve": 2617,
      "Ġobservations": 2618,
      "Ġintroduced": 2619,
      "ĠĠ": 2620,
      "inary": 2621,
      "wh": 2622,
      "Ġbecomes": 2623,
      "Ġlink": 2624,
      "Ġcriter": 2625,
      "Ġdescri": 2626,
      "erc": 2627,
      "ĠRe": 2628,
      "Ġdifferenti": 2629,
      "Ġconfig": 2630,
      "Ġful": 2631,
      "Ġopp": 2632,
      "pri": 2633,
      "ĠCl": 2634,
      "Ġinfluence": 2635,
      "Ġadv": 2636,
      "35": 2637,
      "by": 2638,
      "Ġvac": 2639,
      "Ġinfin": 2640,
      "Ġagainst": 2641,
      "Ġequivalent": 2642,
      "34": 2643,
      "isc": 2644,
      "atter": 2645,
      "ĠÎ¾": 2646,
      "Ġ25": 2647,
      "Ġcontroll": 2648,
      "wise": 2649,
      "Con": 2650,
      "Ġspeed": 2651,
      "St": 2652,
      "Ġclose": 2653,
      "ĠFrom": 2654,
      "umin": 2655,
      "ste": 2656,
      "Ġexplicit": 2657,
      "Ġformula": 2658,
      "Ġreduce": 2659,
      "Cs": 2660,
      "know": 2661,
      "ouse": 2662,
      "Ġgreater": 2663,
      "Ġregular": 2664,
      "ĠIm": 2665,
      "For": 2666,
      "Ġwa": 2667,
      "tices": 2668,
      "Ġscalar": 2669,
      "Ġsegment": 2670,
      "ooth": 2671,
      "Ġneu": 2672,
      "Ġstim": 2673,
      "Ġupper": 2674,
      "Ġleading": 2675,
      "lusion": 2676,
      "Ġcontains": 2677,
      "Ġoriginal": 2678,
      "GF": 2679,
      "ems": 2680,
      "ient": 2681,
      "Ġelectro": 2682,
      "31": 2683,
      "let": 2684,
      "Ġbecome": 2685,
      "Ġparticipants": 2686,
      "bor": 2687,
      "tle": 2688,
      "Ġblack": 2689,
      "Ġinternal": 2690,
      "Ġnam": 2691,
      "Ġnucle": 2692,
      "Ġtechnique": 2693,
      "vere": 2694,
      "Ġnoise": 2695,
      "gether": 2696,
      "Ġtogether": 2697,
      "Ġuseful": 2698,
      "ĠUsing": 2699,
      "aps": 2700,
      "rary": 2701,
      "Ġbran": 2702,
      "Ġ24": 2703,
      "Ġoverall": 2704,
      "Ġrecom": 2705,
      "Ġnetworks": 2706,
      "Ġrecon": 2707,
      "Ġexpect": 2708,
      "Ġcategory": 2709,
      "uk": 2710,
      "Ġdiscre": 2711,
      "Ġconcept": 2712,
      "ÏĢ": 2713,
      "Ġestimated": 2714,
      "Ġfig": 2715,
      "hyl": 2716,
      "den": 2717,
      "Ġconclud": 2718,
      "Ġdrug": 2719,
      "CR": 2720,
      "ography": 2721,
      "ditional": 2722,
      "Ġ198": 2723,
      "ĠHamil": 2724,
      "Ġwhereas": 2725,
      "Ġsurve": 2726,
      "Ġappropri": 2727,
      "tivities": 2728,
      "32": 2729,
      "Ġexpressed": 2730,
      "Ġunderstanding": 2731,
      "ms": 2732,
      "Ġstatistical": 2733,
      "Ġexpon": 2734,
      "MP": 2735,
      "Ġevent": 2736,
      "Ġobject": 2737,
      "amp": 2738,
      "Ġcoefficients": 2739,
      "Ġscheme": 2740,
      "Ġunique": 2741,
      "IV": 2742,
      "iform": 2743,
      "Ġhighly": 2744,
      "Ġcombination": 2745,
      "Ġindividuals": 2746,
      "rans": 2747,
      "Ġtransformation": 2748,
      "Ġmar": 2749,
      "Ġchoice": 2750,
      "Ġantib": 2751,
      "come": 2752,
      "Ġcut": 2753,
      "Ġintr": 2754,
      "Ġalways": 2755,
      "Ġload": 2756,
      "Ġmanif": 2757,
      "Ġanalyzed": 2758,
      "Ġreference": 2759,
      "Ġasp": 2760,
      "Ġtheore": 2761,
      "Ġinvolved": 2762,
      "Ġsearch": 2763,
      "uit": 2764,
      "nce": 2765,
      "bs": 2766,
      "normal": 2767,
      "uble": 2768,
      "Ġreaction": 2769,
      "Ġactive": 2770,
      "rial": 2771,
      "ĠâĪĤ": 2772,
      "Ġkin": 2773,
      "istance": 2774,
      "Ġnature": 2775,
      "AS": 2776,
      "Ġconducted": 2777,
      "Ġdescribe": 2778,
      "Ġdemonstrated": 2779,
      "Ġcontribution": 2780,
      "Ġmode": 2781,
      "bon": 2782,
      "acted": 2783,
      "ĠSec": 2784,
      "eV": 2785,
      "hood": 2786,
      "Ġbene": 2787,
      "eness": 2788,
      "Ġtransfer": 2789,
      "Ġreport": 2790,
      "ascular": 2791,
      "Ġillustr": 2792,
      "Ġcore": 2793,
      "Ġcategor": 2794,
      "Ġstrategy": 2795,
      "Ġproperty": 2796,
      "tis": 2797,
      "Ġapplications": 2798,
      "Ġconserv": 2799,
      "Ġ17": 2800,
      "Ġmotion": 2801,
      "gin": 2802,
      "Ġactivation": 2803,
      "Ġorigin": 2804,
      "Ġflux": 2805,
      "comes": 2806,
      "Ġproj": 2807,
      "pecially": 2808,
      "Ġclassification": 2809,
      "Ġelectron": 2810,
      "isted": 2811,
      "Ġexhib": 2812,
      "ĠRec": 2813,
      "Ġlack": 2814,
      "Ġaffect": 2815,
      "Ġbody": 2816,
      "Ġbuil": 2817,
      "Ġremains": 2818,
      "Ġchildren": 2819,
      "arily": 2820,
      "Ġability": 2821,
      "Ġclim": 2822,
      "Ġloop": 2823,
      "36": 2824,
      "rices": 2825,
      "pid": 2826,
      "ious": 2827,
      "Ġfive": 2828,
      "Ġresolution": 2829,
      "unction": 2830,
      "ĠFirst": 2831,
      "ystem": 2832,
      "Ħĵ": 2833,
      "Ġaltern": 2834,
      "OD": 2835,
      "38": 2836,
      "ites": 2837,
      "off": 2838,
      "Ġatten": 2839,
      "Ġmove": 2840,
      "brane": 2841,
      "Ġpropor": 2842,
      "Ġneeded": 2843,
      "Ġoptimal": 2844,
      "Ġfem": 2845,
      "any": 2846,
      "Ġlaw": 2847,
      "Ġclosed": 2848,
      "akes": 2849,
      "Ġprinci": 2850,
      "ready": 2851,
      "Ġsmooth": 2852,
      "RNA": 2853,
      "ras": 2854,
      "Ġadop": 2855,
      "OS": 2856,
      "Ġanim": 2857,
      "wards": 2858,
      "encies": 2859,
      "ession": 2860,
      "Î»": 2861,
      "Ġmal": 2862,
      "ropy": 2863,
      "ont": 2864,
      "Ġextre": 2865,
      "rite": 2866,
      "acts": 2867,
      "PS": 2868,
      "Ġselection": 2869,
      "ĠHamiltonian": 2870,
      "Ġisol": 2871,
      "Ġworld": 2872,
      "Ġfollowed": 2873,
      "Ġstable": 2874,
      "Ġapproximation": 2875,
      "spec": 2876,
      "Ġrelatively": 2877,
      "Ġrepe": 2878,
      "osen": 2879,
      "Ġbenef": 2880,
      "Ġexposure": 2881,
      "NT": 2882,
      "Ġpolar": 2883,
      "Ġstellar": 2884,
      "Ġcontaining": 2885,
      "Ġtensor": 2886,
      "Ġcomplic": 2887,
      "ĠÏĩ": 2888,
      "Ġdetected": 2889,
      "CC": 2890,
      "group": 2891,
      "Ġprotoc": 2892,
      "Ġarbit": 2893,
      "tioned": 2894,
      "Ġoptimization": 2895,
      "Ġdiscussion": 2896,
      "Ġalready": 2897,
      "Ġintegral": 2898,
      "Ġhence": 2899,
      "Ġachieve": 2900,
      "Ġremo": 2901,
      "Ġfib": 2902,
      "âĢĻ": 2903,
      "Ġindicate": 2904,
      "Ġalign": 2905,
      "Ġstra": 2906,
      "Ġrequires": 2907,
      "Ġemerg": 2908,
      "Ġwee": 2909,
      "Ġdifferential": 2910,
      "Ġrepresents": 2911,
      "pose": 2912,
      "Ġfeed": 2913,
      "ccording": 2914,
      "omatic": 2915,
      "Ġrevealed": 2916,
      "Ġchain": 2917,
      "Ġord": 2918,
      "Ġbar": 2919,
      "Ġsense": 2920,
      "Ġecon": 2921,
      "Ġplace": 2922,
      "Ġfore": 2923,
      "%,": 2924,
      "ĠCo": 2925,
      "Ġrefer": 2926,
      "Ġarter": 2927,
      "pped": 2928,
      "Ġespecially": 2929,
      "umn": 2930,
      "ging": 2931,
      "Ġstrength": 2932,
      "Ġsources": 2933,
      "37": 2934,
      "ring": 2935,
      "ĠMet": 2936,
      "Ġneurons": 2937,
      "Ġhaving": 2938,
      "Ġphosph": 2939,
      "ilib": 2940,
      "Ġactivities": 2941,
      "Ġcapac": 2942,
      "Ġspe": 2943,
      "ours": 2944,
      "Ġthresh": 2945,
      "Ġday": 2946,
      "gence": 2947,
      "Ġtreated": 2948,
      "Ġamount": 2949,
      "Ġyou": 2950,
      "OR": 2951,
      "Ġhypot": 2952,
      "we": 2953,
      "ĠApp": 2954,
      "Ġmach": 2955,
      "Ġground": 2956,
      "Ġoutcomes": 2957,
      "Ġconcentration": 2958,
      "Ġmechanisms": 2959,
      "Ġbasic": 2960,
      "..": 2961,
      "Ġtext": 2962,
      "Ġmus": 2963,
      "uct": 2964,
      "Ġmonths": 2965,
      "Ġmeasures": 2966,
      "entif": 2967,
      "ĠâĬĹ": 2968,
      "Ġgalaxy": 2969,
      "ches": 2970,
      "Ġcm": 2971,
      "Ġdistinc": 2972,
      "Ġfar": 2973,
      "ina": 2974,
      "Ġmaintain": 2975,
      "Ġangle": 2976,
      "ured": 2977,
      "Ġanalyses": 2978,
      "Ġsimpl": 2979,
      "usions": 2980,
      "Ġalthough": 2981,
      "Ġimproved": 2982,
      "ps": 2983,
      "Ġdeath": 2984,
      "back": 2985,
      "gs": 2986,
      "active": 2987,
      "ising": 2988,
      "Ġextension": 2989,
      "Ġcarried": 2990,
      "rient": 2991,
      "Ġagre": 2992,
      "Ġmomentum": 2993,
      "ones": 2994,
      "vial": 2995,
      "Ġappropriate": 2996,
      "ulating": 2997,
      "Ġband": 2998,
      "Ġdevi": 2999,
      "Ġparti": 3000,
      "Ġcoefficient": 3001,
      "related": 3002,
      "port": 3003,
      "scill": 3004,
      "Ġphenomen": 3005,
      "Ġfundam": 3006,
      "Ġversion": 3007,
      "Ġvisual": 3008,
      "Ġwritten": 3009,
      "Ġcombined": 3010,
      "Ġtask": 3011,
      "Ġdiagnosis": 3012,
      "Ç«": 3013,
      "ancy": 3014,
      "Ġarticle": 3015,
      "ĠSupp": 3016,
      "Ġsex": 3017,
      "iving": 3018,
      "Ġwhole": 3019,
      "Ġspl": 3020,
      "Ġrepro": 3021,
      "Ġshape": 3022,
      "Ġhor": 3023,
      "Ġdual": 3024,
      "atives": 3025,
      "go": 3026,
      "Ġminimum": 3027,
      "Ġsubst": 3028,
      "ĠAss": 3029,
      "Ġsurvival": 3030,
      "Ġchemical": 3031,
      "ĠAr": 3032,
      "Ġdetect": 3033,
      "Î½": 3034,
      "rium": 3035,
      "Ġdone": 3036,
      "Ġcorrect": 3037,
      "Ġconstruction": 3038,
      "Ġthermal": 3039,
      "zym": 3040,
      "Ġcalculation": 3041,
      ");": 3042,
      "Ġsubsequ": 3043,
      "Ġvariation": 3044,
      "Ġtrue": 3045,
      "Ġinvariant": 3046,
      "Ġforms": 3047,
      "ĠMod": 3048,
      "cin": 3049,
      "lex": 3050,
      "type": 3051,
      "Ġinvestigated": 3052,
      "Ïĥ": 3053,
      "omal": 3054,
      "Ġevaluated": 3055,
      "Â°": 3056,
      "ream": 3057,
      "ĠNo": 3058,
      "Ġtherapy": 3059,
      "emic": 3060,
      "Ġdynamic": 3061,
      "Ġclusters": 3062,
      "rang": 3063,
      "Ġplas": 3064,
      "ĠWhile": 3065,
      "âĢĵ": 3066,
      "ĠÎ¦": 3067,
      "Ġtrend": 3068,
      "ĠRef": 3069,
      "ĠÎ£": 3070,
      "Ġadvant": 3071,
      "known": 3072,
      "Ġwords": 3073,
      "Ġrapid": 3074,
      "Ġoperation": 3075,
      "Ġcorrespond": 3076,
      "ectiv": 3077,
      "Ġsymmetric": 3078,
      "Ġconstraints": 3079,
      "Ġoscill": 3080,
      "Ġsite": 3081,
      "Ġthird": 3082,
      "ler": 3083,
      "Ġdecrease": 3084,
      "Ġyear": 3085,
      "Ġlearn": 3086,
      "roph": 3087,
      "Ġair": 3088,
      "ceed": 3089,
      ")(": 3090,
      "Ġunivers": 3091,
      "Ġalgorithms": 3092,
      "Ġgain": 3093,
      "Ġdecom": 3094,
      "Ġconnected": 3095,
      "Ġasympt": 3096,
      "Ġgeneration": 3097,
      "Ġhistory": 3098,
      "ĠSU": 3099,
      "orb": 3100,
      "Ġrob": 3101,
      "Ġdecay": 3102,
      "Ġconcentr": 3103,
      "AD": 3104,
      "IC": 3105,
      "Ġneural": 3106,
      "ĠProposition": 3107,
      "Ġdepends": 3108,
      "ded": 3109,
      "Ps": 3110,
      "Ġwomen": 3111,
      "NN": 3112,
      "Ġcolor": 3113,
      "Ġpublic": 3114,
      "Ġachieved": 3115,
      "Ġextended": 3116,
      "Ġneeds": 3117,
      "uations": 3118,
      "Ġcorresponds": 3119,
      "Ġresid": 3120,
      "Ġsoftware": 3121,
      "Ġcommunication": 3122,
      "Ġcyt": 3123,
      "60": 3124,
      "Ġradius": 3125,
      "aching": 3126,
      "Ġavoid": 3127,
      "Ġtheoretical": 3128,
      "ymmet": 3129,
      "Ġmasses": 3130,
      "ogeneous": 3131,
      "Ġmid": 3132,
      "ime": 3133,
      "Ġusually": 3134,
      "Ġdra": 3135,
      "fact": 3136,
      "Ġcause": 3137,
      "Ġmatrices": 3138,
      "Ġpropag": 3139,
      "Ġaccess": 3140,
      "Ġsampl": 3141,
      "Ġalmost": 3142,
      "eu": 3143,
      "Ġcheck": 3144,
      "Ġinvestigate": 3145,
      "Ġcourse": 3146,
      "Ġvan": 3147,
      "ae": 3148,
      "45": 3149,
      "39": 3150,
      "Ġmodes": 3151,
      "ED": 3152,
      "gery": 3153,
      "ternal": 3154,
      "Ġcomputed": 3155,
      "Ġol": 3156,
      "AL": 3157,
      "dependent": 3158,
      "aged": 3159,
      "Ġstrategies": 3160,
      "Ġnorm": 3161,
      "Ġholds": 3162,
      "ĠSch": 3163,
      "itable": 3164,
      "Ġinequ": 3165,
      "eline": 3166,
      "ino": 3167,
      "An": 3168,
      "Ġcoh": 3169,
      "Ġchosen": 3170,
      "Ġassessment": 3171,
      "Ġembed": 3172,
      "Ġnonlinear": 3173,
      "Ġidentity": 3174,
      "Ġtaking": 3175,
      "itro": 3176,
      "Ġuniform": 3177,
      "Ġenough": 3178,
      "Ġanalog": 3179,
      "Ġfluid": 3180,
      "Ġmedium": 3181,
      "Ã©": 3182,
      "Ġpass": 3183,
      "Ġevaluate": 3184,
      "Ġcaused": 3185,
      "Ġheter": 3186,
      "Ġfundamental": 3187,
      "Ġclos": 3188,
      "Ġtumors": 3189,
      "Ġmemory": 3190,
      "hest": 3191,
      "Ġentire": 3192,
      "IR": 3193,
      "Ġerrors": 3194,
      "CL": 3195,
      "outh": 3196,
      "Ġhalf": 3197,
      "Ġresources": 3198,
      "Ġneigh": 3199,
      "Ġdetails": 3200,
      "ĠCons": 3201,
      "Ġprediction": 3202,
      "ply": 3203,
      "Ġcharge": 3204,
      "Ġdouble": 3205,
      "Ġcop": 3206,
      "Ġfully": 3207,
      "ott": 3208,
      "Ġ;": 3209,
      "Ġproduced": 3210,
      "Ġindicated": 3211,
      "Ġcosm": 3212,
      "lamm": 3213,
      "Ġcenter": 3214,
      "arding": 3215,
      "Ġcomplet": 3216,
      "Ġedge": 3217,
      "ĠSo": 3218,
      "Ġve": 3219,
      "ĠAc": 3220,
      "Ġpan": 3221,
      "Ġlabel": 3222,
      "ĠSimilar": 3223,
      "olar": 3224,
      "ĠÎº": 3225,
      "Ġamplitude": 3226,
      "overn": 3227,
      "Ġsa": 3228,
      "eep": 3229,
      "Ġclimate": 3230,
      "Ġcycle": 3231,
      "Ġexisting": 3232,
      "ean": 3233,
      "Ġinteresting": 3234,
      "Ġprocessing": 3235,
      "ends": 3236,
      "Ġeasily": 3237,
      "Ġkm": 3238,
      "Ġcode": 3239,
      "Ġtree": 3240,
      "Ġtests": 3241,
      "point": 3242,
      "Ġmes": 3243,
      "Ġverte": 3244,
      "Ġgenerally": 3245,
      "Ġlatter": 3246,
      "Ġbroad": 3247,
      "It": 3248,
      "Ġcolumn": 3249,
      "Ġnodes": 3250,
      "Ġrecur": 3251,
      "Ġinstance": 3252,
      "ilibrium": 3253,
      "Ġdamage": 3254,
      "thesis": 3255,
      "troduction": 3256,
      "Ġformal": 3257,
      "erences": 3258,
      "ativ": 3259,
      "Ġestimates": 3260,
      "io": 3261,
      "ĠPl": 3262,
      "col": 3263,
      "ospital": 3264,
      "FT": 3265,
      "Ġindicates": 3266,
      "Ġmathem": 3267,
      "Ġplane": 3268,
      "ired": 3269,
      "Ġgenetic": 3270,
      "Ġdataset": 3271,
      "Ġsuccessful": 3272,
      "ĠSM": 3273,
      "Ġ40": 3274,
      "dom": 3275,
      "Ġdig": 3276,
      "Ġsympt": 3277,
      "Ġreconstruc": 3278,
      "Ġassumed": 3279,
      "Âµ": 3280,
      "Ġinterpret": 3281,
      "Ġsuggests": 3282,
      "Ġyoun": 3283,
      "ĠNow": 3284,
      "asis": 3285,
      "Ġproducts": 3286,
      "Ġestablished": 3287,
      "emb": 3288,
      "Ġproduce": 3289,
      "IS": 3290,
      "Figure": 3291,
      "Ġown": 3292,
      "Ġpredicted": 3293,
      "Ġdimensions": 3294,
      "ash": 3295,
      "aussian": 3296,
      "ĠSh": 3297,
      "Ġgenerate": 3298,
      "erior": 3299,
      "play": 3300,
      "uli": 3301,
      "ĠâĬĤ": 3302,
      "Ġarch": 3303,
      "Ġtransmission": 3304,
      "osity": 3305,
      "Ġslight": 3306,
      "Ġimportance": 3307,
      "minist": 3308,
      "Ġlattice": 3309,
      "Ġarbitrary": 3310,
      "Ġassumption": 3311,
      "Ġhoriz": 3312,
      "oti": 3313,
      "esis": 3314,
      "Ġpopulations": 3315,
      "Ġhem": 3316,
      "king": 3317,
      "Ġmolecular": 3318,
      "ologies": 3319,
      "Proof": 3320,
      "Ġtor": 3321,
      "Ġmaterials": 3322,
      "ocal": 3323,
      "Ġmaps": 3324,
      "ĠAccording": 3325,
      "ĠEqu": 3326,
      "Ġacute": 3327,
      "enced": 3328,
      "Ġnovel": 3329,
      "ĠâĦĵ": 3330,
      "Ġmagnitude": 3331,
      "Ġsteps": 3332,
      "Ġradiation": 3333,
      "abor": 3334,
      "alle": 3335,
      "Ġoccurs": 3336,
      "Ġsites": 3337,
      "oud": 3338,
      "Ġobservation": 3339,
      "CM": 3340,
      "Ġpatterns": 3341,
      "Ġdependence": 3342,
      "Ïģ": 3343,
      "yr": 3344,
      "ryst": 3345,
      "Ġscore": 3346,
      "Ġmassive": 3347,
      "Ġreli": 3348,
      "level": 3349,
      "Ġuses": 3350,
      "ronic": 3351,
      "Ġsequences": 3352,
      "ĠCT": 3353,
      "ifically": 3354,
      "Ġdeep": 3355,
      "Ġnode": 3356,
      "Ġneuro": 3357,
      "des": 3358,
      "Ġdecreased": 3359,
      "Î³": 3360,
      "ishing": 3361,
      "Ġspectral": 3362,
      "Ġassign": 3363,
      "Ġij": 3364,
      "Ġsuggested": 3365,
      "side": 3366,
      "Ġorth": 3367,
      "Ġthick": 3368,
      "Ġdescription": 3369,
      "Ġexistence": 3370,
      "Ġsevere": 3371,
      "Ġsensitivity": 3372,
      "Ġregard": 3373,
      "induced": 3374,
      "ĠCor": 3375,
      "Ġï": 3376,
      "Ġul": 3377,
      "Ġapply": 3378,
      "||": 3379,
      "Ġ2015": 3380,
      "inf": 3381,
      "Ġwall": 3382,
      "Ġpractice": 3383,
      "endi": 3384,
      "zation": 3385,
      "Ġparts": 3386,
      "iven": 3387,
      "Ġhard": 3388,
      "Ġplac": 3389,
      "Ġthreshold": 3390,
      "ortun": 3391,
      "AN": 3392,
      "Ġorb": 3393,
      "ĠPD": 3394,
      "Ġbul": 3395,
      "Ġens": 3396,
      "Ġscho": 3397,
      "Ġorganization": 3398,
      "ymph": 3399,
      "ĠPh": 3400,
      "Ġrecept": 3401,
      "Ġsoci": 3402,
      "Ġinstead": 3403,
      "Ġsaf": 3404,
      "Ġbelie": 3405,
      "Ġintensity": 3406,
      "mediate": 3407,
      "pite": 3408,
      "199": 3409,
      "ident": 3410,
      "Ġquad": 3411,
      "ending": 3412,
      "Ġmedical": 3413,
      "Ġslow": 3414,
      "Ġmainly": 3415,
      "Ġmembrane": 3416,
      "44": 3417,
      "Ġuntil": 3418,
      "Ġquas": 3419,
      "ytes": 3420,
      "hel": 3421,
      "Ġcountries": 3422,
      "Ġcommunity": 3423,
      "wo": 3424,
      "az": 3425,
      "Ġapproximately": 3426,
      "Ġstrongly": 3427,
      ".\"": 3428,
      "oding": 3429,
      "Ġdoc": 3430,
      "Ġpairs": 3431,
      "Ġagg": 3432,
      "Ġrecord": 3433,
      "Ġinfection": 3434,
      "Ġbase": 3435,
      "Ġcurves": 3436,
      "Ġtechnology": 3437,
      "endix": 3438,
      "Ġintroduce": 3439,
      "Ġreplac": 3440,
      "Ġstring": 3441,
      "Ġmg": 3442,
      "Ġrecognition": 3443,
      "Ġasymptotic": 3444,
      "Ġsituation": 3445,
      "ah": 3446,
      "ke": 3447,
      "ÏĨ": 3448,
      "Ġhighest": 3449,
      "Ġinterven": 3450,
      "Ġparticularly": 3451,
      "Ġgradi": 3452,
      "Ġfluct": 3453,
      "Ġ:=": 3454,
      "Ġenzym": 3455,
      "Ġformed": 3456,
      "Ġorient": 3457,
      "Ġcompare": 3458,
      "Ġsurgery": 3459,
      "ĠHig": 3460,
      "Ġappears": 3461,
      "Ġinterval": 3462,
      "Ġmakes": 3463,
      "Ġdistributions": 3464,
      "Ġlonger": 3465,
      "Ġann": 3466,
      "iness": 3467,
      "Ġans": 3468,
      "set": 3469,
      "Ġresistance": 3470,
      "ticles": 3471,
      "abilities": 3472,
      "Ġdetailed": 3473,
      "Ġpercent": 3474,
      "ued": 3475,
      "Ġresearc": 3476,
      "Ġbacter": 3477,
      "Ġsal": 3478,
      "Ġstructural": 3479,
      "Ġdatab": 3480,
      "Ġconsum": 3481,
      "Ġessential": 3482,
      "Ġ2013": 3483,
      "iting": 3484,
      "Ġ2016": 3485,
      "rect": 3486,
      "Ġuncertainty": 3487,
      "Ġmetast": 3488,
      "Ġ2014": 3489,
      "Ġforce": 3490,
      "Ġ2012": 3491,
      "Ġsix": 3492,
      "Ġpure": 3493,
      "Ġ2020": 3494,
      "Ġcriteria": 3495,
      "inated": 3496,
      "Ġcollected": 3497,
      "Ġpredict": 3498,
      "oh": 3499,
      "ĠBut": 3500,
      "Ġ2010": 3501,
      "Ġconv": 3502,
      "Ġincludes": 3503,
      "Ġcompact": 3504,
      "elec": 3505,
      "Ġaddress": 3506,
      "Ġbreast": 3507,
      "Ġturb": 3508,
      "Ġstem": 3509,
      "ĠST": 3510,
      "AM": 3511,
      "ecause": 3512,
      "Ġentang": 3513,
      "SM": 3514,
      "Ġwide": 3515,
      "Ġsay": 3516,
      "vari": 3517,
      "Ġstrain": 3518,
      "Ġprol": 3519,
      "Ġcapacity": 3520,
      "ellular": 3521,
      "be": 3522,
      "Ġcarbon": 3523,
      "ili": 3524,
      "Ġincor": 3525,
      "Ġsystematic": 3526,
      "Ġadded": 3527,
      "Ġtranscri": 3528,
      "Ġexperi": 3529,
      "Al": 3530,
      "Ġmaking": 3531,
      "son": 3532,
      "Ġabsence": 3533,
      "Ġreson": 3534,
      "Ġtool": 3535,
      "Ġ21": 3536,
      "Ġscales": 3537,
      "cal": 3538,
      "ery": 3539,
      "Ġ]": 3540,
      "Ġrank": 3541,
      "ills": 3542,
      "icial": 3543,
      "isation": 3544,
      "plication": 3545,
      "Ġscaling": 3546,
      "Ġvacu": 3547,
      "Ġattention": 3548,
      "70": 3549,
      "poral": 3550,
      "Ġfigure": 3551,
      "Ġelectric": 3552,
      "Ġcatal": 3553,
      "Ġconsists": 3554,
      "Introduction": 3555,
      "Ġbir": 3556,
      "elling": 3557,
      "izations": 3558,
      "orth": 3559,
      "Ġconstruct": 3560,
      "ographic": 3561,
      "Ġtested": 3562,
      "ameter": 3563,
      "Ġclasses": 3564,
      "aff": 3565,
      "Ġhost": 3566,
      "cence": 3567,
      "pared": 3568,
      "Ġmac": 3569,
      "Ġplot": 3570,
      "ception": 3571,
      "specific": 3572,
      "Ġsubject": 3573,
      "ĠLe": 3574,
      "Ġwrite": 3575,
      "andid": 3576,
      "Ġrang": 3577,
      "Ġtesting": 3578,
      "overy": 3579,
      "Ġexperience": 3580,
      "]).": 3581,
      "Ġaxis": 3582,
      "ield": 3583,
      "Ġvary": 3584,
      "Ġfacil": 3585,
      "Ġstatus": 3586,
      "Ġcompletely": 3587,
      "Ġexternal": 3588,
      "Ġcomplexity": 3589,
      "Ġaffected": 3590,
      "Ġattrib": 3591,
      "Ġsci": 3592,
      "Ġcoordinates": 3593,
      "Ġ2017": 3594,
      "Ġdesigned": 3595,
      "Ġscatter": 3596,
      "Ġrecently": 3597,
      "42": 3598,
      "section": 3599,
      "Î¸": 3600,
      "Ġsufficient": 3601,
      "Ġpathway": 3602,
      "Ġclearly": 3603,
      "ĠÇ«": 3604,
      "Ġlook": 3605,
      "Ġhorizon": 3606,
      "Ġexamples": 3607,
      "Ġsubstr": 3608,
      "Ġhead": 3609,
      "titution": 3610,
      "Ġpolym": 3611,
      "Ġmort": 3612,
      "ider": 3613,
      "Ġchrom": 3614,
      "Ġtraditional": 3615,
      "SP": 3616,
      "Ġcogn": 3617,
      "Let": 3618,
      "Ġdistributed": 3619,
      "ighted": 3620,
      "sych": 3621,
      "Ġdiffusion": 3622,
      "Ġabund": 3623,
      "Ġcloud": 3624,
      "Ġdark": 3625,
      "Ġmodified": 3626,
      "Ġcomputational": 3627,
      "Ġintegration": 3628,
      "Ġconsidering": 3629,
      "Ġtheories": 3630,
      "Ġcomputation": 3631,
      "Ġ2018": 3632,
      "Ġoutcome": 3633,
      "Ġdenotes": 3634,
      "aim": 3635,
      "symmet": 3636,
      "Ġitself": 3637,
      "Ġspaces": 3638,
      "iral": 3639,
      "Ġ\\": 3640,
      "Ġrecomm": 3641,
      "Ġ60": 3642,
      "Ġexamined": 3643,
      "ÏĦ": 3644,
      "Ġcardi": 3645,
      "rup": 3646,
      "Ġlocated": 3647,
      "Ġspectra": 3648,
      "Ġdemonstrate": 3649,
      "Ġsens": 3650,
      "Ġconcern": 3651,
      "Ġlymph": 3652,
      "alysis": 3653,
      "Ġenhance": 3654,
      "Ġinduc": 3655,
      "ptions": 3656,
      "space": 3657,
      "ĠPar": 3658,
      "ched": 3659,
      "48": 3660,
      "Ġfra": 3661,
      "Ġlip": 3662,
      "Ġothers": 3663,
      "fined": 3664,
      "Ġbal": 3665,
      "Ġsuitable": 3666,
      "Ġmotiv": 3667,
      "Ġcalculate": 3668,
      "epti": 3669,
      "orption": 3670,
      "ĠAD": 3671,
      "SD": 3672,
      "olds": 3673,
      "Ġpoly": 3674,
      "Ġ2011": 3675,
      "Ġtypical": 3676,
      "Ġsat": 3677,
      "Ġdistinct": 3678,
      "Ġshift": 3679,
      "Ġrobust": 3680,
      "Ġupon": 3681,
      "Ġcalculations": 3682,
      "Ġquantif": 3683,
      "Cl": 3684,
      "Ġmodeling": 3685,
      "Ġcompute": 3686,
      "Ġferm": 3687,
      "pective": 3688,
      "Ġhypothesis": 3689,
      "Ġminimal": 3690,
      "Ġeigenval": 3691,
      "ĠSuch": 3692,
      "mut": 3693,
      "herent": 3694,
      "Ġmicroscop": 3695,
      "Ġrepresented": 3696,
      "bo": 3697,
      "Ġentropy": 3698,
      "ĠSN": 3699,
      "Ġgravit": 3700,
      "Ġengine": 3701,
      "Ġoptical": 3702,
      "Ġbinary": 3703,
      "Ġtowards": 3704,
      "oles": 3705,
      "ĠIndeed": 3706,
      "Ġproject": 3707,
      "IT": 3708,
      "):": 3709,
      "Ġtakes": 3710,
      "Ġbinding": 3711,
      "ĠÎ¼": 3712,
      "Ġfailure": 3713,
      "Ġadminist": 3714,
      "Ġlocation": 3715,
      "Ġmentioned": 3716,
      "Ġconfiguration": 3717,
      "Ġtoo": 3718,
      "Ġmembers": 3719,
      "Ġprinciple": 3720,
      "allel": 3721,
      "Ġones": 3722,
      "Ġvariety": 3723,
      "Ġdon": 3724,
      "VID": 3725,
      "dsh": 3726,
      "Ġsimply": 3727,
      "seud": 3728,
      "Ġsolid": 3729,
      "Ġvectors": 3730,
      "onses": 3731,
      "Ġcategories": 3732,
      "Ġaccel": 3733,
      "Ġcontributions": 3734,
      "Ġgovern": 3735,
      "pir": 3736,
      "ached": 3737,
      "Ġdecision": 3738,
      "Ġsecondary": 3739,
      "AB": 3740,
      "olved": 3741,
      "Ġbounded": 3742,
      "Ġnm": 3743,
      "US": 3744,
      "ometric": 3745,
      "Ġculture": 3746,
      "Ġensure": 3747,
      "Ġcycl": 3748,
      "Ïī": 3749,
      "Ġland": 3750,
      "ĠFe": 3751,
      "ĠCP": 3752,
      "Ġsil": 3753,
      "Ġcandid": 3754,
      "Ġpack": 3755,
      "41": 3756,
      "Ġredsh": 3757,
      "Ġaccurate": 3758,
      "iversity": 3759,
      "Ġpoor": 3760,
      "80": 3761,
      "Ch": 3762,
      "Ġ2019": 3763,
      "Ġbias": 3764,
      "Ġcomposition": 3765,
      "state": 3766,
      "ump": 3767,
      "operative": 3768,
      "ĠGaussian": 3769,
      "Ġsurvey": 3770,
      "uments": 3771,
      "land": 3772,
      "Ġdependent": 3773,
      "hing": 3774,
      "Ġbos": 3775,
      "omorphic": 3776,
      "Ġpurpose": 3777,
      "odies": 3778,
      "Ġefficient": 3779,
      "Ġquark": 3780,
      "Ġthink": 3781,
      "Ġteac": 3782,
      "Ġnamely": 3783,
      "Ġsummar": 3784,
      "43": 3785,
      "ND": 3786,
      "ocks": 3787,
      "Ġconfirmed": 3788,
      "Ġconventional": 3789,
      "rees": 3790,
      "46": 3791,
      "Ġimplementation": 3792,
      "CS": 3793,
      "Ġunderlying": 3794,
      "Ġles": 3795,
      "47": 3796,
      "Ġstart": 3797,
      "Ġsignals": 3798,
      "Ġpast": 3799,
      "Ġagreement": 3800,
      "char": 3801,
      "Ġconstructed": 3802,
      "Ġion": 3803,
      "sities": 3804,
      "Ġreceived": 3805,
      "IM": 3806,
      "Ġmortality": 3807,
      "Ġassociation": 3808,
      "Ġmachine": 3809,
      "Ġgravity": 3810,
      "Ġissues": 3811,
      "Ġtrack": 3812,
      "'t": 3813,
      "ulin": 3814,
      "dle": 3815,
      "Ġprotocol": 3816,
      "lier": 3817,
      "acting": 3818,
      "ĠNew": 3819,
      "Ġcharacterized": 3820,
      "Ġroot": 3821,
      "Ġequilibrium": 3822,
      "Ġmeaning": 3823,
      "Ġscenario": 3824,
      "Ġresponses": 3825,
      "Ġword": 3826,
      "Ġbegin": 3827,
      "Ġsatisfies": 3828,
      "Ġphysics": 3829,
      "day": 3830,
      "Ġdiver": 3831,
      "rict": 3832,
      "Ġcover": 3833,
      "Ġpossibility": 3834,
      "Ġnoted": 3835,
      "Ġheat": 3836,
      "ĠâīĪ": 3837,
      "Ġplant": 3838,
      "iles": 3839,
      "entific": 3840,
      "Ġyields": 3841,
      "ĠSD": 3842,
      "otor": 3843,
      "Ġbelong": 3844,
      "Ġprofile": 3845,
      "Ġ2009": 3846,
      "tage": 3847,
      "ta": 3848,
      "ulus": 3849,
      "75": 3850,
      "Ġregression": 3851,
      "Ġhole": 3852,
      "SCs": 3853,
      "Ġsingular": 3854,
      "scale": 3855,
      "Ġestimation": 3856,
      "omp": 3857,
      "Ġplate": 3858,
      "Ġput": 3859,
      "ĠHiggs": 3860,
      "Ġsubgroup": 3861,
      "Ġrare": 3862,
      "Ġalternative": 3863,
      "ire": 3864,
      "olic": 3865,
      "Ġsplit": 3866,
      "Ġpartial": 3867,
      "49": 3868,
      "Ġsubjects": 3869,
      "Ġsin": 3870,
      "Ġdelay": 3871,
      "finition": 3872,
      "Ġvers": 3873,
      "app": 3874,
      "ĠBased": 3875,
      "Ġquestions": 3876,
      "change": 3877,
      "Ġworks": 3878,
      "Ġfast": 3879,
      "Â·": 3880,
      "arent": 3881,
      "where": 3882,
      "Ġconj": 3883,
      "bility": 3884,
      "Ġdose": 3885,
      "Ġda": 3886,
      "Ġkern": 3887,
      "Ġgrid": 3888,
      "emark": 3889,
      "Ġframe": 3890,
      "Ġqual": 3891,
      "sk": 3892,
      "Ġperson": 3893,
      "Ġfilter": 3894,
      "100": 3895,
      "Ġprevent": 3896,
      "ĠCa": 3897,
      "Ġinside": 3898,
      "isions": 3899,
      "Ġintra": 3900,
      "Ġallowed": 3901,
      "tingu": 3902,
      "Ġeasy": 3903,
      "free": 3904,
      "Ġvertex": 3905,
      "Ġmonitor": 3906,
      "Ġchoose": 3907,
      "Ġsubset": 3908,
      "Ġyet": 3909,
      "Ġrotation": 3910,
      "Ġidentification": 3911,
      "Ġirre": 3912,
      "Ġgeometry": 3913,
      "ocy": 3914,
      "formal": 3915,
      "ĠAT": 3916,
      "bert": 3917,
      "Ġtun": 3918,
      "ultaneous": 3919,
      "ĠRNA": 3920,
      "BS": 3921,
      "Ġidea": 3922,
      "Ġauthor": 3923,
      "nov": 3924,
      "Ġconclude": 3925,
      "ference": 3926,
      "Ġplat": 3927,
      "Ġlumin": 3928,
      "ĠCar": 3929,
      "otyp": 3930,
      "Ġdisplay": 3931,
      "Ġcr": 3932,
      "Ġeth": 3933,
      "brid": 3934,
      "Ġcontribute": 3935,
      "plant": 3936,
      "rier": 3937,
      "Ġenvironmental": 3938,
      "ysi": 3939,
      "ĠSP": 3940,
      "Ġdim": 3941,
      "Ġsampling": 3942,
      "Ġgoal": 3943,
      "Ġdisper": 3944,
      "Ġconvergence": 3945,
      "Ġbehaviour": 3946,
      "%.": 3947,
      "Ġmit": 3948,
      "Ġdistingu": 3949,
      "ming": 3950,
      "ĠAnd": 3951,
      "Ġvacuum": 3952,
      "Ġ2008": 3953,
      "Ġresource": 3954,
      "ney": 3955,
      "Ġcapture": 3956,
      "Ex": 3957,
      "log": 3958,
      "Ġ95": 3959,
      "Ġflat": 3960,
      "Ġinequality": 3961,
      "Ġslightly": 3962,
      "Ġtraject": 3963,
      "Ġcontact": 3964,
      "ressive": 3965,
      "Ġface": 3966,
      "use": 3967,
      "Ġemployed": 3968,
      "que": 3969,
      "ises": 3970,
      "Ġuser": 3971,
      "lementary": 3972,
      "Ġbreak": 3973,
      "encing": 3974,
      "ĠAg": 3975,
      "EC": 3976,
      "Ġquantit": 3977,
      "sts": 3978,
      "Ġconnection": 3979,
      "Ġbey": 3980,
      "Ġbeyond": 3981,
      "Ġexclud": 3982,
      "Ġcorrection": 3983,
      "stein": 3984,
      "uting": 3985,
      "Ġincorpor": 3986,
      "clusion": 3987,
      "Ġimplemented": 3988,
      "uth": 3989,
      "otype": 3990,
      "ĠAlso": 3991,
      "Ġattem": 3992,
      "Ġrats": 3993,
      "LT": 3994,
      "Ġdynamical": 3995,
      "Ġconsequence": 3996,
      "ĠEach": 3997,
      "ĠIII": 3998,
      "lor": 3999,
      "Ġsections": 4000,
      "atical": 4001,
      "Ġimprovement": 4002,
      "PA": 4003,
      "lic": 4004,
      "lim": 4005,
      "Ġinfinite": 4006,
      "Ġissue": 4007,
      "itect": 4008,
      "Ġtub": 4009,
      "Ġcounter": 4010,
      "Ġseems": 4011,
      "ĠStud": 4012,
      "ÃĹ": 4013,
      "ĠCOVID": 4014,
      "Ġplasma": 4015,
      "Ġansw": 4016,
      "right": 4017,
      "with": 4018,
      "Ġinverse": 4019,
      "Ġdisk": 4020,
      "cell": 4021,
      "ynamic": 4022,
      "Ġcat": 4023,
      "Ġbur": 4024,
      "Ġtable": 4025,
      "Ġinflamm": 4026,
      "Ġmechanical": 4027,
      "Ġcryst": 4028,
      "year": 4029,
      "Ġquite": 4030,
      "Ġlayers": 4031,
      "uz": 4032,
      "Ġec": 4033,
      "Ġinten": 4034,
      "53": 4035,
      "ygen": 4036,
      "Ġremaining": 4037,
      "Ġsymptoms": 4038,
      "algeb": 4039,
      "ĠSub": 4040,
      "Ġextent": 4041,
      "aling": 4042,
      "Ġlist": 4043,
      "ĠLag": 4044,
      "Ġchannels": 4045,
      "Ġdiscrete": 4046,
      "Ġsector": 4047,
      "Ġobvious": 4048,
      "Ġlung": 4049,
      "Ġnuclear": 4050,
      "Ġsolve": 4051,
      "ĠBecause": 4052,
      "Ġdiss": 4053,
      "rief": 4054,
      "ling": 4055,
      "ĠAmeric": 4056,
      "Ġeconomic": 4057,
      "Ġpolic": 4058,
      "tered": 4059,
      "Ġ2007": 4060,
      "Ġsatisfy": 4061,
      "Ġring": 4062,
      "Ġestablish": 4063,
      "Ġparallel": 4064,
      "ortex": 4065,
      "âĢ¢": 4066,
      "faces": 4067,
      "aster": 4068,
      "avor": 4069,
      "Ġfat": 4070,
      "onical": 4071,
      "ĠDes": 4072,
      "Ġlittle": 4073,
      "Ġhome": 4074,
      "Ġmale": 4075,
      "isms": 4076,
      "Ġ2000": 4077,
      "ÏĪ": 4078,
      "Ġfa": 4079,
      "Ġsaid": 4080,
      "Ġexactly": 4081,
      "Ġgeneralized": 4082,
      "ĠâĪļ": 4083,
      "Ġregarding": 4084,
      "gra": 4085,
      "Ġexpand": 4086,
      "Ġobserve": 4087,
      "Ġdegrees": 4088,
      "Ġiter": 4089,
      "Ġclaim": 4090,
      "Ġobjective": 4091,
      "oot": 4092,
      "Ġaspects": 4093,
      "Ġcellular": 4094,
      "55": 4095,
      "Ġextraction": 4096,
      "Ġcoupled": 4097,
      "Ġchronic": 4098,
      "Ġmedi": 4099,
      "Ġ22": 4100,
      "Ġinhibit": 4101,
      "Ġmarket": 4102,
      "Ġcoordinate": 4103,
      "ĠInt": 4104,
      "Ġresearchers": 4105,
      "Ġinterface": 4106,
      "zing": 4107,
      "Ġpublished": 4108,
      "ĠGiven": 4109,
      "Ġproved": 4110,
      "Ġtools": 4111,
      "Ġrepresentations": 4112,
      "aring": 4113,
      "Ġgradient": 4114,
      "Ġextrem": 4115,
      "Ġearlier": 4116,
      "Ġisolated": 4117,
      "Ġsquare": 4118,
      "alk": 4119,
      "atin": 4120,
      "Ġsimultaneous": 4121,
      "ogenesis": 4122,
      "Ġinner": 4123,
      "ĠSome": 4124,
      "ening": 4125,
      "osing": 4126,
      "Ġsuff": 4127,
      "Ġpix": 4128,
      "Ġscores": 4129,
      "earch": 4130,
      "Ġpseud": 4131,
      "cy": 4132,
      "Ġcollection": 4133,
      "orn": 4134,
      "Ġartery": 4135,
      "Ġconstit": 4136,
      "ogenic": 4137,
      "Ġargument": 4138,
      ".)": 4139,
      "Ġdimensional": 4140,
      "Ġharm": 4141,
      "Ġrule": 4142,
      "plas": 4143,
      "Ġhospital": 4144,
      "Ġperf": 4145,
      "ĠProof": 4146,
      "Ġplatform": 4147,
      "Ġextracted": 4148,
      "Ġderivative": 4149,
      "oses": 4150,
      "iverse": 4151,
      "Ġod": 4152,
      "Ġcognitive": 4153,
      "ructure": 4154,
      "Ġshall": 4155,
      "Ġold": 4156,
      "zero": 4157,
      "urity": 4158,
      "ĠLie": 4159,
      "ĠIs": 4160,
      "ĠNe": 4161,
      "Ġyoung": 4162,
      "Ġpain": 4163,
      "tri": 4164,
      "Ġoverl": 4165,
      "Ġconstraint": 4166,
      "Ġhighl": 4167,
      "Ġ2006": 4168,
      "Ġbus": 4169,
      "Ġstarting": 4170,
      "Ġseparation": 4171,
      "Ġweeks": 4172,
      "actic": 4173,
      "sel": 4174,
      "bi": 4175,
      "Ġunits": 4176,
      "ditionally": 4177,
      "Ġattack": 4178,
      "Ġmig": 4179,
      "Ġâī¡": 4180,
      "Ġonce": 4181,
      "Ġdeveloping": 4182,
      "war": 4183,
      "Ġmixed": 4184,
      "ibility": 4185,
      "Ġanomal": 4186,
      "ĠBe": 4187,
      "Ġlimits": 4188,
      "ĠCM": 4189,
      "Ġiden": 4190,
      "95": 4191,
      "Ġduration": 4192,
      "Ġmedia": 4193,
      "otherap": 4194,
      "Ġsubstanti": 4195,
      "Ġpreserv": 4196,
      "herence": 4197,
      "Ġconcentrations": 4198,
      "gn": 4199,
      "Ġinvolve": 4200,
      "Ġexpress": 4201,
      "Ġvoltage": 4202,
      "Ġbaseline": 4203,
      "Ġworking": 4204,
      "Ġassessed": 4205,
      "Ġemph": 4206,
      "Ġinjury": 4207,
      "Ġagents": 4208,
      "Ġetc": 4209,
      "Ġviol": 4210,
      "Ġextra": 4211,
      "Ġtend": 4212,
      "ĠMethod": 4213,
      "Ġnotation": 4214,
      "rich": 4215,
      "Ġregime": 4216,
      "Ġapplying": 4217,
      "Table": 4218,
      "Ġtopological": 4219,
      "ĠUniversity": 4220,
      "Ġindicating": 4221,
      "Ġvs": 4222,
      "gical": 4223,
      "Ġexplained": 4224,
      "Ġseed": 4225,
      "inter": 4226,
      "Ġcruc": 4227,
      "EL": 4228,
      "hemical": 4229,
      "Ġrelationships": 4230,
      "Ġdeviation": 4231,
      "ĠEu": 4232,
      "ardi": 4233,
      "Ġpromot": 4234,
      "Ġvariance": 4235,
      "Ġoxid": 4236,
      "ibr": 4237,
      "ĠDM": 4238,
      "Ġreturn": 4239,
      "tz": 4240,
      "Ġdatabase": 4241,
      "ĠSpec": 4242,
      "ingly": 4243,
      "Ġremark": 4244,
      "idel": 4245,
      "ements": 4246,
      "EG": 4247,
      "Ġsynthesis": 4248,
      "Ġbuilding": 4249,
      "Ġmetabolic": 4250,
      "Ġbeam": 4251,
      "Ġrise": 4252,
      "Ġsubsequent": 4253,
      "ĠBl": 4254,
      "EP": 4255,
      "Ġrequirements": 4256,
      "Ġpresents": 4257,
      "Ġideal": 4258,
      "Ġmolecules": 4259,
      "retion": 4260,
      "ales": 4261,
      "mitted": 4262,
      "Ġupd": 4263,
      "Ġusers": 4264,
      "Ġtransl": 4265,
      "ember": 4266,
      "function": 4267,
      "Co": 4268,
      "ĠmM": 4269,
      "âĪĪ": 4270,
      "ĠEngl": 4271,
      "Ġdil": 4272,
      "Ġpropose": 4273,
      "erate": 4274,
      "Ġpic": 4275,
      "Ġlas": 4276,
      "65": 4277,
      "Ġfract": 4278,
      "alled": 4279,
      "ollary": 4280,
      "Ġkeep": 4281,
      "Ġlabor": 4282,
      "Ġanalyze": 4283,
      "ĠResults": 4284,
      "Ġsynthe": 4285,
      "Ġmiss": 4286,
      "overed": 4287,
      "Ġaccum": 4288,
      "Ġarchitect": 4289,
      "ĠMed": 4290,
      "pr": 4291,
      "Ġsegmentation": 4292,
      "Ġliver": 4293,
      "Ġswit": 4294,
      "ept": 4295,
      "ords": 4296,
      "Ġmajority": 4297,
      "ĠFour": 4298,
      "ru": 4299,
      "quis": 4300,
      "Ġattr": 4301,
      "Ġtemporal": 4302,
      "ocation": 4303,
      "RO": 4304,
      "Ġolder": 4305,
      "ĠIL": 4306,
      "Ġonline": 4307,
      "Ġfemale": 4308,
      "Ġdepending": 4309,
      "rents": 4310,
      "Ġenhanced": 4311,
      "Ġeq": 4312,
      "ĠGal": 4313,
      "ĠSO": 4314,
      "ectiveness": 4315,
      "Ġexamine": 4316,
      "Ġtypically": 4317,
      "Ġwidely": 4318,
      "Ġanimals": 4319,
      "Ġscreen": 4320,
      "cles": 4321,
      "ude": 4322,
      "Ġcontrolled": 4323,
      "Ġincidence": 4324,
      "ĠModel": 4325,
      "IP": 4326,
      "ĠSimilarly": 4327,
      "Ġbiological": 4328,
      "Ġactual": 4329,
      "ratic": 4330,
      "edom": 4331,
      "Ġ28": 4332,
      "urs": 4333,
      "Ġdevice": 4334,
      "ample": 4335,
      "Ġphases": 4336,
      "ocytes": 4337,
      "ĠData": 4338,
      "Ġcurv": 4339,
      "Ġpsych": 4340,
      "vex": 4341,
      "Ġwidth": 4342,
      "Ġabsol": 4343,
      "lyc": 4344,
      "There": 4345,
      "Ġ23": 4346,
      "ĠIR": 4347,
      "ĠEquation": 4348,
      "care": 4349,
      "Ġmodule": 4350,
      "eli": 4351,
      "fold": 4352,
      "Ġsimulated": 4353,
      "Ġgap": 4354,
      "Ġyield": 4355,
      "Ġblue": 4356,
      "Ġ2005": 4357,
      "times": 4358,
      "Ġdecreases": 4359,
      "Ġschool": 4360,
      "Ġgravitational": 4361,
      "Ġstraight": 4362,
      "Ġindepend": 4363,
      "Ġpathways": 4364,
      "Ġkine": 4365,
      "Ġspread": 4366,
      "avy": 4367,
      "Ġelim": 4368,
      "Ġradio": 4369,
      "Ġhapp": 4370,
      "Ġcomputer": 4371,
      "iquid": 4372,
      "oring": 4373,
      "ottom": 4374,
      "Ġscattering": 4375,
      "Ġneutrin": 4376,
      "Ġmetal": 4377,
      "Ġdecomposition": 4378,
      "Ġcontained": 4379,
      "rehen": 4380,
      "Ġled": 4381,
      "Ġunknown": 4382,
      "Ġrespond": 4383,
      "Ġaver": 4384,
      "AG": 4385,
      "Ġuniversal": 4386,
      "Ġadvantage": 4387,
      "tt": 4388,
      "Ġfacilit": 4389,
      "nder": 4390,
      "Ġprofession": 4391,
      "formed": 4392,
      "Ġdiagonal": 4393,
      "Ġheart": 4394,
      "CP": 4395,
      "rangian": 4396,
      "Ġteaching": 4397,
      "Ġsymb": 4398,
      "ĠBoth": 4399,
      "Ġaggreg": 4400,
      "Ġrational": 4401,
      "Ġexplore": 4402,
      "Ġpanel": 4403,
      "Ġelev": 4404,
      "Ġoutside": 4405,
      "Ġtrials": 4406,
      "Ã¶": 4407,
      "Ġinteger": 4408,
      "Ġrules": 4409,
      "Ġheight": 4410,
      "RT": 4411,
      "Ġautomatic": 4412,
      "mat": 4413,
      "variant": 4414,
      "ĠCI": 4415,
      "Ġaccoun": 4416,
      "ĠQu": 4417,
      "gments": 4418,
      "Ġvirus": 4419,
      "ert": 4420,
      "mark": 4421,
      "Ġsupported": 4422,
      "Ġproviding": 4423,
      "Ġcauses": 4424,
      "Ġinterpretation": 4425,
      "Ġsemi": 4426,
      "Ġfall": 4427,
      "ades": 4428,
      "De": 4429,
      "Ġinvolving": 4430,
      "ĠAb": 4431,
      "Ġinvari": 4432,
      "Ġsent": 4433,
      "Ġshif": 4434,
      "Ġtransport": 4435,
      "Ġthin": 4436,
      "Ġoccup": 4437,
      "Ġkernel": 4438,
      "Ġcrucial": 4439,
      "Ġdivided": 4440,
      "001": 4441,
      "ostic": 4442,
      "Ġrow": 4443,
      "zy": 4444,
      "itudes": 4445,
      "Ġoxygen": 4446,
      "ĠSecond": 4447,
      "Ġhalo": 4448,
      "field": 4449,
      "Ġshowing": 4450,
      "Ġfluores": 4451,
      "Ġstages": 4452,
      "Ġangular": 4453,
      "Ġalgebras": 4454,
      "57": 4455,
      "Ġstri": 4456,
      "rome": 4457,
      "Ġmethyl": 4458,
      "ibration": 4459,
      "Ġinver": 4460,
      "Ġmanner": 4461,
      "Ġfeedback": 4462,
      "Ġcle": 4463,
      "ochastic": 4464,
      "Ġbox": 4465,
      "acellular": 4466,
      "ishes": 4467,
      "Ġcanonical": 4468,
      "ivo": 4469,
      "ĠReg": 4470,
      "trans": 4471,
      "Ġbiom": 4472,
      "Ġvariations": 4473,
      "Ġpredictions": 4474,
      "Ġconclusion": 4475,
      "Ġ26": 4476,
      "mosp": 4477,
      "Ġfreedom": 4478,
      "etal": 4479,
      "Ġneighbor": 4480,
      "Ġcreated": 4481,
      "Ġderive": 4482,
      "era": 4483,
      "90": 4484,
      "Ġmathematical": 4485,
      "Ġusual": 4486,
      "Ġdifferentiation": 4487,
      "Ġedges": 4488,
      "Ġbulk": 4489,
      "Res": 4490,
      "Ġreach": 4491,
      "Ġdys": 4492,
      "Ġspeech": 4493,
      "inations": 4494,
      "Ġdenoted": 4495,
      "ĠSystem": 4496,
      "ĠEurop": 4497,
      "Es": 4498,
      "Ġ--": 4499,
      "\",": 4500,
      "Ġinduction": 4501,
      "berg": 4502,
      "Ġdescribes": 4503,
      "Hz": 4504,
      "FR": 4505,
      "Ġadapt": 4506,
      "Ġtissues": 4507,
      "PD": 4508,
      "Ġsuggesting": 4509,
      "Ġtrig": 4510,
      "56": 4511,
      "Ġvertical": 4512,
      "Ġthroughout": 4513,
      "eti": 4514,
      "Ġstatistics": 4515,
      "Ġsignificance": 4516,
      "MA": 4517,
      "Ġfron": 4518,
      "Ġdegener": 4519,
      "Ġstain": 4520,
      "Ġtemperatures": 4521,
      "Ġexcept": 4522,
      "Ġmapping": 4523,
      "Ġincub": 4524,
      "Ġrecall": 4525,
      "Ġrecorded": 4526,
      "Ġnor": 4527,
      "Ġeffectively": 4528,
      "Ġmedian": 4529,
      "Ġmerg": 4530,
      "plications": 4531,
      "Ġstabil": 4532,
      "ĠPer": 4533,
      "ytic": 4534,
      "Ġcompound": 4535,
      "Ġcosts": 4536,
      "Ġentanglement": 4537,
      "Ġlem": 4538,
      "Ġacqui": 4539,
      "ley": 4540,
      "Ġnar": 4541,
      "Ġintegrated": 4542,
      "entric": 4543,
      "Ġoperations": 4544,
      "Ġsubstrate": 4545,
      "exp": 4546,
      "Ġserum": 4547,
      "Ġempir": 4548,
      "Ġprepar": 4549,
      "Ġtriang": 4550,
      "Ġ90": 4551,
      "sequently": 4552,
      "Ġisomorphism": 4553,
      "ulti": 4554,
      "Ġvertices": 4555,
      "ropic": 4556,
      "Ġ2004": 4557,
      "Ġpor": 4558,
      "Ġrad": 4559,
      "Ġdatasets": 4560,
      "Ġexchange": 4561,
      "Ġtasks": 4562,
      "Ġjet": 4563,
      "ĠIV": 4564,
      "llip": 4565,
      "Ġdemand": 4566,
      "Ġvess": 4567,
      "Ġposterior": 4568,
      "Ġdomains": 4569,
      "Ġcoinc": 4570,
      "Î´": 4571,
      "Ġredshift": 4572,
      "range": 4573,
      "emia": 4574,
      "51": 4575,
      "CO": 4576,
      "Ġmill": 4577,
      "Ġdiscrim": 4578,
      "otherapy": 4579,
      "ev": 4580,
      "iding": 4581,
      "Ġexplicitly": 4582,
      "Ġprojection": 4583,
      "Ġdaily": 4584,
      "ĠHIV": 4585,
      "Ġformulation": 4586,
      "omer": 4587,
      "Ġradial": 4588,
      "Ġreconstruction": 4589,
      "ĠThat": 4590,
      "uper": 4591,
      "Ġconstants": 4592,
      "Ġben": 4593,
      "Ġways": 4594,
      "Ġcontrols": 4595,
      "Ġmaximal": 4596,
      "comp": 4597,
      "Ġ_": 4598,
      "Ġthickness": 4599,
      "Ġweights": 4600,
      "Ġmeet": 4601,
      "ĠAppendix": 4602,
      "istry": 4603,
      "Ġderivatives": 4604,
      "ww": 4605,
      "ufact": 4606,
      "isely": 4607,
      "chron": 4608,
      "Ġsensitive": 4609,
      "ĠOr": 4610,
      "67": 4611,
      "int": 4612,
      "ĠTwo": 4613,
      "Ġmotor": 4614,
      "ĠAB": 4615,
      "Ġwhite": 4616,
      "\".": 4617,
      "Ġjoint": 4618,
      "Ġfluctuations": 4619,
      "Ġcorrelated": 4620,
      "ats": 4621,
      "iring": 4622,
      "Ġpotentially": 4623,
      "Ġpepti": 4624,
      "Ġreports": 4625,
      "lowing": 4626,
      "eter": 4627,
      "Ġmetall": 4628,
      "apse": 4629,
      "Ġgam": 4630,
      "mic": 4631,
      "arities": 4632,
      "Ġeffectiveness": 4633,
      "Ġcorrections": 4634,
      "Ġdevices": 4635,
      "LA": 4636,
      "Ġreduces": 4637,
      "Ġfiber": 4638,
      "Ġfood": 4639,
      "sively": 4640,
      "EN": 4641,
      "Ġcomprehen": 4642,
      "Ġvascular": 4643,
      "Ġcurvature": 4644,
      "Ġcoron": 4645,
      "Ġwant": 4646,
      "Ġcorrelations": 4647,
      "Ġvitro": 4648,
      "Ġreceptor": 4649,
      "Ġtoward": 4650,
      "place": 4651,
      "Î©": 4652,
      "Ġversus": 4653,
      "Ġ80": 4654,
      "Ġded": 4655,
      "ierarch": 4656,
      "Ġkind": 4657,
      "Ġonto": 4658,
      "Ġalone": 4659,
      "ĠChina": 4660,
      "Ġembedding": 4661,
      ")).": 4662,
      "ĠPre": 4663,
      "ĠLagrangian": 4664,
      "Ġdiseases": 4665,
      "ifferen": 4666,
      "Ġadults": 4667,
      "monary": 4668,
      "Ġopportun": 4669,
      "Ġscenarios": 4670,
      "Ġidentical": 4671,
      "Ġ2003": 4672,
      "Ġrequ": 4673,
      "inate": 4674,
      "Ġlate": 4675,
      "Ġrelax": 4676,
      "Ġinvestigation": 4677,
      "itely": 4678,
      "Ġinstr": 4679,
      "Ġquantitative": 4680,
      "Ġhim": 4681,
      "Ġcommonly": 4682,
      "Ġvivo": 4683,
      "RA": 4684,
      "Ġdepth": 4685,
      "ares": 4686,
      "Ġfrequencies": 4687,
      "Ġsizes": 4688,
      "aves": 4689,
      "Ġwhy": 4690,
      "Ġatmosp": 4691,
      "try": 4692,
      "Ġconjug": 4693,
      "Ġintermediate": 4694,
      "Ġgeometric": 4695,
      "Ġast": 4696,
      "Ġhold": 4697,
      "Ġlargest": 4698,
      "Ġmanifold": 4699,
      "Ġfocused": 4700,
      "ids": 4701,
      "perim": 4702,
      "Ġscience": 4703,
      "Ġfusion": 4704,
      "arc": 4705,
      "âĢī": 4706,
      "ĠCH": 4707,
      "ochond": 4708,
      "52": 4709,
      "Ġten": 4710,
      "Ġbund": 4711,
      "Ġdeliver": 4712,
      "Ġmonitoring": 4713,
      "Ġprofiles": 4714,
      "istent": 4715,
      "Ġdiameter": 4716,
      "theless": 4717,
      "Ġnut": 4718,
      "Ġindeed": 4719,
      "Ġremoved": 4720,
      "ather": 4721,
      "Ġskills": 4722,
      "Ġassumptions": 4723,
      "Ġmuscle": 4724,
      "Ġconfidence": 4725,
      "Ġorbit": 4726,
      "Ġstation": 4727,
      "Ġsufficiently": 4728,
      "ĠÎ¨": 4729,
      "ĠRep": 4730,
      "Ġstrict": 4731,
      "Ġintern": 4732,
      "Ġquantities": 4733,
      "Ġexpressions": 4734,
      "Ġseem": 4735,
      "Ġrev": 4736,
      "plicity": 4737,
      "Ġcompet": 4738,
      "going": 4739,
      "reted": 4740,
      "ĠDi": 4741,
      "Ġrepeated": 4742,
      "Ġhomogeneous": 4743,
      "Ġregul": 4744,
      "Ġstochastic": 4745,
      "Ġpregn": 4746,
      "Ġcreate": 4747,
      "Ġcool": 4748,
      "Ġprolif": 4749,
      "Com": 4750,
      "Ġqualit": 4751,
      "ĠOther": 4752,
      "Ġcohort": 4753,
      "ĠGeV": 4754,
      "Ġcomputing": 4755,
      "ĠBi": 4756,
      "eutic": 4757,
      "âĪŀ": 4758,
      "emble": 4759,
      "âĨĴ": 4760,
      "ĠÎ¶": 4761,
      "Ġadopted": 4762,
      "Ġresponsible": 4763,
      "Ġ27": 4764,
      "Ġhours": 4765,
      "DM": 4766,
      "Wh": 4767,
      "Ġreactions": 4768,
      "Ġprocedures": 4769,
      "Ġdigital": 4770,
      "Ġgenerating": 4771,
      "Ġtransplant": 4772,
      "urrent": 4773,
      "Ġflex": 4774,
      "Ġlowest": 4775,
      "Ġbrief": 4776,
      "Theorem": 4777,
      "Ġinclusion": 4778,
      "ĠâĪ©": 4779,
      "Ġmouse": 4780,
      "ĠpH": 4781,
      "GC": 4782,
      "Ġstatement": 4783,
      "Ġcarry": 4784,
      "Ġinvolves": 4785,
      "Ġpractical": 4786,
      "which": 4787,
      "âĢ²": 4788,
      "PC": 4789,
      "Ġellip": 4790,
      "Ġprecision": 4791,
      "ateral": 4792,
      "Ġrenal": 4793,
      "cor": 4794,
      "Ġprecisely": 4795,
      "Ġthought": 4796,
      "ees": 4797,
      "Ġleg": 4798,
      "Ġpen": 4799,
      "Ġperspective": 4800,
      "Ġcere": 4801,
      "Ġliquid": 4802,
      "body": 4803,
      "Ġcomparing": 4804,
      "band": 4805,
      "ĠOf": 4806,
      "ilbert": 4807,
      "Ġproportional": 4808,
      "])": 4809,
      "Ġexec": 4810,
      "romagnetic": 4811,
      "Ġlocally": 4812,
      "Ġmanufact": 4813,
      "âĪĨ": 4814,
      "Ġbil": 4815,
      "Ġresidual": 4816,
      "Ġquasi": 4817,
      "58": 4818,
      "atics": 4819,
      "Ġtransformations": 4820,
      "Ġgrad": 4821,
      "Ġaccept": 4822,
      "HE": 4823,
      "atch": 4824,
      "LS": 4825,
      "selves": 4826,
      "Ġfamil": 4827,
      "Ġscientific": 4828,
      "Ġsusp": 4829,
      "ĠCA": 4830,
      "ipal": 4831,
      "radi": 4832,
      "Ġ197": 4833,
      "|-": 4834,
      "Ġintroduc": 4835,
      "Ġgluc": 4836,
      "Ġtox": 4837,
      "iec": 4838,
      "Ġepit": 4839,
      "Ġ37": 4840,
      "Ġur": 4841,
      "forward": 4842,
      "54": 4843,
      "Ġkid": 4844,
      "Ġcommut": 4845,
      "ussion": 4846,
      "Ġblocks": 4847,
      "ĠCR": 4848,
      "ometry": 4849,
      "velength": 4850,
      "ducible": 4851,
      "Ġperturbation": 4852,
      "ken": 4853,
      "ĠCol": 4854,
      "Ġoccurred": 4855,
      "Ġhybrid": 4856,
      "Ġextract": 4857,
      "Ġpersonal": 4858,
      "ancre": 4859,
      "Ġmovement": 4860,
      "ils": 4861,
      "Ġbig": 4862,
      "Ġscan": 4863,
      "Ġ2002": 4864,
      "Ġheavy": 4865,
      "Ġproportion": 4866,
      "inding": 4867,
      "Ġsustain": 4868,
      "mann": 4869,
      "Ġsignaling": 4870,
      "iction": 4871,
      "Ġapparent": 4872,
      "Ġartif": 4873,
      "pts": 4874,
      "Ġplays": 4875,
      "Ġsensor": 4876,
      "othel": 4877,
      "artment": 4878,
      "Ġdiab": 4879,
      "arant": 4880,
      "Ġexponential": 4881,
      "Ġservices": 4882,
      "ulf": 4883,
      "Ġskin": 4884,
      "Ġplants": 4885,
      "Ġbalance": 4886,
      "Ġresulted": 4887,
      "Ġconservation": 4888,
      "Ġsafety": 4889,
      "Ġsurgical": 4890,
      "illed": 4891,
      "ĠAdditionally": 4892,
      "ĠLi": 4893,
      "Ġcircuit": 4894,
      "ĠAG": 4895,
      "Ġnormalized": 4896,
      "Ġgr": 4897,
      "Ġabsolute": 4898,
      "68": 4899,
      "opath": 4900,
      "Ġunderstood": 4901,
      "eding": 4902,
      "amin": 4903,
      "algebra": 4904,
      "ĠEnglish": 4905,
      "Ġmis": 4906,
      "Ġnever": 4907,
      "Ġcomplement": 4908,
      "Ġconvex": 4909,
      "insic": 4910,
      "Ġadult": 4911,
      "Ġdivers": 4912,
      "MI": 4913,
      "Ġplaced": 4914,
      "Our": 4915,
      "Ġreducing": 4916,
      "uous": 4917,
      "elian": 4918,
      "oscop": 4919,
      "urally": 4920,
      "Ġaud": 4921,
      "Ġactually": 4922,
      "Ġservice": 4923,
      "Ġchallenges": 4924,
      "Ġlaser": 4925,
      "Ġrelease": 4926,
      "Ġratios": 4927,
      "rep": 4928,
      "Ġtranscription": 4929,
      "Ġclassif": 4930,
      "Ġexerc": 4931,
      "ĠPo": 4932,
      "ĠCS": 4933,
      "ogonal": 4934,
      "Ġalter": 4935,
      "Ġsurround": 4936,
      "Ġ2001": 4937,
      "Ġphoton": 4938,
      "bre": 4939,
      "ĠIns": 4940,
      "Ġcurrently": 4941,
      "CI": 4942,
      "mediately": 4943,
      "eling": 4944,
      "Ġneutral": 4945,
      "Ġey": 4946,
      "down": 4947,
      "Ġhierarch": 4948,
      "Ġalgebraic": 4949,
      "Ġcond": 4950,
      "Ġluminosity": 4951,
      "99": 4952,
      "tein": 4953,
      "Ġforward": 4954,
      "Ġspecifically": 4955,
      "Ġcolon": 4956,
      "Ġliving": 4957,
      "PP": 4958,
      "cepts": 4959,
      "ergies": 4960,
      "Ġassay": 4961,
      "Ġmarked": 4962,
      "Ġaway": 4963,
      "antic": 4964,
      "trivial": 4965,
      "Ġbusiness": 4966,
      "Ġdisplac": 4967,
      "Ġsolving": 4968,
      "ĠâĬĨ": 4969,
      "ping": 4970,
      "Ġseparate": 4971,
      "Ġfer": 4972,
      "Ġtrivial": 4973,
      "flow": 4974,
      "Ġnational": 4975,
      ",\"": 4976,
      "Ġquantity": 4977,
      "ĠNa": 4978,
      "Ġcompan": 4979,
      "Fs": 4980,
      "hol": 4981,
      "pc": 4982,
      "Ġsynd": 4983,
      "oration": 4984,
      "Ġspacetime": 4985,
      "ogram": 4986,
      "Ġeducational": 4987,
      "Ġdeb": 4988,
      "oids": 4989,
      "Ġexplan": 4990,
      "Ġasymmet": 4991,
      "Ġabsorption": 4992,
      "Ġpartition": 4993,
      "DA": 4994,
      "Ġnotion": 4995,
      "Ġask": 4996,
      "Ġsup": 4997,
      ")/": 4998,
      "Ġexamination": 4999,
      "ĠAnalysis": 5000,
      "Ġtrace": 5001,
      "Ġbottom": 5002,
      "Ġphysi": 5003,
      "Ġdesired": 5004,
      "ĠMS": 5005,
      "Ġbirth": 5006,
      "rie": 5007,
      "ĠUV": 5008,
      "Ġpreval": 5009,
      "Ġprepared": 5010,
      "Ġamb": 5011,
      "Ġsatisfying": 5012,
      "etes": 5013,
      "sia": 5014,
      "Ġcosmological": 5015,
      "Ġbuff": 5016,
      "Ġapproximate": 5017,
      "ĠMon": 5018,
      "âī": 5019,
      "MR": 5020,
      "utive": 5021,
      "ĠâĢł": 5022,
      "hand": 5023,
      "urations": 5024,
      "ayer": 5025,
      "Ġbone": 5026,
      "ses": 5027,
      "Ġcarcin": 5028,
      "quisition": 5029,
      "Ġinjection": 5030,
      "Ġwar": 5031,
      "59": 5032,
      "rand": 5033,
      "lig": 5034,
      "Ġtrial": 5035,
      "Ġgreen": 5036,
      "ĠÂ§": 5037,
      "Ġevol": 5038,
      "ĠSur": 5039,
      "Ġgenome": 5040,
      "66": 5041,
      "Ġrandomly": 5042,
      "Ġmiddle": 5043,
      "Ġcold": 5044,
      "itz": 5045,
      "Ġfermion": 5046,
      "class": 5047,
      "ĠER": 5048,
      "Ġlemma": 5049,
      "Ġimmune": 5050,
      "Ġstatistically": 5051,
      "Ġdocument": 5052,
      "estern": 5053,
      "ĠAf": 5054,
      "ĠDec": 5055,
      "Ġpolymer": 5056,
      "Ġcome": 5057,
      "Ġinterview": 5058,
      "otropic": 5059,
      "Ġdirections": 5060,
      "tre": 5061,
      "Ab": 5062,
      "Ġoperating": 5063,
      "ĠSL": 5064,
      "stract": 5065,
      "Ġcomplications": 5066,
      "Ġviral": 5067,
      "Ġmitochond": 5068,
      "PT": 5069,
      "tin": 5070,
      "clusions": 5071,
      "ĠPS": 5072,
      "ĠCent": 5073,
      "Ġeigenvalues": 5074,
      "jection": 5075,
      "ĠDuring": 5076,
      "stream": 5077,
      "Ġimmediately": 5078,
      "Ġpolynomials": 5079,
      "Ġlimitations": 5080,
      "Ġ32": 5081,
      "illing": 5082,
      "Ġabnormal": 5083,
      "Ġoppos": 5084,
      "Ġprecise": 5085,
      "Ġ29": 5086,
      "Ġrenormal": 5087,
      "Ġrough": 5088,
      "icon": 5089,
      "ipp": 5090,
      "iers": 5091,
      "Ġequivalence": 5092,
      "eff": 5093,
      "Ġdominant": 5094,
      "Ġinser": 5095,
      "Ġresonance": 5096,
      "Ġtransf": 5097,
      "Ġotherwise": 5098,
      "terior": 5099,
      "sized": 5100,
      "ĠUnited": 5101,
      "64": 5102,
      "Ġcomparable": 5103,
      "ĠUSA": 5104,
      "Ġconformal": 5105,
      "Ġste": 5106,
      "bal": 5107,
      "Ġextend": 5108,
      "Ġcovari": 5109,
      "ese": 5110,
      "HC": 5111,
      "Ġchanging": 5112,
      "iscussion": 5113,
      "ky": 5114,
      "Ġmel": 5115,
      "Ġsimultaneously": 5116,
      "Ġenter": 5117,
      "Ġdispersion": 5118,
      "asts": 5119,
      "vals": 5120,
      "Ġpicture": 5121,
      "ĠDir": 5122,
      "Ġmixing": 5123,
      "Ġunitary": 5124,
      "Ġreasons": 5125,
      "Ġclassified": 5126,
      "Ġtail": 5127,
      "Ġmodern": 5128,
      "Ġcomes": 5129,
      "Ġmutations": 5130,
      "Ġvariability": 5131,
      "symmetric": 5132,
      "ense": 5133,
      "Ġ70": 5134,
      "Ġphenomenon": 5135,
      "agen": 5136,
      "Ġpositions": 5137,
      "Ġtechnical": 5138,
      "Ġteachers": 5139,
      "otop": 5140,
      "Ġhep": 5141,
      "car": 5142,
      "ĠÂµÎ½": 5143,
      "Ġteam": 5144,
      "loop": 5145,
      "wing": 5146,
      "Ġvirt": 5147,
      "ilities": 5148,
      "Ġultr": 5149,
      "Ġpancre": 5150,
      "Ġclustering": 5151,
      "neg": 5152,
      "usted": 5153,
      "ifications": 5154,
      "Ġprograms": 5155,
      "69": 5156,
      "Ġempirical": 5157,
      "Ġquadratic": 5158,
      "rown": 5159,
      "Ġantibody": 5160,
      "Ġanalytical": 5161,
      "Ġappe": 5162,
      "Ġguarant": 5163,
      "Ġrig": 5164,
      "Ġagent": 5165,
      "Ġabundance": 5166,
      "ollowing": 5167,
      "ĠShe": 5168,
      "elihood": 5169,
      "Ġbreaking": 5170,
      "LO": 5171,
      "ĠSi": 5172,
      "omas": 5173,
      "Ġindices": 5174,
      "Ġorientation": 5175,
      "Ġpow": 5176,
      "//": 5177,
      "Ġexplo": 5178,
      "ĠInc": 5179,
      "Ġgrain": 5180,
      "Ġslope": 5181,
      "onds": 5182,
      "Ġsatisfied": 5183,
      "Ġacts": 5184,
      "Ġdest": 5185,
      "itis": 5186,
      "Ġbounds": 5187,
      "Ġconsumption": 5188,
      "Ġreferred": 5189,
      "Ġstatic": 5190,
      "Ġouter": 5191,
      "ĠMost": 5192,
      "amine": 5193,
      "62": 5194,
      "Ġinvas": 5195,
      "Ġdisord": 5196,
      "Ġmess": 5197,
      "lusions": 5198,
      "Ġdiagrams": 5199,
      "Ġemphas": 5200,
      "Ġfamilies": 5201,
      "Ġhot": 5202,
      "Ġodd": 5203,
      "Ġinhibition": 5204,
      "Ġwaves": 5205,
      "rate": 5206,
      "On": 5207,
      "ĠPT": 5208,
      "Ġbright": 5209,
      "RE": 5210,
      "ĠSuppose": 5211,
      "Î¾": 5212,
      "ontaneous": 5213,
      "Net": 5214,
      "mer": 5215,
      "apan": 5216,
      "Ġintervention": 5217,
      "ĠGener": 5218,
      "Ġcoverage": 5219,
      "Â±": 5220,
      "ĠHilbert": 5221,
      "ĠAnother": 5222,
      "ĠCal": 5223,
      "ĠResearch": 5224,
      "Ġpresentation": 5225,
      "Ġpulmonary": 5226,
      "Ġinsulin": 5227,
      "63": 5228,
      "Ġ35": 5229,
      "Ġconfirm": 5230,
      "Ġminor": 5231,
      "Ġdegrad": 5232,
      "**": 5233,
      "Ġlens": 5234,
      "Ġpercentage": 5235,
      "Ġmutation": 5236,
      "NS": 5237,
      "orld": 5238,
      "Ġtherapeutic": 5239,
      "Ġdrugs": 5240,
      "ĠAmerican": 5241,
      "Ġdust": 5242,
      "ĠTr": 5243,
      "Ġcouplings": 5244,
      "Ġmil": 5245,
      "BM": 5246,
      "âĢĶ": 5247,
      "Ġdeformation": 5248,
      "Ġphosphory": 5249,
      "stand": 5250,
      "orage": 5251,
      "Î·": 5252,
      "Ġwavelength": 5253,
      "inity": 5254,
      "ativity": 5255,
      "Ġcust": 5256,
      "ĠHealth": 5257,
      "Ġacquisition": 5258,
      "ĠDue": 5259,
      "Ġrapidly": 5260,
      "imal": 5261,
      "Ġpolarization": 5262,
      "Ġgeneric": 5263,
      "Ġwild": 5264,
      "Ġmoving": 5265,
      "Ġmeasuring": 5266,
      "idden": 5267,
      "LC": 5268,
      "61": 5269,
      "no": 5270,
      "Ġsolar": 5271,
      "pris": 5272,
      "Ġhorizontal": 5273,
      "Ġcomposed": 5274,
      "Ġanimal": 5275,
      "ĠLa": 5276,
      "idity": 5277,
      "Ġsound": 5278,
      "Ġpoli": 5279,
      "Ġrestricted": 5280,
      "IG": 5281,
      "Ġwindow": 5282,
      "Ġinnov": 5283,
      "ĠGerm": 5284,
      "well": 5285,
      "Ġactions": 5286,
      "ticip": 5287,
      "Ġneuronal": 5288,
      "ĠMo": 5289,
      "Ġarchitecture": 5290,
      "Ġendothel": 5291,
      "Ġped": 5292,
      "Ġenergies": 5293,
      "evertheless": 5294,
      "Ġcountry": 5295,
      "III": 5296,
      "chang": 5297,
      "activ": 5298,
      "tures": 5299,
      "Ġmodules": 5300,
      "ĠOF": 5301,
      "Ġexhibit": 5302,
      "Ġadjac": 5303,
      "Ġimag": 5304,
      "ancial": 5305,
      "Ġrecommend": 5306,
      "MT": 5307,
      "Ġelectronic": 5308,
      "ĠSe": 5309,
      "Ġexposed": 5310,
      "Ġuniverse": 5311,
      "Ġperiods": 5312,
      "urban": 5313,
      "Ġcandidate": 5314,
      "Ġmostly": 5315,
      "ĠMa": 5316,
      "NO": 5317,
      "ĠPa": 5318,
      "Ġbuilt": 5319,
      "icacy": 5320,
      "ĠFourier": 5321,
      "ason": 5322,
      "Ġalle": 5323,
      "pot": 5324,
      "Ġmethodology": 5325,
      "Ġatoms": 5326,
      "Ġexceed": 5327,
      "na": 5328,
      "Ġbuild": 5329,
      "Ġstudent": 5330,
      "Ġhar": 5331,
      "Ġdrop": 5332,
      "Ġanalytic": 5333,
      "Ġsurfaces": 5334,
      "Ġassuming": 5335,
      "ife": 5336,
      "Ġclosely": 5337,
      "ĠUnder": 5338,
      "Ġcompeti": 5339,
      "Ġpref": 5340,
      "Ġconsisting": 5341,
      "Ġdiffer": 5342,
      "Ġstream": 5343,
      "Is": 5344,
      "Ġstop": 5345,
      "aterial": 5346,
      "://": 5347,
      "Ġantig": 5348,
      "nai": 5349,
      "Ġreached": 5350,
      "oren": 5351,
      "Ġconcepts": 5352,
      "ened": 5353,
      "Ġtopology": 5354,
      "Ġmamm": 5355,
      "tors": 5356,
      "Ġexpectation": 5357,
      "rest": 5358,
      "Ġcollabor": 5359,
      "raft": 5360,
      "Ġrequirement": 5361,
      "UT": 5362,
      "Ġorthogonal": 5363,
      "Ġfrequently": 5364,
      "atric": 5365,
      "oidal": 5366,
      "Ġproceed": 5367,
      "Ġweek": 5368,
      "Ġepid": 5369,
      "Ġadaptive": 5370,
      "Ġkinetic": 5371,
      "Ġsuccessfully": 5372,
      "Ġgraphs": 5373,
      "Ġinduce": 5374,
      "Ġseparated": 5375,
      "Ġrecovery": 5376,
      "Ġhealthcare": 5377,
      "NF": 5378,
      "ĠStates": 5379,
      "Ġroom": 5380,
      "Ġstated": 5381,
      "Ġengineering": 5382,
      "ogeneity": 5383,
      "eral": 5384,
      "ux": 5385,
      "Ġconsideration": 5386,
      "LE": 5387,
      "Ġdecl": 5388,
      "oral": 5389,
      "Ġprogn": 5390,
      "Ġsyndrome": 5391,
      "Ġautom": 5392,
      "Ġkinase": 5393,
      "Ġdiversity": 5394,
      "Ġcomplicated": 5395,
      "Ġnearly": 5396,
      "ecting": 5397,
      "Ġschemes": 5398,
      "FP": 5399,
      "Ġdense": 5400,
      "ĠAfric": 5401,
      "ogenous": 5402,
      "ĠMethods": 5403,
      "ologic": 5404,
      "BP": 5405,
      "Ġmedic": 5406,
      "Ġmissing": 5407,
      "Ġvarying": 5408,
      "instein": 5409,
      "Ġchallenge": 5410,
      "Ġextreme": 5411,
      "Ġcondens": 5412,
      "Ġcompati": 5413,
      "Ġreflect": 5414,
      "energy": 5415,
      "Ġsimilarity": 5416,
      "tric": 5417,
      "oded": 5418,
      "Ġintroduction": 5419,
      "gram": 5420,
      "Ġprogression": 5421,
      "CH": 5422,
      "Ġcereb": 5423,
      "Ġadministration": 5424,
      "resent": 5425,
      "Ġmalign": 5426,
      "Ġintervals": 5427,
      "Ġforces": 5428,
      "ustry": 5429,
      "Ġinitially": 5430,
      "Ġbeginning": 5431,
      "Ġcharged": 5432,
      "Ġapop": 5433,
      "Ġdespite": 5434,
      "Ġ(âĪĴ": 5435,
      "Ġ48": 5436,
      "Ġtrained": 5437,
      "Ġdate": 5438,
      "sub": 5439,
      "Ġreproduc": 5440,
      "Ġperfect": 5441,
      "jected": 5442,
      "ĠPr": 5443,
      "Ġkidney": 5444,
      "Ġchanged": 5445,
      "Ġspontaneous": 5446,
      "Ġcomposite": 5447,
      "If": 5448,
      "posed": 5449,
      "Ġspectroscop": 5450,
      "Ġangi": 5451,
      "Ġvide": 5452,
      "idal": 5453,
      "Ġorbital": 5454,
      "negative": 5455,
      "ĠOver": 5456,
      "Ġconsequences": 5457,
      "Ġillustrated": 5458,
      "ĠPol": 5459,
      "Ġtraum": 5460,
      "ochemical": 5461,
      "Ġopposite": 5462,
      "hic": 5463,
      "Ġshare": 5464,
      "Ġenzyme": 5465,
      "ives": 5466,
      "stable": 5467,
      "Ġcircum": 5468,
      "Ġlept": 5469,
      "Ġindust": 5470,
      "Ġinfer": 5471,
      "Ġcycles": 5472,
      "Ġindependently": 5473,
      "%),": 5474,
      "Ġpolicy": 5475,
      "Ġlinked": 5476,
      "ĠJapan": 5477,
      "Ġirreducible": 5478,
      "Ġuncertainties": 5479,
      "requ": 5480,
      "hal": 5481,
      "ĠNot": 5482,
      "Ġconvolution": 5483,
      "CTION": 5484,
      "ĠConsider": 5485,
      "esian": 5486,
      "wa": 5487,
      "Ġdensities": 5488,
      "Ġanswer": 5489,
      "eth": 5490,
      "Ġthemselves": 5491,
      "aptic": 5492,
      "Ġhydrogen": 5493,
      "ĠIntern": 5494,
      "Ġsexual": 5495,
      "Ġverify": 5496,
      "Ġbenefits": 5497,
      "Ġball": 5498,
      "Ġplanet": 5499,
      "romb": 5500,
      "DNA": 5501,
      "amb": 5502,
      "used": 5503,
      "ĠPC": 5504,
      "Ġexcit": 5505,
      "Ġrepresentative": 5506,
      "Ġexcluded": 5507,
      "Ġcriterion": 5508,
      "Ġcomprehensive": 5509,
      "Ġfeas": 5510,
      "Ġmatching": 5511,
      "ĠNevertheless": 5512,
      "Ġspher": 5513,
      "usive": 5514,
      "ophag": 5515,
      "everal": 5516,
      "tible": 5517,
      "Ġadm": 5518,
      "Ġconfigurations": 5519,
      "Ġconject": 5520,
      "erning": 5521,
      "Ġamino": 5522,
      "opar": 5523,
      "Ġcapital": 5524,
      "ipl": 5525,
      "ĠOp": 5526,
      "ips": 5527,
      "Ġfunctor": 5528,
      "ifying": 5529,
      "called": 5530,
      "ĠAmong": 5531,
      "IF": 5532,
      "ĠEar": 5533,
      "Îĵ": 5534,
      "ativistic": 5535,
      "âĢĿ": 5536,
      "Ġbacterial": 5537,
      "rable": 5538,
      "IL": 5539,
      "Ġallowing": 5540,
      "lob": 5541,
      "ĠAND": 5542,
      "Ġfinally": 5543,
      "part": 5544,
      "Ġefforts": 5545,
      "Ġmetabolism": 5546,
      "Ġstorage": 5547,
      "sess": 5548,
      "Ġlig": 5549,
      "Ġprefer": 5550,
      "Ġglucose": 5551,
      "Ġadvanced": 5552,
      "Ġsynchron": 5553,
      "ĠNational": 5554,
      "rical": 5555,
      "load": 5556,
      "arithm": 5557,
      "esides": 5558,
      "arse": 5559,
      "Ġnecessarily": 5560,
      "Ġprogress": 5561,
      "eady": 5562,
      "hern": 5563,
      "deg": 5564,
      "Ġstraightforward": 5565,
      "Ġgenerators": 5566,
      "ĠÎł": 5567,
      "Ġdecreasing": 5568,
      "ĠâĪĩ": 5569,
      "TR": 5570,
      "crib": 5571,
      "axis": 5572,
      "Ġantibodies": 5573,
      "Ġbranch": 5574,
      "iotic": 5575,
      "ectivity": 5576,
      "Ġmodification": 5577,
      "Ġparent": 5578,
      "Ġextensive": 5579,
      "ĠBay": 5580,
      "sur": 5581,
      "Ġrestriction": 5582,
      "Ġepithel": 5583,
      "Ġessentially": 5584,
      "isson": 5585,
      "Ġshell": 5586,
      "Ġadvantages": 5587,
      "Ġdepic": 5588,
      "hom": 5589,
      "Ġformer": 5590,
      "Ġzone": 5591,
      "Ġexcitation": 5592,
      "Ġhealthy": 5593,
      "Ġplanning": 5594,
      "Ġspac": 5595,
      "Ġelectrical": 5596,
      "ucle": 5597,
      "Ġlaboratory": 5598,
      "oking": 5599,
      "orter": 5600,
      "Ġmorphology": 5601,
      "Ġreliable": 5602,
      "Ġreplaced": 5603,
      "color": 5604,
      "went": 5605,
      "Ġer": 5606,
      "ĠMe": 5607,
      "Ġtraff": 5608,
      "Ġneutrino": 5609,
      "Ġgate": 5610,
      "Ġfragment": 5611,
      "embly": 5612,
      "Ġeight": 5613,
      "ĠMRI": 5614,
      "VA": 5615,
      "Ġlabeled": 5616,
      "Ġ45": 5617,
      "Ġ1999": 5618,
      "Ġcortex": 5619,
      "Ġsummary": 5620,
      "Ġsettings": 5621,
      "Ġmoderate": 5622,
      "elled": 5623,
      "Ġsoil": 5624,
      "Ġintrinsic": 5625,
      "bits": 5626,
      "Ġrepresenting": 5627,
      "ONCL": 5628,
      "Ġcommit": 5629,
      "RS": 5630,
      "Ad": 5631,
      "ĠMark": 5632,
      "Ġatomic": 5633,
      "Ġexercise": 5634,
      "vention": 5635,
      "Ġoccurrence": 5636,
      "Ġextremely": 5637,
      "Ġthermod": 5638,
      "Ġprobe": 5639,
      "Ġ31": 5640,
      "USION": 5641,
      "pha": 5642,
      "Ġmetrics": 5643,
      "Ġurban": 5644,
      "Ġca": 5645,
      "Ġmixture": 5646,
      "78": 5647,
      "Ġbuffer": 5648,
      "Ġbarrier": 5649,
      "Ġ500": 5650,
      "Ġpropagation": 5651,
      "CG": 5652,
      "ancing": 5653,
      "mass": 5654,
      "Ġdele": 5655,
      "tives": 5656,
      "Ġpreparation": 5657,
      "Ġport": 5658,
      "Ġdefects": 5659,
      "tosis": 5660,
      "Ġign": 5661,
      "gent": 5662,
      "MD": 5663,
      "Ġpoll": 5664,
      "Ġgenerator": 5665,
      "Ġdefinitions": 5666,
      "Ġsolved": 5667,
      "Ġlesions": 5668,
      "Ġproliferation": 5669,
      "gue": 5670,
      "Ġrecip": 5671,
      "Ġimproving": 5672,
      "itudinal": 5673,
      "ĠMat": 5674,
      "Ġpapers": 5675,
      "Ġrecomb": 5676,
      "irus": 5677,
      "Ġbond": 5678,
      "Ġbenefit": 5679,
      "ana": 5680,
      "Ġoffer": 5681,
      "heric": 5682,
      "Ġtax": 5683,
      "Ġchromos": 5684,
      "Ġmechanics": 5685,
      "ether": 5686,
      "ĠInterest": 5687,
      "Ġjus": 5688,
      "Ġinduces": 5689,
      "ĠDefinition": 5690,
      "Ġlikelihood": 5691,
      "Ġtransverse": 5692,
      "Ġvul": 5693,
      "Ġadjust": 5694,
      "mo": 5695,
      "forms": 5696,
      "ONCLUSION": 5697,
      "Ġthereby": 5698,
      "tension": 5699,
      "Ġensemble": 5700,
      "pty": 5701,
      "Ġfractional": 5702,
      "Ġmarg": 5703,
      "Ġarri": 5704,
      "Ġarray": 5705,
      "ĠCell": 5706,
      "kin": 5707,
      "warf": 5708,
      "Ġdefect": 5709,
      "Ġinstruc": 5710,
      "sibility": 5711,
      "Ġadjacent": 5712,
      "ĠConsequently": 5713,
      "Ġimpair": 5714,
      "Ġarc": 5715,
      "Ġlisted": 5716,
      "ĠâĢľ": 5717,
      "Ġgame": 5718,
      "Ġdistinguish": 5719,
      "Ġcompens": 5720,
      "Ġdeal": 5721,
      "ĠAP": 5722,
      "Ġfluorescence": 5723,
      "Ġretrie": 5724,
      "Ġassigned": 5725,
      "Ġmarkers": 5726,
      "fl": 5727,
      "MM": 5728,
      "Ġmob": 5729,
      "Ġcoherent": 5730,
      "Ġgrowing": 5731,
      "Ġarticles": 5732,
      "Ġrespir": 5733,
      "illary": 5734,
      "Ġenvironments": 5735,
      "Ġvariants": 5736,
      "Ġdetermining": 5737,
      "Ġreserv": 5738,
      "ensus": 5739,
      "Rec": 5740,
      "Ġdental": 5741,
      "Ġla": 5742,
      "Ġarise": 5743,
      "Ġturbul": 5744,
      "unctions": 5745,
      "Ġquick": 5746,
      "Ġrecurrence": 5747,
      "agement": 5748,
      "Ġtargets": 5749,
      ".(": 5750,
      "Ġreasonable": 5751,
      "process": 5752,
      "Ġrepair": 5753,
      "Ġspecim": 5754,
      "Ġstimulation": 5755,
      "alse": 5756,
      "Ġqualitative": 5757,
      "ĠUS": 5758,
      "inks": 5759,
      "Ġ2021": 5760,
      "CE": 5761,
      "organ": 5762,
      "ele": 5763,
      "ih": 5764,
      "poses": 5765,
      "Ġresol": 5766,
      "ĠInter": 5767,
      "Ġsecurity": 5768,
      "Ġamplitudes": 5769,
      "vity": 5770,
      "Ġhouse": 5771,
      "men": 5772,
      "198": 5773,
      "Ġpermut": 5774,
      "ml": 5775,
      "trol": 5776,
      "treated": 5777,
      "Ġtechnologies": 5778,
      "kg": 5779,
      "SO": 5780,
      "Ġorders": 5781,
      "Ġsubspace": 5782,
      "Ġtrac": 5783,
      "Ġpiec": 5784,
      "Ġnarrow": 5785,
      "Ġembry": 5786,
      "bound": 5787,
      "Ġweighted": 5788,
      "gu": 5789,
      "Ġdefines": 5790,
      "Ġcub": 5791,
      "Ġchallenging": 5792,
      "Ġprobably": 5793,
      "Ġfine": 5794,
      "ĠRemark": 5795,
      "otypes": 5796,
      "titutions": 5797,
      "ĠPA": 5798,
      "Ġfinancial": 5799,
      "Ġprobabilities": 5800,
      "Ġacad": 5801,
      "hold": 5802,
      "roc": 5803,
      "Ġacceler": 5804,
      "Ġexperienced": 5805,
      "Ġitems": 5806,
      "ĠTrans": 5807,
      "lide": 5808,
      "Ġfitting": 5809,
      "One": 5810,
      "teg": 5811,
      "ĠEqs": 5812,
      "77": 5813,
      "Ġorganizational": 5814,
      "Ġinters": 5815,
      "Ġtrends": 5816,
      "Ġvalidation": 5817,
      "Ġconclusions": 5818,
      "oks": 5819,
      "Ġkn": 5820,
      "Ġpay": 5821,
      "Ġ%": 5822,
      "Ġdescribing": 5823,
      "ensi": 5824,
      "ĠNext": 5825,
      "Ġadding": 5826,
      "Ġspecified": 5827,
      "yle": 5828,
      "arity": 5829,
      "Ġroots": 5830,
      "Ġquestionnai": 5831,
      "bur": 5832,
      "phase": 5833,
      "itively": 5834,
      "forming": 5835,
      "Ġ#": 5836,
      "ĠBo": 5837,
      "test": 5838,
      "ĠSm": 5839,
      "module": 5840,
      "Ġprevalence": 5841,
      "ysical": 5842,
      "Ġmeta": 5843,
      "Ġindustry": 5844,
      "alities": 5845,
      "Ġsituations": 5846,
      "Ġpotentials": 5847,
      "Ġcoronary": 5848,
      "struct": 5849,
      "Ġregulation": 5850,
      "Ġprincipal": 5851,
      "Ġpossibly": 5852,
      "hydro": 5853,
      "ĠMan": 5854,
      "Ġperiodic": 5855,
      "isting": 5856,
      "Ġlocations": 5857,
      "dominal": 5858,
      "Ġdetermin": 5859,
      "Ġ1998": 5860,
      "gely": 5861,
      "Ġbundle": 5862,
      "Ġpaths": 5863,
      "ners": 5864,
      "Ġshap": 5865,
      "Ġpriv": 5866,
      "Ġmi": 5867,
      "lab": 5868,
      "Ġtang": 5869,
      "Ġimplications": 5870,
      "Ġseven": 5871,
      "atically": 5872,
      "ĠCorollary": 5873,
      "Ġdistances": 5874,
      "Ġcontrad": 5875,
      "ĠÂµm": 5876,
      "Ġconversion": 5877,
      "Ġdelivery": 5878,
      "Ġadequ": 5879,
      "Ġround": 5880,
      "tenance": 5881,
      "Ġdisorder": 5882,
      "tified": 5883,
      "Ġ))": 5884,
      "Ġname": 5885,
      "Ġtom": 5886,
      "Ġreads": 5887,
      "Ġjob": 5888,
      "ĠEm": 5889,
      "ria": 5890,
      "aving": 5891,
      "flu": 5892,
      "Ġnaturally": 5893,
      "Ġcommerc": 5894,
      "Ġpulse": 5895,
      "Ġneighb": 5896,
      "Ġthinking": 5897,
      "inator": 5898,
      "Ġinterested": 5899,
      "Ġrecords": 5900,
      "oints": 5901,
      "ectives": 5902,
      "CF": 5903,
      "titute": 5904,
      "Ġlargely": 5905,
      "Ġarguments": 5906,
      "Ġpool": 5907,
      "Ġendothelial": 5908,
      "vis": 5909,
      "Ġnull": 5910,
      "Ġrespective": 5911,
      "Since": 5912,
      "Ġalignment": 5913,
      "ME": 5914,
      "Ġmatch": 5915,
      "Ġdisrup": 5916,
      "ĠEven": 5917,
      "PE": 5918,
      "Ġsupplement": 5919,
      "73": 5920,
      "Ġdriven": 5921,
      "Ġindirect": 5922,
      "rs": 5923,
      "Ġdetector": 5924,
      "Ġtrees": 5925,
      "Ġappearance": 5926,
      "Supp": 5927,
      "Ġsigns": 5928,
      "pe": 5929,
      "ĠSw": 5930,
      "Ġcharacterization": 5931,
      "Ġnanopar": 5932,
      "Ġconflic": 5933,
      "Discussion": 5934,
      "Ġdisorders": 5935,
      "Ġexplored": 5936,
      "Ġideas": 5937,
      "ynamics": 5938,
      "Ġbands": 5939,
      "Ġgiving": 5940,
      "ĠÎĺ": 5941,
      "Ġcardiac": 5942,
      "Ġdiabetes": 5943,
      "cons": 5944,
      "Ġequality": 5945,
      "sim": 5946,
      "Sim": 5947,
      "71": 5948,
      "Ġperforming": 5949,
      "rh": 5950,
      "Ġacquired": 5951,
      "72": 5952,
      "umb": 5953,
      "Ġimm": 5954,
      "iem": 5955,
      "BC": 5956,
      "Ġqubit": 5957,
      "Ġstarted": 5958,
      "Ġpossess": 5959,
      "Ġworth": 5960,
      "Ġbecame": 5961,
      "Ġpartially": 5962,
      "eur": 5963,
      "Ġprimarily": 5964,
      "Ġtriple": 5965,
      "inese": 5966,
      "Ġelectromagnetic": 5967,
      "Ġgast": 5968,
      "Ġstronger": 5969,
      "Ġchiral": 5970,
      "Ġaffects": 5971,
      "Ġprojective": 5972,
      "acc": 5973,
      "Ġgovernment": 5974,
      "Ġleuk": 5975,
      "ister": 5976,
      "Ġinstitution": 5977,
      "Ġidentifying": 5978,
      "local": 5979,
      "ounts": 5980,
      "rained": 5981,
      "Ġlogarithm": 5982,
      "eterm": 5983,
      "Ġtrajectory": 5984,
      "ociated": 5985,
      "defined": 5986,
      "Ġlongitudinal": 5987,
      "estinal": 5988,
      "Ġprecip": 5989,
      "sip": 5990,
      "Ġgeneralization": 5991,
      "Ġdraw": 5992,
      "rared": 5993,
      "Ġanis": 5994,
      "Im": 5995,
      "Ġinterpreted": 5996,
      "Ġbacteria": 5997,
      "Ġrunning": 5998,
      "Ġvulner": 5999,
      "Ġutilized": 6000,
      "GA": 6001,
      "Ġrew": 6002,
      "Ġparad": 6003,
      "Ġinsp": 6004,
      "Ġretain": 6005,
      "Îµ": 6006,
      "Ġproxim": 6007,
      "wide": 6008,
      "]:": 6009,
      "VM": 6010,
      "mal": 6011,
      "Ġvisible": 6012,
      "79": 6013,
      "ĠNon": 6014,
      "rosis": 6015,
      "Ġsymmetries": 6016,
      "alian": 6017,
      "ĠmRNA": 6018,
      "Ġangles": 6019,
      "ads": 6020,
      "Ġpregnancy": 6021,
      "%).": 6022,
      "ĠPoisson": 6023,
      "tization": 6024,
      "Ġfaster": 6025,
      "Ġsteady": 6026,
      "Ġevolutionary": 6027,
      "izer": 6028,
      "ĠMD": 6029,
      "02": 6030,
      "Ġyour": 6031,
      "Ġconserved": 6032,
      "ariate": 6033,
      "Ġsimilarly": 6034,
      "oming": 6035,
      "riers": 6036,
      "Ġrisks": 6037,
      "Ġaccurately": 6038,
      "Ġboson": 6039,
      "Ġdiagnosed": 6040,
      "Ġtoler": 6041,
      "Ġdro": 6042,
      "Ġbrid": 6043,
      "ellig": 6044,
      "ippoc": 6045,
      "ĠDirac": 6046,
      "Ġemo": 6047,
      "Ġhistor": 6048,
      "ocardi": 6049,
      "Ġonset": 6050,
      "ĠGL": 6051,
      "Ġfarm": 6052,
      "Ġboundaries": 6053,
      "Ġsuscep": 6054,
      "erge": 6055,
      "Ġsubstantial": 6056,
      "org": 6057,
      "exts": 6058,
      "Ġshear": 6059,
      "Ġmorphism": 6060,
      "Ġelevated": 6061,
      "âĪĤ": 6062,
      "Ġmicroscopy": 6063,
      "Ġpractices": 6064,
      "Ġrout": 6065,
      "Ġdefining": 6066,
      "ĠâĨ": 6067,
      "electric": 6068,
      "Ġdiet": 6069,
      "ĠMin": 6070,
      "ipher": 6071,
      "Ġsurrounding": 6072,
      "Ġcyclic": 6073,
      "FS": 6074,
      "Ġgel": 6075,
      "Ġspan": 6076,
      "Ġcav": 6077,
      "Ġlipid": 6078,
      "Ġcharacterize": 6079,
      "Lemma": 6080,
      "MC": 6081,
      "Ġmother": 6082,
      "Ġhab": 6083,
      "ĠAL": 6084,
      "rot": 6085,
      "ippocamp": 6086,
      "Ġshared": 6087,
      "Ġappeared": 6088,
      "oton": 6089,
      "Ġphenomena": 6090,
      "Ġcontinuum": 6091,
      "Ġsuperior": 6092,
      "arp": 6093,
      "PR": 6094,
      "plan": 6095,
      "Ġdwarf": 6096,
      "Ġfront": 6097,
      "ĠSpecifically": 6098,
      "sm": 6099,
      "Ġgoing": 6100,
      "lled": 6101,
      "ML": 6102,
      "Ġroles": 6103,
      "isp": 6104,
      "Ġradical": 6105,
      "ĠEinstein": 6106,
      "umer": 6107,
      "Ġinvariance": 6108,
      "Vs": 6109,
      "Ġvehic": 6110,
      "Ġanalogous": 6111,
      "Ġannot": 6112,
      "oor": 6113,
      "Ġanc": 6114,
      "haps": 6115,
      "ĠRT": 6116,
      "Ïķ": 6117,
      "Ġillustrate": 6118,
      "Ġtranslation": 6119,
      "Ġtrust": 6120,
      "ĠBr": 6121,
      "Ġremained": 6122,
      "Ġtransitions": 6123,
      "ĠFollowing": 6124,
      "Ġformalism": 6125,
      "fully": 6126,
      "Ġproduces": 6127,
      "Ġconduct": 6128,
      "Ġaccom": 6129,
      "Ġvalidity": 6130,
      "Ġdeco": 6131,
      "box": 6132,
      "Ġpredictive": 6133,
      "Gs": 6134,
      "Ġminutes": 6135,
      "Ġnutri": 6136,
      "onomic": 6137,
      "__": 6138,
      "Ġsequencing": 6139,
      "atients": 6140,
      "lets": 6141,
      "ĠLoren": 6142,
      "Ġcompleted": 6143,
      "Ġbary": 6144,
      "osyn": 6145,
      "Ġmethylation": 6146,
      "Ġmutant": 6147,
      "Ġmigration": 6148,
      "rete": 6149,
      "iter": 6150,
      "fit": 6151,
      "lar": 6152,
      "Ġadi": 6153,
      "cript": 6154,
      "Ġlocalized": 6155,
      "Ġhidden": 6156,
      "Ġinflation": 6157,
      "Ġpixel": 6158,
      "etic": 6159,
      "Ġaspect": 6160,
      "Ġsetup": 6161,
      "Ġfair": 6162,
      "Ġneglec": 6163,
      "Ġpromote": 6164,
      "Ġexperiences": 6165,
      "Ġphysiological": 6166,
      "rog": 6167,
      "Ġgender": 6168,
      "Ġmetastasis": 6169,
      "she": 6170,
      "Ġdetermination": 6171,
      "anned": 6172,
      "Ġenhancement": 6173,
      "mediated": 6174,
      "Ġbg": 6175,
      "Ġdischar": 6176,
      "Ġaccretion": 6177,
      "Ġconcerning": 6178,
      "ODU": 6179,
      "Ġselect": 6180,
      "ĠRO": 6181,
      "tification": 6182,
      "branes": 6183,
      "Ref": 6184,
      "Ġ33": 6185,
      "Ġexhibited": 6186,
      "Ġdisplacement": 6187,
      "Ġperturbations": 6188,
      "Ġri": 6189,
      "Ġobj": 6190,
      "Ġwarm": 6191,
      "}.": 6192,
      "Ġpseudo": 6193,
      "Ġacting": 6194,
      "Ġturns": 6195,
      "Ġfire": 6196,
      "Ġresidues": 6197,
      "ceived": 6198,
      "Ġembedded": 6199,
      "Ġ36": 6200,
      "uel": 6201,
      "otox": 6202,
      "Ġaer": 6203,
      "Ġexcell": 6204,
      "ĠâĢ²âĢ²": 6205,
      "SR": 6206,
      "ĠSouth": 6207,
      "Ġreliability": 6208,
      "85": 6209,
      "Ġseparately": 6210,
      "Ġfalse": 6211,
      "Ġefficacy": 6212,
      "Ġstationary": 6213,
      "istant": 6214,
      "Ġmaintenance": 6215,
      "ARS": 6216,
      "isons": 6217,
      "Ġaged": 6218,
      "Ġcombinations": 6219,
      "Ġfilm": 6220,
      "eck": 6221,
      "ĠBH": 6222,
      "esthe": 6223,
      "iatric": 6224,
      "ĠQCD": 6225,
      "Ġstack": 6226,
      "inear": 6227,
      "Fe": 6228,
      "ĠGR": 6229,
      "ĠChinese": 6230,
      "Ġanterior": 6231,
      "ĠCan": 6232,
      "Ġtry": 6233,
      "osa": 6234,
      "Ġtrajectories": 6235,
      "Ġpopular": 6236,
      "Ġlies": 6237,
      "Ġsimplicity": 6238,
      "ĠâĬķ": 6239,
      "ĠAR": 6240,
      "rab": 6241,
      "Ġdegradation": 6242,
      "ĠOb": 6243,
      "Ġglyc": 6244,
      "Ġpeaks": 6245,
      "Ġcommunic": 6246,
      "Bs": 6247,
      "Ġinterference": 6248,
      "ocor": 6249,
      "Ġinstant": 6250,
      "ipped": 6251,
      "ĠâĬĻ": 6252,
      "joint": 6253,
      "positive": 6254,
      "Ġscreening": 6255,
      "Ġmonth": 6256,
      "plies": 6257,
      "inical": 6258,
      "Ġinflammatory": 6259,
      "Ġcum": 6260,
      "Ġserve": 6261,
      "omb": 6262,
      "=#": 6263,
      "awa": 6264,
      "aly": 6265,
      "Ġcooling": 6266,
      "Ġaccumulation": 6267,
      "Ġautomatically": 6268,
      "ĠSupplementary": 6269,
      "Ġstudying": 6270,
      "Ġrotor": 6271,
      "Ġprogen": 6272,
      "Ġgerm": 6273,
      "Ġnormalization": 6274,
      "Ġfetal": 6275,
      "Ġdiagnostic": 6276,
      "98": 6277,
      "Ġimply": 6278,
      "ĠGe": 6279,
      "Ġthromb": 6280,
      "Ġice": 6281,
      "Ġregional": 6282,
      "ĠIts": 6283,
      "Ġga": 6284,
      "Ġshock": 6285,
      "Ġelectrons": 6286,
      "pon": 6287,
      "Ġbelieve": 6288,
      "Ġdu": 6289,
      "Ġmanip": 6290,
      "Ġqubits": 6291,
      "Ġapoptosis": 6292,
      "Ġelastic": 6293,
      "ĠEuropean": 6294,
      "iii": 6295,
      "Ġcompounds": 6296,
      "Ġamounts": 6297,
      "Ġoverlap": 6298,
      "Ġmanifest": 6299,
      "ĠÂ¼": 6300,
      "At": 6301,
      "anks": 6302,
      "Ġmaintained": 6303,
      "Ġexception": 6304,
      "ĠâĪª": 6305,
      "Ġsatell": 6306,
      "Ġranges": 6307,
      "76": 6308,
      "Ġter": 6309,
      "Ġpharm": 6310,
      "Ġregim": 6311,
      "Ġbgcolor": 6312,
      "uzzy": 6313,
      "Ġinstability": 6314,
      "Ġhumans": 6315,
      "Ġfir": 6316,
      "ĠDespite": 6317,
      "Remark": 6318,
      "ournal": 6319,
      "derived": 6320,
      "Ġsched": 6321,
      "requency": 6322,
      "Ġpromising": 6323,
      "Ġindicators": 6324,
      "Ġphotons": 6325,
      "Ġdiverse": 6326,
      "plane": 6327,
      "Ġarrow": 6328,
      "All": 6329,
      "Ġconnections": 6330,
      "ĠâĬ¥": 6331,
      "Ġtraffic": 6332,
      "Ġprosp": 6333,
      "Ġdisturb": 6334,
      "ING": 6335,
      "ush": 6336,
      "cale": 6337,
      "Ġpy": 6338,
      "Ġforming": 6339,
      "Ġequip": 6340,
      "Ġinfections": 6341,
      "Ġfault": 6342,
      "ĠWhat": 6343,
      "Ġlateral": 6344,
      "Ġprinciples": 6345,
      "ODUCTION": 6346,
      "ĠGr": 6347,
      "Ġfavor": 6348,
      "Ġreader": 6349,
      "Ġenzymes": 6350,
      "ĠTheir": 6351,
      "eng": 6352,
      "Ġfibro": 6353,
      "Ġcone": 6354,
      "Ġmillion": 6355,
      "74": 6356,
      "Am": 6357,
      "Ġfoot": 6358,
      "Ġworkers": 6359,
      "Ġuniformly": 6360,
      "Ġincubated": 6361,
      "olation": 6362,
      "ĠML": 6363,
      "uclide": 6364,
      "Ġsociety": 6365,
      "ĠTechn": 6366,
      "sis": 6367,
      "ocyte": 6368,
      "itary": 6369,
      "Ġsubc": 6370,
      "Ġrelaxation": 6371,
      "Ġpurposes": 6372,
      "iemann": 6373,
      "plete": 6374,
      "Ġcalibration": 6375,
      "Ġexplanation": 6376,
      "Ġverified": 6377,
      "Ġcircular": 6378,
      "Ġreplic": 6379,
      "ski": 6380,
      "Ġgran": 6381,
      "Ġdy": 6382,
      "ordance": 6383,
      "Ġacet": 6384,
      "Ġsummarized": 6385,
      "asure": 6386,
      "Ġthor": 6387,
      "Ġspherical": 6388,
      "oman": 6389,
      "Ġrespiratory": 6390,
      "Ġprotection": 6391,
      "Ġcapable": 6392,
      "Ġjud": 6393,
      "Ġbit": 6394,
      "Ġ$\\": 6395,
      "Ġharmonic": 6396,
      "Ġble": 6397,
      "Ġcam": 6398,
      "OL": 6399,
      "uple": 6400,
      "nel": 6401,
      "Ġcentr": 6402,
      "Ġinflammation": 6403,
      "SE": 6404,
      "Ġnumerous": 6405,
      "Ġglass": 6406,
      "ÎĽ": 6407,
      "Ġcreation": 6408,
      "cast": 6409,
      "ulum": 6410,
      "ovascular": 6411,
      "Ġinterventions": 6412,
      "Ġrecover": 6413,
      "Sch": 6414,
      "iliary": 6415,
      "Ġlocalization": 6416,
      "Ġtube": 6417,
      "Ġdisplayed": 6418,
      "Ġinputs": 6419,
      "top": 6420,
      "MF": 6421,
      "Ġâīĥ": 6422,
      "Ġcultural": 6423,
      "what": 6424,
      "Ġmild": 6425,
      "Ġreflection": 6426,
      "Ġrealized": 6427,
      "Ġdecisions": 6428,
      "han": 6429,
      "ĠMR": 6430,
      "Ġprotocols": 6431,
      "Ġinternational": 6432,
      "Ġisomorphic": 6433,
      "Ġlesion": 6434,
      "obl": 6435,
      "HR": 6436,
      "Ġdominated": 6437,
      "Ġhippocamp": 6438,
      "Ġmotivation": 6439,
      "une": 6440,
      "Ġcollision": 6441,
      "Ġcommunities": 6442,
      "Ġrefers": 6443,
      "ĠJan": 6444,
      "Ġ300": 6445,
      "Ġiteration": 6446,
      "Ġconcluded": 6447,
      "Ġprofessional": 6448,
      "88": 6449,
      "Ġreviewed": 6450,
      "Ġdriving": 6451,
      "Ġphosphorylation": 6452,
      "stead": 6453,
      "Ġdecades": 6454,
      "ĠExperim": 6455,
      "Ġtreatments": 6456,
      "ulas": 6457,
      "HD": 6458,
      "Ġrecommended": 6459,
      "isk": 6460,
      "Ġsch": 6461,
      "Ġoptimized": 6462,
      "With": 6463,
      "OT": 6464,
      "Ġintersection": 6465,
      "luding": 6466,
      "roid": 6467,
      "ĠGreen": 6468,
      "Ġfemales": 6469,
      "Ġobservational": 6470,
      "ested": 6471,
      "Ġaffine": 6472,
      "Ġreceptors": 6473,
      "ĠCF": 6474,
      "Ġdiscovery": 6475,
      "Ġvisc": 6476,
      "igm": 6477,
      "Ġintegrals": 6478,
      "ashed": 6479,
      "Ġexcellent": 6480,
      "Ġglu": 6481,
      "ror": 6482,
      "ĠMany": 6483,
      "vised": 6484,
      "Ġcandidates": 6485,
      "Ġactivated": 6486,
      "ubble": 6487,
      "Ġantigen": 6488,
      "Ġannual": 6489,
      "Ġdirected": 6490,
      "Ġunderwent": 6491,
      "Ġcentury": 6492,
      "BI": 6493,
      "tem": 6494,
      "Îº": 6495,
      "uclidean": 6496,
      "tile": 6497,
      "ci": 6498,
      "ugment": 6499,
      "Ġuns": 6500,
      "Ġordinary": 6501,
      "Ġmanus": 6502,
      "Ġtrunc": 6503,
      "Ġatom": 6504,
      "Ġinvolvement": 6505,
      "Ġinvest": 6506,
      "Ġrice": 6507,
      "Ġattit": 6508,
      "Ġbehaviors": 6509,
      "ATION": 6510,
      "esity": 6511,
      "Ġsphere": 6512,
      "ĠInterestingly": 6513,
      "lam": 6514,
      "Ġlinks": 6515,
      "vision": 6516,
      "Ġholes": 6517,
      "Ġremoval": 6518,
      "Ġult": 6519,
      "Ġavailability": 6520,
      "atistical": 6521,
      "BD": 6522,
      "ball": 6523,
      "Ġstaining": 6524,
      "chem": 6525,
      "ĠLorentz": 6526,
      "mid": 6527,
      "Ġcontinue": 6528,
      "ament": 6529,
      "Ġcompatible": 6530,
      "Ġenvelop": 6531,
      "uff": 6532,
      "ught": 6533,
      "rast": 6534,
      "ĠHR": 6535,
      "Ġaims": 6536,
      "Ġpeptide": 6537,
      "conduc": 6538,
      "Ġfile": 6539,
      "Ġacceleration": 6540,
      "Ġmind": 6541,
      "Ġenable": 6542,
      "Ġorganizations": 6543,
      "Ġencoding": 6544,
      "Ġplastic": 6545,
      "water": 6546,
      "ĠMic": 6547,
      "Ġrich": 6548,
      "ĠRG": 6549,
      "Ġserious": 6550,
      "Ġcombining": 6551,
      "ĠGroup": 6552,
      "ĠRel": 6553,
      "ĠmL": 6554,
      "Ġtrauma": 6555,
      "Ġsignature": 6556,
      "Ġconceptual": 6557,
      "BH": 6558,
      "Ïĩ": 6559,
      "Ġvideo": 6560,
      "Ġgoals": 6561,
      "Ġcarcinoma": 6562,
      "Ġvic": 6563,
      "Ġsubsequently": 6564,
      "particle": 6565,
      "idelines": 6566,
      "Ġstrictly": 6567,
      "Ġrealistic": 6568,
      "reatment": 6569,
      "Ġaccomp": 6570,
      "Met": 6571,
      "Ġdetermines": 6572,
      "Ġindustrial": 6573,
      "Ġcity": 6574,
      "rob": 6575,
      "ading": 6576,
      "Ġgrade": 6577,
      "Ġdissip": 6578,
      "tron": 6579,
      "oustic": 6580,
      "Ġleaders": 6581,
      "03": 6582,
      "Ġdonor": 6583,
      "iant": 6584,
      "Ġlost": 6585,
      "ij": 6586,
      "ampl": 6587,
      "08": 6588,
      "ĠSC": 6589,
      "Ġeigenvalue": 6590,
      "plate": 6591,
      "Ġcounts": 6592,
      "ĠAlgorithm": 6593,
      "Ġadaptation": 6594,
      "ancer": 6595,
      "oted": 6596,
      "ĠSeveral": 6597,
      "abric": 6598,
      "Ġpixels": 6599,
      "cf": 6600,
      "FC": 6601,
      "Ġdip": 6602,
      "regulated": 6603,
      "zo": 6604,
      "plex": 6605,
      "Ġkinem": 6606,
      "invariant": 6607,
      "otal": 6608,
      "ĠAp": 6609,
      "ĠOnly": 6610,
      "uly": 6611,
      "ĠMT": 6612,
      "Ġranging": 6613,
      "Ġcommercial": 6614,
      "Ġremove": 6615,
      "Ġsupply": 6616,
      "finement": 6617,
      "Ġsometimes": 6618,
      "ĠGP": 6619,
      "Ġoutl": 6620,
      "Ġconvenient": 6621,
      "ULT": 6622,
      "ĠAut": 6623,
      "ohn": 6624,
      "enn": 6625,
      "Ġ1000": 6626,
      "pression": 6627,
      "odal": 6628,
      "Ġ38": 6629,
      "Ġpredom": 6630,
      "Ġspeak": 6631,
      "Ġtransplantation": 6632,
      "VD": 6633,
      "Ġcorrespondence": 6634,
      "hind": 6635,
      "Sp": 6636,
      "actor": 6637,
      "Ġsymp": 6638,
      "ĠHD": 6639,
      "Ġabdominal": 6640,
      "Ġaddressed": 6641,
      "Ġleaves": 6642,
      "Ġinhibitors": 6643,
      "uary": 6644,
      "Ġeffort": 6645,
      "ontin": 6646,
      "Ġacids": 6647,
      "ĠFran": 6648,
      "Ġcham": 6649,
      "ectomy": 6650,
      "link": 6651,
      "Ġplus": 6652,
      "andemic": 6653,
      "Ġdifficulty": 6654,
      "cing": 6655,
      "Ġtele": 6656,
      "Ġorbits": 6657,
      "mm": 6658,
      "Ġacademic": 6659,
      "Ġ34": 6660,
      "Ġexcess": 6661,
      "Ġinform": 6662,
      "En": 6663,
      "Ġmitochondrial": 6664,
      "ilation": 6665,
      "Ġinhibitor": 6666,
      "ĠID": 6667,
      "ĠMulti": 6668,
      "Ġobservables": 6669,
      "Ġ..": 6670,
      "Ġcytok": 6671,
      "HS": 6672,
      "Ġadjusted": 6673,
      "Ġcyl": 6674,
      "Ġruns": 6675,
      "LR": 6676,
      "Ġtet": 6677,
      "Ġ1997": 6678,
      "Ġlogic": 6679,
      "ĠPR": 6680,
      "Ġions": 6681,
      "When": 6682,
      "Ġtook": 6683,
      "Ġunstable": 6684,
      "ifies": 6685,
      "Ġsuppress": 6686,
      "uits": 6687,
      "ergic": 6688,
      "ulator": 6689,
      "Ġassembly": 6690,
      "Ġconcerns": 6691,
      "Ġcrystal": 6692,
      "Ġvanishes": 6693,
      "Ġmetallicity": 6694,
      "rated": 6695,
      "Ġultim": 6696,
      "ĠPM": 6697,
      "Ġsitu": 6698,
      "Ġtargeted": 6699,
      "Ġsemantic": 6700,
      "tration": 6701,
      "Ġsegments": 6702,
      "Re": 6703,
      "Ġglut": 6704,
      "Ġgreatly": 6705,
      "mental": 6706,
      "Ġrecording": 6707,
      "Ġâĭ": 6708,
      "Ġattributed": 6709,
      "Ġwebs": 6710,
      "Ġconsistency": 6711,
      "Ġquoti": 6712,
      "ulates": 6713,
      "Ġmolecule": 6714,
      "Sh": 6715,
      "96": 6716,
      "versely": 6717,
      "Ġsides": 6718,
      "ĠED": 6719,
      "Ġobser": 6720,
      "Here": 6721,
      "Ġconjecture": 6722,
      "rative": 6723,
      "Ġcollapse": 6724,
      "Ġenables": 6725,
      "Ġbiop": 6726,
      "Ġfracture": 6727,
      "li": 6728,
      "oir": 6729,
      "Ġtight": 6730,
      "Ġwriting": 6731,
      "Ġasked": 6732,
      ",[": 6733,
      "ada": 6734,
      "Ġtransformed": 6735,
      "aton": 6736,
      "ously": 6737,
      "ĠGu": 6738,
      "Ġcataly": 6739,
      "Ġstored": 6740,
      "},": 6741,
      "uming": 6742,
      "Ġiron": 6743,
      "Ġfermions": 6744,
      "Ġspecificity": 6745,
      "Ġsuppose": 6746,
      "',": 6747,
      "Ġbook": 6748,
      "Ġ75": 6749,
      "From": 6750,
      "Ġflows": 6751,
      "Ġefficiently": 6752,
      "Ġemployees": 6753,
      "Ġreferences": 6754,
      "apter": 6755,
      "oli": 6756,
      "tition": 6757,
      "CoV": 6758,
      "Ġcomplexes": 6759,
      "cribed": 6760,
      "Ġnotice": 6761,
      "Ġclosure": 6762,
      "Ġbench": 6763,
      "Ġfacilitate": 6764,
      "Ġdiscovered": 6765,
      "Ġreverse": 6766,
      "eties": 6767,
      "xi": 6768,
      "Ġallocation": 6769,
      "Ġsession": 6770,
      "Ġattempt": 6771,
      "Ġevident": 6772,
      "wid": 6773,
      "ĠMean": 6774,
      "Ġadhe": 6775,
      "Ġ1996": 6776,
      "ĠIg": 6777,
      "Ġultras": 6778,
      "Ġteacher": 6779,
      "ibrary": 6780,
      "itrogen": 6781,
      "ĠRecall": 6782,
      "Ġplots": 6783,
      "umm": 6784,
      "Ġelementary": 6785,
      "adi": 6786,
      "ĠObs": 6787,
      "Ġvariant": 6788,
      "ellow": 6789,
      "Ġchoices": 6790,
      "Ġdop": 6791,
      "xy": 6792,
      "uity": 6793,
      "ultural": 6794,
      "ĠHigh": 6795,
      "occ": 6796,
      "04": 6797,
      "ĠMA": 6798,
      "Ġorganized": 6799,
      "Ġinstitutions": 6800,
      "ĠHy": 6801,
      "Ġmanuscript": 6802,
      "omics": 6803,
      "ĠPCR": 6804,
      "Ġcontinued": 6805,
      "Ġgoes": 6806,
      "respon": 6807,
      "ĠHz": 6808,
      "Ġfractions": 6809,
      "Ġlive": 6810,
      "Ġsper": 6811,
      "Ġmorphological": 6812,
      "Ġvessels": 6813,
      "Ġlinearly": 6814,
      "ĠLT": 6815,
      "Ġsupports": 6816,
      "ulative": 6817,
      "Ġproven": 6818,
      "Ġimpacts": 6819,
      "Ġturbine": 6820,
      "Ġevaluating": 6821,
      "Ġexperimentally": 6822,
      "pass": 6823,
      "Ġswitching": 6824,
      "Ġadopt": 6825,
      "aired": 6826,
      "oder": 6827,
      "Ġnanoparticles": 6828,
      "Ġregist": 6829,
      "eles": 6830,
      "Ġconsiderable": 6831,
      "oxid": 6832,
      "Ġmales": 6833,
      "Ġbehind": 6834,
      "Ġhemat": 6835,
      "Results": 6836,
      "Ġtomography": 6837,
      "Ġmember": 6838,
      "Ġcodes": 6839,
      "Ġrespondents": 6840,
      "force": 6841,
      "ĠRiemann": 6842,
      "Ġneglig": 6843,
      "antly": 6844,
      "earning": 6845,
      "Ġlearners": 6846,
      "Ġdoses": 6847,
      "Ġarises": 6848,
      "Ġderivation": 6849,
      "Ġcausal": 6850,
      "Ġfinitely": 6851,
      "Ġobservable": 6852,
      "Ġprime": 6853,
      "Ġvaried": 6854,
      "Ġbroken": 6855,
      "Ġcoherence": 6856,
      "Ġrecognized": 6857,
      "ĠSF": 6858,
      "sec": 6859,
      "Ġtopic": 6860,
      "van": 6861,
      "Ġencour": 6862,
      "amples": 6863,
      "Ġinference": 6864,
      "Ġcha": 6865,
      "Ġsplitting": 6866,
      "Conclusions": 6867,
      "Ġoscillations": 6868,
      "AA": 6869,
      "Ġcustom": 6870,
      "Ġln": 6871,
      "Ġentries": 6872,
      "Ġaimed": 6873,
      "Ġcomparisons": 6874,
      "Ġaccompan": 6875,
      "take": 6876,
      "Ġbriefly": 6877,
      "ĠVE": 6878,
      "ĠCompar": 6879,
      "Ġeventually": 6880,
      "Ġrein": 6881,
      "Ġneighborhood": 6882,
      "ĠWil": 6883,
      "Ġnuclei": 6884,
      "itory": 6885,
      "Ġpp": 6886,
      "Ġconductivity": 6887,
      "Ġpowerful": 6888,
      "uler": 6889,
      "Ġplotted": 6890,
      "Definition": 6891,
      "Ġabsorb": 6892,
      "aph": 6893,
      "Ġshifts": 6894,
      "Ġinfluenced": 6895,
      "ĠNetwork": 6896,
      "ortunately": 6897,
      "He": 6898,
      "Ġexponent": 6899,
      "Ġgenerates": 6900,
      "Ġloops": 6901,
      "Data": 6902,
      "ĠPP": 6903,
      "Ġsensing": 6904,
      "Ġhighlight": 6905,
      "Ġmobile": 6906,
      "itter": 6907,
      "ped": 6908,
      "ometer": 6909,
      "Ġnumerically": 6910,
      "Ġdram": 6911,
      "Ġinfected": 6912,
      "Ġdefici": 6913,
      "ĠMP": 6914,
      ")|": 6915,
      "istrib": 6916,
      "DP": 6917,
      "ĠSci": 6918,
      "Ġparents": 6919,
      "Ġapplicable": 6920,
      "Ġmarker": 6921,
      "heses": 6922,
      "ackground": 6923,
      "OP": 6924,
      "Ġsubsets": 6925,
      "Ġchains": 6926,
      "Ġcolle": 6927,
      "ocities": 6928,
      "Ġlimiting": 6929,
      "Finally": 6930,
      "Ġagree": 6931,
      "Ġintellig": 6932,
      "Ġoste": 6933,
      "Ġartificial": 6934,
      "Ġseverity": 6935,
      "ĠNorth": 6936,
      "rant": 6937,
      "Ġpandemic": 6938,
      "isher": 6939,
      "icians": 6940,
      "Ġdrawn": 6941,
      "ĠOR": 6942,
      "Ġmag": 6943,
      "Ġconstrained": 6944,
      "ernal": 6945,
      "Ġquickly": 6946,
      "rench": 6947,
      "ĠFigures": 6948,
      "Ġunf": 6949,
      "Ġtit": 6950,
      "Ġsupporting": 6951,
      "Ġacces": 6952,
      "Ġsingularity": 6953,
      "Ġframes": 6954,
      "ethe": 6955,
      "head": 6956,
      "Ġdemonstrates": 6957,
      "max": 6958,
      "ser": 6959,
      "lands": 6960,
      ")),": 6961,
      "Ġcavity": 6962,
      "Ġcompanies": 6963,
      "symmetry": 6964,
      "Ġgraft": 6965,
      "Ġintroducing": 6966,
      "ĠInformation": 6967,
      "sed": 6968,
      "Ġpip": 6969,
      "assive": 6970,
      "Ġcovariance": 6971,
      "rought": 6972,
      "ĠLy": 6973,
      "vered": 6974,
      "Cor": 6975,
      "Ġaugment": 6976,
      "Ġcompl": 6977,
      "Ġwalk": 6978,
      "Ġcultures": 6979,
      "rig": 6980,
      "ĠMax": 6981,
      "Ġimmediate": 6982,
      "Ġoil": 6983,
      "associated": 6984,
      "Ġml": 6985,
      "taining": 6986,
      "Ġregarded": 6987,
      "cessive": 6988,
      "emi": 6989,
      "Un": 6990,
      "Ġinsight": 6991,
      "raction": 6992,
      "ancies": 6993,
      "Ġguidelines": 6994,
      "Ġprojected": 6995,
      ")-(": 6996,
      "ESULT": 6997,
      "Ġinstrument": 6998,
      "References": 6999,
      "ĠEuclidean": 7000,
      "struction": 7001,
      "Ġsuppressed": 7002,
      "Ġvirtual": 7003,
      "Ġperception": 7004,
      "Ġsystemic": 7005,
      "BL": 7006,
      "ĠFerm": 7007,
      "ĠÃĢ": 7008,
      "Ġnet": 7009,
      "Ġvelocities": 7010,
      "DI": 7011,
      "Ġobesity": 7012,
      "acob": 7013,
      "Ġreflected": 7014,
      "vance": 7015,
      "Ġultra": 7016,
      "ĠNS": 7017,
      "Although": 7018,
      "Ġincl": 7019,
      "Ġcohom": 7020,
      "apping": 7021,
      "after": 7022,
      "ict": 7023,
      "Ġtract": 7024,
      "itig": 7025,
      "Ġsynthetic": 7026,
      "Ġtermin": 7027,
      "weight": 7028,
      "independent": 7029,
      "Ġvacc": 7030,
      "ĠâĢĵ": 7031,
      "ĠIC": 7032,
      "Ġdivergence": 7033,
      "Ġinfrast": 7034,
      "while": 7035,
      "dra": 7036,
      "ano": 7037,
      "Ns": 7038,
      "TA": 7039,
      "Ġgradually": 7040,
      "Ġthreat": 7041,
      "GE": 7042,
      "Ġcompany": 7043,
      "Ġfourth": 7044,
      "Ġcopy": 7045,
      "ĠPI": 7046,
      "mL": 7047,
      "Ġcod": 7048,
      "heres": 7049,
      "value": 7050,
      "Ġorganic": 7051,
      "Ġaden": 7052,
      "tag": 7053,
      "Ġnonzero": 7054,
      "Ġfrequent": 7055,
      "Ġrevers": 7056,
      "itors": 7057,
      "Ġtransmit": 7058,
      "Ġneither": 7059,
      "Ġaccep": 7060,
      "Ġhypertension": 7061,
      "Ġarm": 7062,
      "FA": 7063,
      "ĠPe": 7064,
      "ptive": 7065,
      "ĠPL": 7066,
      "Conclusion": 7067,
      "Ġanat": 7068,
      "Ġsomewhat": 7069,
      "Ġms": 7070,
      "VI": 7071,
      "Ġformulas": 7072,
      "Ġperipher": 7073,
      "analysis": 7074,
      "Ġinteracting": 7075,
      "Ġundergo": 7076,
      "Ġdevelopmental": 7077,
      "vol": 7078,
      "Ġarising": 7079,
      "Ġshorter": 7080,
      "Ġhip": 7081,
      "Ġpancreatic": 7082,
      "Ġads": 7083,
      "Ġoccurring": 7084,
      "Ġcortical": 7085,
      "Ġordered": 7086,
      "ĠDC": 7087,
      "Ġtwice": 7088,
      "rew": 7089,
      "ĠThrough": 7090,
      "Ġbra": 7091,
      "Ġintracellular": 7092,
      "Ġ...,": 7093,
      "Ġobjectives": 7094,
      "ĠAssume": 7095,
      "Ġheterogeneity": 7096,
      "Cons": 7097,
      "aterials": 7098,
      "ĠSS": 7099,
      "Ġnative": 7100,
      "Ġovercome": 7101,
      "Ġmodelling": 7102,
      "Ġrights": 7103,
      "Ġdrive": 7104,
      "aken": 7105,
      "ETH": 7106,
      "Ġcovered": 7107,
      "Ġmodeled": 7108,
      "87": 7109,
      "dri": 7110,
      "Ġinsights": 7111,
      "Ġequipment": 7112,
      "Ġroughly": 7113,
      "Ġconnectivity": 7114,
      "Ġvaries": 7115,
      "Ġreceive": 7116,
      "Ġmagnet": 7117,
      "ESULTS": 7118,
      "resolution": 7119,
      "lik": 7120,
      "ĠDet": 7121,
      "ĠSR": 7122,
      "size": 7123,
      "Ġcircle": 7124,
      "Ġreading": 7125,
      "step": 7126,
      "amination": 7127,
      "Ġbelief": 7128,
      "];": 7129,
      "Ġcurrents": 7130,
      "ests": 7131,
      "Ġfuzzy": 7132,
      "Ġclean": 7133,
      "Ġperme": 7134,
      "ruit": 7135,
      "Ġconditional": 7136,
      "Ġstrains": 7137,
      "Ã¤": 7138,
      "avi": 7139,
      "86": 7140,
      "ĠInstead": 7141,
      "Ġprelim": 7142,
      "ĠClass": 7143,
      "Ġindicator": 7144,
      "relation": 7145,
      "Ġimplicit": 7146,
      "regular": 7147,
      "oscopic": 7148,
      "Ġkept": 7149,
      "Ġgly": 7150,
      "ĠChar": 7151,
      "Proposition": 7152,
      "Ġaccordance": 7153,
      "Ġclar": 7154,
      "ica": 7155,
      "oster": 7156,
      "Ġreceiving": 7157,
      "Ġfulf": 7158,
      "Ġvolum": 7159,
      "Ġdot": 7160,
      "Ġtot": 7161,
      "Ġpolitical": 7162,
      "Ġmesh": 7163,
      "Ġanalyzing": 7164,
      "lectic": 7165,
      "Ġprogramming": 7166,
      "atient": 7167,
      "Ġdeaths": 7168,
      "Ġlabels": 7169,
      "Ġminimize": 7170,
      "idering": 7171,
      "97": 7172,
      "width": 7173,
      "ara": 7174,
      "Ġphenotype": 7175,
      "á¹": 7176,
      "Ġsubtr": 7177,
      "Ġimpairment": 7178,
      "Qu": 7179,
      "Ġdecays": 7180,
      "eled": 7181,
      "Ġhtt": 7182,
      "Ġvessel": 7183,
      "ĠMay": 7184,
      "Ġnegligible": 7185,
      "Ġaddi": 7186,
      "igma": 7187,
      "wave": 7188,
      "Ġsinus": 7189,
      "Ġsynaptic": 7190,
      "ĠSee": 7191,
      "uck": 7192,
      "Ġaveraged": 7193,
      "Ġfabric": 7194,
      "Ġquestionnaire": 7195,
      "Ġbenchmark": 7196,
      "Ġabelian": 7197,
      "Ġtransient": 7198,
      "arest": 7199,
      "ĠTHE": 7200,
      "omething": 7201,
      "disc": 7202,
      "INE": 7203,
      "Ġlys": 7204,
      "ophil": 7205,
      "restim": 7206,
      "ĠSet": 7207,
      "uffici": 7208,
      "ĠDifferen": 7209,
      "Ġproposition": 7210,
      "pus": 7211,
      "Ġnerve": 7212,
      "finite": 7213,
      "Ġsle": 7214,
      "ĠMonte": 7215,
      "Ġhorm": 7216,
      "ille": 7217,
      "cean": 7218,
      "Î¦": 7219,
      "Ġcoding": 7220,
      "Ġprojects": 7221,
      "Ġviewed": 7222,
      "ĠATP": 7223,
      "Ġresolved": 7224,
      "Ġcompression": 7225,
      "ĠJanuary": 7226,
      "Ġsymbol": 7227,
      "unt": 7228,
      "Ġobtaining": 7229,
      "phal": 7230,
      "Ġsear": 7231,
      "Ġ1995": 7232,
      "Ġunclear": 7233,
      "Ġschools": 7234,
      "Ġscope": 7235,
      "ĠElec": 7236,
      "tility": 7237,
      "Ġreveals": 7238,
      "Ġapproved": 7239,
      "ĠRed": 7240,
      "Ġmir": 7241,
      "rag": 7242,
      "graph": 7243,
      "Ġmaster": 7244,
      "Ġlandsc": 7245,
      "ortic": 7246,
      "84": 7247,
      "ĠEv": 7248,
      "ossible": 7249,
      "iling": 7250,
      "conn": 7251,
      "Ġmaternal": 7252,
      "ulties": 7253,
      "ĠCL": 7254,
      "Ġregener": 7255,
      "Ġanalysed": 7256,
      "Ġsmallest": 7257,
      "By": 7258,
      "Ġincreasingly": 7259,
      "Ġtension": 7260,
      "Ġretros": 7261,
      "NP": 7262,
      "Ds": 7263,
      "teness": 7264,
      "Based": 7265,
      "valued": 7266,
      "Ġmodifications": 7267,
      "Ġgest": 7268,
      "Ġextracellular": 7269,
      "âĬ": 7270,
      "Ġcutoff": 7271,
      "ĠBesides": 7272,
      "scri": 7273,
      "tee": 7274,
      "Ġhypothe": 7275,
      "Ġepithelial": 7276,
      "Ġlie": 7277,
      "Ġmultiv": 7278,
      "olid": 7279,
      "ians": 7280,
      "ache": 7281,
      "Ġlob": 7282,
      "Ġlaws": 7283,
      "82": 7284,
      "Ġgeodes": 7285,
      "cm": 7286,
      "ĠCNN": 7287,
      "Ġopportunity": 7288,
      "Ġintake": 7289,
      "Ġautophag": 7290,
      "Ġcontroller": 7291,
      "89": 7292,
      "etric": 7293,
      "ignific": 7294,
      "Ġcovering": 7295,
      "Ġargue": 7296,
      "Ġweakly": 7297,
      "thern": 7298,
      "Ġpostoperative": 7299,
      "ewise": 7300,
      "Ġcolumns": 7301,
      "Ġpointed": 7302,
      "chain": 7303,
      "Ġelse": 7304,
      "Ġguid": 7305,
      "Ġclassifier": 7306,
      "Ac": 7307,
      "phosph": 7308,
      "Ġaux": 7309,
      "Ġreplace": 7310,
      "Ġves": 7311,
      "Ġgamma": 7312,
      "iber": 7313,
      "ĠSARS": 7314,
      "Ġvision": 7315,
      "Ġoral": 7316,
      "Ġsensors": 7317,
      "Ġwin": 7318,
      "ĠEd": 7319,
      "vey": 7320,
      "Ġassociations": 7321,
      "Ġdysfunction": 7322,
      "Ġster": 7323,
      "Ġimplant": 7324,
      "Ġbrack": 7325,
      "81": 7326,
      "Ġsafe": 7327,
      "Ġsharp": 7328,
      "Ġmanufacturing": 7329,
      "lin": 7330,
      "Ġinfinity": 7331,
      "Ġmention": 7332,
      "Ġfibers": 7333,
      "icular": 7334,
      "UC": 7335,
      "Ġdeviations": 7336,
      "Ġreservoir": 7337,
      "Ġprevention": 7338,
      "Ġloading": 7339,
      "Ġfeasible": 7340,
      "Ġdepos": 7341,
      "Ġprecipitation": 7342,
      "Ġdry": 7343,
      "ĠNO": 7344,
      "Ġcalculating": 7345,
      "Ġvalu": 7346,
      "orting": 7347,
      "ĠUK": 7348,
      "Ġmental": 7349,
      "roke": 7350,
      "Ġprem": 7351,
      "activity": 7352,
      "Ġepoch": 7353,
      "Ġconsensus": 7354,
      "Ġrelativistic": 7355,
      "CONCLUSION": 7356,
      "Ġdecline": 7357,
      "Ġ1990": 7358,
      "inder": 7359,
      "Ġnucleus": 7360,
      "ENT": 7361,
      "Ġmassless": 7362,
      "ĠÂ°": 7363,
      "Ġcoming": 7364,
      "Ġquantify": 7365,
      "regulation": 7366,
      "Mod": 7367,
      "ĊĠ": 7368,
      "Ġbodies": 7369,
      "Ġadapted": 7370,
      "Ġperceived": 7371,
      "Ġrequiring": 7372,
      "Ġirradi": 7373,
      "Ġjoin": 7374,
      "Ġsuperconduc": 7375,
      "GS": 7376,
      "Ġtrade": 7377,
      "EA": 7378,
      "Ġcoli": 7379,
      "ypt": 7380,
      "Ġcapability": 7381,
      "ĠDen": 7382,
      "Ġapplies": 7383,
      "ĠBayesian": 7384,
      "Ġstarts": 7385,
      "Ġrenormalization": 7386,
      "istence": 7387,
      "dis": 7388,
      "Ġmarginal": 7389,
      "ycl": 7390,
      "ĠCase": 7391,
      "Ġlot": 7392,
      "Ġheterogeneous": 7393,
      "odium": 7394,
      "Ġfeel": 7395,
      "omorphisms": 7396,
      "ĠVari": 7397,
      "Ġren": 7398,
      "Ph": 7399,
      "pers": 7400,
      "Ġut": 7401,
      "Ġacoustic": 7402,
      "Ġventric": 7403,
      "ĠBar": 7404,
      "ĠMar": 7405,
      "/(": 7406,
      "vector": 7407,
      "ĠRus": 7408,
      "Ġcontributes": 7409,
      "Ġperhaps": 7410,
      "ĠEl": 7411,
      "Ġquotient": 7412,
      "Ġsimplified": 7413,
      "Ġentry": 7414,
      "Ġoxidative": 7415,
      "Ġsurveys": 7416,
      "onom": 7417,
      "ĠSer": 7418,
      "]),": 7419,
      "lecular": 7420,
      "ĠPatients": 7421,
      "Ġgates": 7422,
      "ĠStand": 7423,
      "ss": 7424,
      "83": 7425,
      "ĠOnce": 7426,
      "Ġnamed": 7427,
      "Ġemergency": 7428,
      "Ġcloser": 7429,
      "ĠTe": 7430,
      "idelity": 7431,
      "Ġdiscontin": 7432,
      "Ġcrystall": 7433,
      "Ġcreating": 7434,
      "Ġwound": 7435,
      "OH": 7436,
      "urable": 7437,
      "Ġflood": 7438,
      "Ġcer": 7439,
      "changed": 7440,
      "Ġvanishing": 7441,
      "Ġhabit": 7442,
      "ethyl": 7443,
      "Ġtorque": 7444,
      "Des": 7445,
      "Ġ~": 7446,
      "Ġmitig": 7447,
      "Ġsulf": 7448,
      "Ġ39": 7449,
      "Ġarrang": 7450,
      "Ġinteract": 7451,
      "ticular": 7452,
      "Ġepis": 7453,
      "ĠHom": 7454,
      "Ġsharing": 7455,
      "Ġresection": 7456,
      "umber": 7457,
      "Ġbeta": 7458,
      "ĠScience": 7459,
      "oney": 7460,
      "ĠThree": 7461,
      "non": 7462,
      "che": 7463,
      "degener": 7464,
      "lection": 7465,
      "Ġinjected": 7466,
      "Ġeye": 7467,
      "Ġvalidated": 7468,
      "Ġtracking": 7469,
      "Ġmoduli": 7470,
      "Ġaggregation": 7471,
      "ĠEarth": 7472,
      "Ġleaf": 7473,
      "Ġreflects": 7474,
      "Ġpublication": 7475,
      "Ar": 7476,
      "zen": 7477,
      "Ã¡": 7478,
      "Ġbring": 7479,
      "06": 7480,
      "ĠNotice": 7481,
      "Ġtoxicity": 7482,
      "Ġchemotherapy": 7483,
      "ĠGa": 7484,
      "Se": 7485,
      "Ġaxial": 7486,
      "Ġtransferred": 7487,
      "Ġexhibits": 7488,
      "Ã¼": 7489,
      "Ġconsent": 7490,
      "ĠAdS": 7491,
      "ocyt": 7492,
      "osystem": 7493,
      "Ġdiscrep": 7494,
      "inger": 7495,
      "HO": 7496,
      "ĠIN": 7497,
      "Ġguide": 7498,
      "Ġdial": 7499,
      "ĠÄ": 7500,
      "ĠWT": 7501,
      "reness": 7502,
      "ultiv": 7503,
      "abilistic": 7504,
      "Ġlimitation": 7505,
      "ĠStudy": 7506,
      "Ġoperational": 7507,
      "Ġstay": 7508,
      "Note": 7509,
      "ularities": 7510,
      "Ġbelongs": 7511,
      "ecutive": 7512,
      "Ġdisapp": 7513,
      "ĠAF": 7514,
      "Ġtends": 7515,
      "Ġsocio": 7516,
      "Ġmodulation": 7517,
      "ortion": 7518,
      "mentioned": 7519,
      "izable": 7520,
      "'.": 7521,
      "Ġpreferred": 7522,
      "Ġnewly": 7523,
      "obic": 7524,
      "ĠBR": 7525,
      "Ġborn": 7526,
      "ench": 7527,
      "Ġsomething": 7528,
      "Ġbleeding": 7529,
      "Ġpharmac": 7530,
      "Ġbio": 7531,
      "Ġunp": 7532,
      "Ġpredominant": 7533,
      "Ġadoles": 7534,
      "ociation": 7535,
      "Ġmetastatic": 7536,
      "Ġveget": 7537,
      "Ġinstances": 7538,
      "ulture": 7539,
      "Ms": 7540,
      "Ġimproves": 7541,
      "anck": 7542,
      "Ġtrigger": 7543,
      "Ġtag": 7544,
      "Ġprognosis": 7545,
      "Ġstaff": 7546,
      "Ġmoments": 7547,
      "Î£": 7548,
      "09": 7549,
      "Ġimprovements": 7550,
      "frequency": 7551,
      "Ġneuron": 7552,
      "Ġdepicted": 7553,
      "Ġdepression": 7554,
      "Ġpromin": 7555,
      "rays": 7556,
      "Ġpreced": 7557,
      "Ġcatalog": 7558,
      "Ġelliptic": 7559,
      "Ġhyperb": 7560,
      "umor": 7561,
      "Ġconverges": 7562,
      "Ġadverse": 7563,
      "Ġatmosphere": 7564,
      "Ġsn": 7565,
      "Ġ65": 7566,
      "Ġmuc": 7567,
      "standing": 7568,
      "Ġcorrected": 7569,
      "Ġleave": 7570,
      "ault": 7571,
      "oke": 7572,
      "Ġvaluable": 7573,
      "Ġatmospheric": 7574,
      "ĠTR": 7575,
      "ĠGermany": 7576,
      "Ġpron": 7577,
      "Ġinfrared": 7578,
      "Ġcommutative": 7579,
      "Ġgold": 7580,
      "Ġsimulate": 7581,
      "ifold": 7582,
      "ini": 7583,
      "Â´": 7584,
      "ĠEff": 7585,
      "Ġcharges": 7586,
      "Ġcorrectly": 7587,
      "rine": 7588,
      "ĠLD": 7589,
      "undred": 7590,
      "Ġtravel": 7591,
      "Ġfewer": 7592,
      "ifts": 7593,
      "ask": 7594,
      "Ġdoing": 7595,
      "light": 7596,
      "Ġrecovered": 7597,
      "ĠCompared": 7598,
      "Ġincome": 7599,
      "Ġstiff": 7600,
      "ĠDep": 7601,
      "Ġprecurs": 7602,
      "Ġolig": 7603,
      "tang": 7604,
      "ĠType": 7605,
      "Ġaffecting": 7606,
      "Ġstimuli": 7607,
      "Ġadequate": 7608,
      "Ġchoosing": 7609,
      "Ġkinds": 7610,
      "Ġchamber": 7611,
      "aut": 7612,
      "Ġprocessed": 7613,
      "Ġdomin": 7614,
      "Ġelder": 7615,
      "Ġreaches": 7616,
      "Ġforest": 7617,
      "Ġsubsection": 7618,
      "Ġïģ": 7619,
      "Ġfav": 7620,
      "Ġannih": 7621,
      "atz": 7622,
      "Ġintegers": 7623,
      "Be": 7624,
      "Ġplanets": 7625,
      "acial": 7626,
      "Ġopportunities": 7627,
      "ĠAustr": 7628,
      "Ġhistorical": 7629,
      "Ġcosmic": 7630,
      "Ġsurpris": 7631,
      "Ġdivis": 7632,
      "ĠForm": 7633,
      "Ġiterations": 7634,
      "HA": 7635,
      "Ġlanguages": 7636,
      "Ġoutputs": 7637,
      "imer": 7638,
      "Ġawa": 7639,
      "Ġ150": 7640,
      "Ġanomaly": 7641,
      "raining": 7642,
      "Ġupdate": 7643,
      "Ġlearned": 7644,
      "Ġinfrastructure": 7645,
      "elt": 7646,
      "ĠFermi": 7647,
      "SI": 7648,
      "ĠOut": 7649,
      "Ġexpanded": 7650,
      "Ġpowers": 7651,
      "Ġbasal": 7652,
      "ĠNP": 7653,
      "Ġrobustness": 7654,
      "Ġcaptured": 7655,
      "Ġaltered": 7656,
      "Ġmalignant": 7657,
      "Ġmultiplication": 7658,
      "ĠWorld": 7659,
      "Ġreleased": 7660,
      "Ġdifficulties": 7661,
      "Ġraw": 7662,
      "Ġrepeat": 7663,
      "rice": 7664,
      "ĠComp": 7665,
      "Ġcenters": 7666,
      "born": 7667,
      "Ġ42": 7668,
      "driven": 7669,
      "Ġrural": 7670,
      "Ġconsiderations": 7671,
      "Ġalpha": 7672,
      "Ġprolong": 7673,
      "Ġgave": 7674,
      "otopy": 7675,
      "92": 7676,
      "ETHOD": 7677,
      "ipar": 7678,
      "hyd": 7679,
      "UR": 7680,
      "till": 7681,
      "Ġquery": 7682,
      "ĠEr": 7683,
      "Ġforeign": 7684,
      "Ġthings": 7685,
      "outhern": 7686,
      "ĠIP": 7687,
      "Ġincom": 7688,
      "ĠMc": 7689,
      "unctional": 7690,
      "ĠEnd": 7691,
      "Ġemit": 7692,
      "Ġrelevance": 7693,
      "Ġinvestigations": 7694,
      "mia": 7695,
      "etry": 7696,
      "ĠNi": 7697,
      "Ġmaintaining": 7698,
      "uge": 7699,
      "Ġpole": 7700,
      "Ġextinc": 7701,
      "ĠOc": 7702,
      "Ġquantization": 7703,
      "ensive": 7704,
      "Ġreadily": 7705,
      "Ġlifetime": 7706,
      "Ġsed": 7707,
      "Ġproperly": 7708,
      "Ġages": 7709,
      "Ġpurely": 7710,
      "logical": 7711,
      "Ġpreliminary": 7712,
      "annel": 7713,
      "ĠRecently": 7714,
      "Ġattributes": 7715,
      "toplas": 7716,
      "atus": 7717,
      "Ġsea": 7718,
      "att": 7719,
      "Ġanten": 7720,
      "but": 7721,
      "ĠLearning": 7722,
      "Ġaccepted": 7723,
      "Ġpit": 7724,
      "Ġextends": 7725,
      "Ġincident": 7726,
      "uate": 7727,
      "ĠGC": 7728,
      "93": 7729,
      "cription": 7730,
      "ĠCarlo": 7731,
      "Ġinhibited": 7732,
      "ham": 7733,
      "ĠDef": 7734,
      "ĠGl": 7735,
      "ĠIT": 7736,
      "ĠNGC": 7737,
      "Ġlosses": 7738,
      "Ġinvasive": 7739,
      "Ġesc": 7740,
      "Ġple": 7741,
      "Ġspatially": 7742,
      "Ġmagne": 7743,
      "Ġfilms": 7744,
      "Ġbiomark": 7745,
      "ressing": 7746,
      "Ġcollisions": 7747,
      "Ġrely": 7748,
      "Ġultrasound": 7749,
      "Ġunion": 7750,
      "roscopic": 7751,
      "Ġcompris": 7752,
      "genic": 7753,
      "07": 7754,
      "duct": 7755,
      "ĠAC": 7756,
      "hyth": 7757,
      "ĠInternational": 7758,
      "ĠSA": 7759,
      "Ġinterior": 7760,
      "Ġyouth": 7761,
      "Ġabstract": 7762,
      "rey": 7763,
      "Ġgenomic": 7764,
      "udes": 7765,
      "--": 7766,
      "94": 7767,
      "Ġhaz": 7768,
      "Ġdoub": 7769,
      "Ġheating": 7770,
      "}$": 7771,
      "Ġproducing": 7772,
      "ĠÎĶ": 7773,
      "Ġbank": 7774,
      "ounc": 7775,
      "ĠCC": 7776,
      "ĠAGN": 7777,
      "Ġempty": 7778,
      "ĠSE": 7779,
      "ĠMarkov": 7780,
      "Ġ55": 7781,
      "ĠWestern": 7782,
      "Ġimaginary": 7783,
      "Ġmarketing": 7784,
      "Ġprep": 7785,
      "ĠEurope": 7786,
      "Ġsampled": 7787,
      "pler": 7788,
      "ĠStr": 7789,
      "opro": 7790,
      "Ġadvance": 7791,
      "ĠEM": 7792,
      "ĠBP": 7793,
      "ĠMg": 7794,
      "commut": 7795,
      "Ġstandards": 7796,
      "Ġmessage": 7797,
      "Ġrib": 7798,
      "Ġbehavioral": 7799,
      "Ġcorpor": 7800,
      "âĦĵ": 7801,
      "Ġsuppression": 7802,
      "Ġhappens": 7803,
      "Ġinherent": 7804,
      "Ġchlor": 7805,
      "versible": 7806,
      "Ġspectroscopy": 7807,
      "Ġvehicle": 7808,
      "Ġbed": 7809,
      "Ġoriented": 7810,
      "using": 7811,
      "Ġcohomology": 7812,
      "ceptions": 7813,
      "Ġrecruit": 7814,
      "oxide": 7815,
      "Ġends": 7816,
      "After": 7817,
      "Ġregulatory": 7818,
      "Me": 7819,
      "points": 7820,
      "Ġdeform": 7821,
      "Ġthermodynamic": 7822,
      "Ġspecimens": 7823,
      "Ġpanels": 7824,
      "Ġcharacters": 7825,
      "ĠMarch": 7826,
      "Ġcontinuously": 7827,
      "Ġoffers": 7828,
      "Ġtoday": 7829,
      "Ġpermutation": 7830,
      "Ġgets": 7831,
      "atitis": 7832,
      "fig": 7833,
      "rected": 7834,
      "Ġaccounting": 7835,
      "Ġcalcium": 7836,
      "Ġportion": 7837,
      "abolic": 7838,
      "layer": 7839,
      "Ġequally": 7840,
      "Ġentity": 7841,
      "PCR": 7842,
      "Ġhundred": 7843,
      "thing": 7844,
      "Ġ64": 7845,
      "DR": 7846,
      "Ġuptake": 7847,
      "Ġcultured": 7848,
      "Ġantibiotic": 7849,
      "Ġpenet": 7850,
      "Ġintu": 7851,
      "Ġmathematics": 7852,
      "Ġvanish": 7853,
      ")]": 7854,
      "neum": 7855,
      "Ġgraded": 7856,
      "ires": 7857,
      "Ġdeple": 7858,
      "room": 7859,
      "tention": 7860,
      "Ġpel": 7861,
      "Ġsubstantially": 7862,
      "ĠEuler": 7863,
      "making": 7864,
      "host": 7865,
      "Ġflavor": 7866,
      "itian": 7867,
      "gal": 7868,
      "Ġfuel": 7869,
      "Ġtiming": 7870,
      "Ġpump": 7871,
      "iment": 7872,
      "Ġconverted": 7873,
      "natal": 7874,
      "Ġbeneficial": 7875,
      "Ġasymmetry": 7876,
      "Ġpackage": 7877,
      "agonal": 7878,
      "eptember": 7879,
      "Ġfri": 7880,
      "Ġbud": 7881,
      "2010": 7882,
      "Ġequipped": 7883,
      "Ġyounger": 7884,
      "Ġjets": 7885,
      "However": 7886,
      "Ġdownstream": 7887,
      "Ġever": 7888,
      "uries": 7889,
      "otide": 7890,
      "learly": 7891,
      "Ġstreng": 7892,
      "Ġbridge": 7893,
      "ĠComput": 7894,
      "Ġmilk": 7895,
      "Ġrelig": 7896,
      "No": 7897,
      "actory": 7898,
      "Ġpositively": 7899,
      "Ġcumulative": 7900,
      "Ġkpc": 7901,
      "such": 7902,
      "Ġnone": 7903,
      "Ġinformed": 7904,
      "ĠWhere": 7905,
      "Ġclouds": 7906,
      "Î¼": 7907,
      "Ġphoto": 7908,
      "anol": 7909,
      "Ġattain": 7910,
      "Ġ1994": 7911,
      "ĠHP": 7912,
      "ster": 7913,
      "Ġasser": 7914,
      "Ġduality": 7915,
      "ameters": 7916,
      "Ġformulated": 7917,
      "Ġmodular": 7918,
      "Ġexcl": 7919,
      "Ġhope": 7920,
      "Ġcollagen": 7921,
      "Ġischem": 7922,
      "Ġquarks": 7923,
      "Ġfed": 7924,
      "Ġsymbols": 7925,
      "?\"": 7926,
      "Ġcontributed": 7927,
      "riched": 7928,
      "Ġparametri": 7929,
      "ĠEduc": 7930,
      "Ġreplacement": 7931,
      "Ġusage": 7932,
      "Ġreplication": 7933,
      "Ġsubjected": 7934,
      "Ġanomalous": 7935,
      "Ġreconstructed": 7936,
      "terminal": 7937,
      "Ġemissions": 7938,
      "Ġenrich": 7939,
      "Ġsymplectic": 7940,
      "Ġasc": 7941,
      "Ġelderly": 7942,
      "Ġregardless": 7943,
      "GFR": 7944,
      "Ġcovariant": 7945,
      "velopment": 7946,
      "2015": 7947,
      "Ġlibrary": 7948,
      "nat": 7949,
      "NC": 7950,
      "ĠMal": 7951,
      "Ġemerging": 7952,
      "Ġprojections": 7953,
      "verex": 7954,
      "Ġconjugate": 7955,
      "Ġnom": 7956,
      "processing": 7957,
      "áº": 7958,
      "Ġparticipation": 7959,
      "Ġprivate": 7960,
      "tra": 7961,
      "Ġhierarchical": 7962,
      "Ġstret": 7963,
      "ĠDR": 7964,
      "Ġbases": 7965,
      "uality": 7966,
      "osomes": 7967,
      "DS": 7968,
      "Ġassays": 7969,
      "ĠComb": 7970,
      "Ġentirely": 7971,
      "Ġtargeting": 7972,
      "Ġquar": 7973,
      "Ġoption": 7974,
      "Ġbosons": 7975,
      "ĠBra": 7976,
      "Ġrealization": 7977,
      "Ġentangled": 7978,
      "Ġemergence": 7979,
      "Ġbranches": 7980,
      "Ġshad": 7981,
      "squ": 7982,
      "2013": 7983,
      "Ġalb": 7984,
      "ĠâĪĿ": 7985,
      "Ġfocusing": 7986,
      "Ġcurric": 7987,
      "OC": 7988,
      "GT": 7989,
      "Ġsmart": 7990,
      "Ġsubsystem": 7991,
      "Ġenvelope": 7992,
      "Ġphon": 7993,
      "ashion": 7994,
      "vas": 7995,
      "ĠJacob": 7996,
      "91": 7997,
      "MRI": 7998,
      "Ġremote": 7999,
      "ĠInstitute": 8000,
      "Ġcard": 8001,
      "umps": 8002,
      "Ġsatellite": 8003,
      "Ġuniversity": 8004,
      "Ġmutual": 8005,
      "Ġperturbative": 8006,
      "from": 8007,
      "adic": 8008,
      "Ġunity": 8009,
      "BA": 8010,
      "entia": 8011,
      "Ġcontexts": 8012,
      "Ġfiltering": 8013,
      "za": 8014,
      "Ġfits": 8015,
      "ĠSW": 8016,
      "Ġcopies": 8017,
      "ĠPV": 8018,
      "Ġinequalities": 8019,
      "Ġmacroph": 8020,
      "ublic": 8021,
      "ECT": 8022,
      "ĠLo": 8023,
      "Ġmediated": 8024,
      "dec": 8025,
      "Ġcircuits": 8026,
      "Ġneo": 8027,
      "Ġpatch": 8028,
      "Ġcentre": 8029,
      "Ġperp": 8030,
      "Ġgrown": 8031,
      "Ġopin": 8032,
      "Ġmyel": 8033,
      "ĠAfrica": 8034,
      "UV": 8035,
      "Ġmicrob": 8036,
      "Ġvortex": 8037,
      "Ġreality": 8038,
      "stage": 8039,
      "Ġdeterminant": 8040,
      "static": 8041,
      "uistic": 8042,
      "Ġprobabilistic": 8043,
      "Ġdischarge": 8044,
      "eta": 8045,
      "Ġseason": 8046,
      "Ġwalls": 8047,
      "inflamm": 8048,
      "ĠAgain": 8049,
      "Ġreproductive": 8050,
      "Ġpig": 8051,
      "Ġhypox": 8052,
      "otropy": 8053,
      "2014": 8054,
      "opes": 8055,
      "Ġmer": 8056,
      "Ġinsuffici": 8057,
      "ĠRo": 8058,
      "Ġty": 8059,
      "Ġcerebral": 8060,
      "iable": 8061,
      "self": 8062,
      "ĠDr": 8063,
      "Ġattempts": 8064,
      "Ġcontrolling": 8065,
      "EF": 8066,
      "Ġpathological": 8067,
      "Ġauxiliary": 8068,
      "Ġtens": 8069,
      "onomy": 8070,
      "Ġpsychological": 8071,
      "Ġcontour": 8072,
      "ĠVal": 8073,
      "ounced": 8074,
      "ĠWeyl": 8075,
      "Ġlooking": 8076,
      "porary": 8077,
      "iation": 8078,
      "ĠGen": 8079,
      "economic": 8080,
      "Ġaneur": 8081,
      "Ġfibrobl": 8082,
      "Pl": 8083,
      "Le": 8084,
      "Ġantic": 8085,
      "Ġauto": 8086,
      "greg": 8087,
      "Ġcounting": 8088,
      "ĠÎ¼m": 8089,
      "Other": 8090,
      "Ġpolicies": 8091,
      "Ġbeg": 8092,
      "ls": 8093,
      "Ġdiscrimination": 8094,
      "Ġdeploy": 8095,
      "Ġillustrates": 8096,
      "Ġmedicine": 8097,
      "Ġconsecutive": 8098,
      "Ġmatched": 8099,
      "ĠâĪ§": 8100,
      "ĠDecember": 8101,
      "Ġstructured": 8102,
      "Ġextensions": 8103,
      "ĠLC": 8104,
      "GR": 8105,
      "ĠMy": 8106,
      "Ġcausing": 8107,
      "ĠSFR": 8108,
      "Ġinterfer": 8109,
      "tibility": 8110,
      "Ġimpossible": 8111,
      "Ġinfluences": 8112,
      "ura": 8113,
      "Ġ44": 8114,
      "Ġperipheral": 8115,
      "Ġsubstrates": 8116,
      "Ġverification": 8117,
      "Ġaneurys": 8118,
      "Ġassessing": 8119,
      "Background": 8120,
      "Ġdeterministic": 8121,
      "Ġdend": 8122,
      "Ġsilicon": 8123,
      "ĠHow": 8124,
      "Ġroad": 8125,
      "Ġinversion": 8126,
      "Ġpal": 8127,
      "Ġdiscussions": 8128,
      "ĠAug": 8129,
      "orous": 8130,
      "ĠIF": 8131,
      "Ġheld": 8132,
      "Ġfinds": 8133,
      "vable": 8134,
      "Ġdied": 8135,
      "OM": 8136,
      "Ġtil": 8137,
      "states": 8138,
      "Ġconcerned": 8139,
      "ĠStudies": 8140,
      "2017": 8141,
      "Ġexponentially": 8142,
      "Ġiterative": 8143,
      "isen": 8144,
      "Ġagric": 8145,
      "ĠDo": 8146,
      "ĠTeV": 8147,
      "Ġintegrating": 8148,
      "mean": 8149,
      "Ġoverview": 8150,
      "work": 8151,
      "elescop": 8152,
      "Ġparadigm": 8153,
      "2012": 8154,
      "osynthesis": 8155,
      "dep": 8156,
      "Ġsodium": 8157,
      "Ġ400": 8158,
      "ema": 8159,
      "Ġscanning": 8160,
      "Ġ120": 8161,
      "Ġven": 8162,
      "Ġsimplest": 8163,
      "ĠBC": 8164,
      "Ġmovements": 8165,
      "weak": 8166,
      "ĠeV": 8167,
      "Ġawareness": 8168,
      "OF": 8169,
      "Ġreproduce": 8170,
      "ifug": 8171,
      "Ġplayed": 8172,
      "Ġrecommendations": 8173,
      "Ġdelayed": 8174,
      "Ġunless": 8175,
      "Ġpredicting": 8176,
      "Ġturbulence": 8177,
      "ĠRF": 8178,
      "ĠSH": 8179,
      "Ġstroke": 8180,
      "Ġsubgroups": 8181,
      "Ġweb": 8182,
      "Ġresidue": 8183,
      "Ġcooper": 8184,
      "Using": 8185,
      "Ġwhenever": 8186,
      "Ġsolvent": 8187,
      "ĠHuman": 8188,
      "Ġspir": 8189,
      "2016": 8190,
      "ĠJohn": 8191
    },
    "merges": [
      "Ġ t",
      "Ġ a",
      "h e",
      "i n",
      "o n",
      "r e",
      "Ġt he",
      "t i",
      "Ġ s",
      "Ġ o",
      "e r",
      "e n",
      "Ġ c",
      "a l",
      "o r",
      "i s",
      "e d",
      "Ġ p",
      "Ġo f",
      "a t",
      "e s",
      "Ġ w",
      "Ġ in",
      "Ġ f",
      "ti on",
      "n d",
      "i t",
      "Ġ d",
      "Ġ b",
      "Ġ m",
      "a n",
      "a r",
      "r o",
      "in g",
      "Ġa nd",
      "i c",
      "a s",
      "Ġ e",
      "l e",
      "Ġt o",
      "Ġ re",
      "a tion",
      "Ġ (",
      "en t",
      "Ġt h",
      "Ġ n",
      "e l",
      "e c",
      "Ġ is",
      "u s",
      "e t",
      "o m",
      "Ġ T",
      "a c",
      "u l",
      "i m",
      "Ġ h",
      "Ġ l",
      "o l",
      "u r",
      "v e",
      "Ġ g",
      "Ġf or",
      "l y",
      "s t",
      "Ġc on",
      "i g",
      "Ġs t",
      "o w",
      "it h",
      "i d",
      "c e",
      "Ġth at",
      "o t",
      "i l",
      "Ġp ro",
      "Ġ 1",
      "Ġw ith",
      "r a",
      "u t",
      "Ġa s",
      "o s",
      "Ġw e",
      "Ġ on",
      "Ġ v",
      "Ġb e",
      "o d",
      "ĠT he",
      "u c",
      "Ġ 2",
      "q u",
      "Ġa n",
      "Ġa l",
      "u m",
      "i f",
      "Ġe x",
      "t er",
      "Ġ â",
      "re s",
      "u n",
      "Ġ A",
      "ti c",
      "a m",
      "Ġ I",
      "Ġ S",
      "e m",
      "it y",
      "v er",
      "Ġa re",
      "t s",
      "Ġb y",
      "r i",
      "a b",
      "Ġ C",
      "at e",
      "s i",
      "u re",
      "Ġc om",
      "i r",
      "g e",
      "Ġ F",
      "p er",
      "p l",
      "Ġre s",
      "he r",
      "at ed",
      "Ġ [",
      "o c",
      "Ġw h",
      "Ġd e",
      "ro m",
      "m ent",
      "a in",
      "u d",
      "o re",
      "Ġ us",
      ") .",
      "Ġ M",
      "Ġo r",
      "s e",
      "a ti",
      "ec t",
      "Ġ P",
      "Ġa c",
      "Ġ Î",
      "Ġ H",
      "an t",
      "Ġ r",
      "Ġa t",
      "Ġ =",
      "e re",
      "es s",
      "u nd",
      "a y",
      "Ġâ Ī",
      "o p",
      "Ġcom p",
      "Ġs p",
      "Ġf rom",
      "a d",
      "ic al",
      "Ġth is",
      "o g",
      "Ġs h",
      "i z",
      "p p",
      "Ġs u",
      "Ġw as",
      "or m",
      "ation s",
      "Ġc an",
      "Ġ it",
      "Ġd is",
      "Ġc h",
      "Ġ W",
      "Ġ B",
      "Ġ im",
      "d i",
      "f f",
      "ic h",
      "Ġ 0",
      "a g",
      "el l",
      "Ġ R",
      "Ġ L",
      "Ġc o",
      "ig h",
      "Ġs e",
      "in e",
      "i es",
      "Ġ k",
      "Ġ E",
      "Ġ le",
      "Ġh a",
      "v el",
      "Ġm od",
      "Ġ N",
      "t h",
      "Ġp ar",
      "Ġwh ich",
      "tion s",
      "er s",
      "ĠI n",
      "Ġ en",
      "si on",
      "as e",
      "Ġ D",
      "t ed",
      "Ġin t",
      "Ġcon t",
      "Ġ ,",
      "Ġn e",
      "Ġn ot",
      "i v",
      "Ġ 3",
      "d uc",
      "Ġs y",
      "Ġwe re",
      "Ġ G",
      "Ġw he",
      ") ,",
      "Ġ .",
      "c h",
      "u p",
      "r an",
      "Ġo b",
      "i on",
      "f orm",
      "en ce",
      "Ġin c",
      "Ġc l",
      "Ġha ve",
      "ent s",
      "l ow",
      "o us",
      "ab le",
      "if f",
      "al ly",
      "0 0",
      "ig n",
      "ar y",
      "ac t",
      "Ġp er",
      "Ġa d",
      "ere n",
      "re d",
      "t her",
      "ar i",
      "ti ve",
      "a nd",
      "Ġd iff",
      "al l",
      "as s",
      "Ġ qu",
      "il l",
      "a k",
      "un c",
      "ĠT h",
      "Ġg en",
      "ac h",
      "Ġst ud",
      "Ġ Ï",
      "a p",
      "Ġm et",
      "b le",
      "an ce",
      "p h",
      "le c",
      "et w",
      "u e",
      "v i",
      "Ġ he",
      "es t",
      "] .",
      "Ġmod el",
      "is t",
      "u g",
      "en d",
      "y s",
      "or s",
      "Ġsh ow",
      "Ġ i",
      "Ġs c",
      "or t",
      "en ti",
      "er m",
      "Ġ O",
      "a ge",
      "Ġres ul",
      "Ġa b",
      "p le",
      "Ġcon s",
      "ri b",
      "Ġm e",
      "Ġa pp",
      "Ġas s",
      "Ġin ter",
      "st em",
      "Ġ un",
      "Ġe v",
      "s o",
      "Ġdiff eren",
      "uc h",
      "on g",
      "Ġf i",
      "Ġe ff",
      "Ġ 4",
      "Ġh as",
      "i al",
      "u tion",
      "ac e",
      "d ing",
      "Ġex p",
      "Ġd i",
      "at es",
      "ĠW e",
      "ti m",
      "igh t",
      "Ġfor m",
      "if ic",
      "o st",
      "r ic",
      "e ar",
      "r uc",
      "Ġp re",
      "Ġsy stem",
      "ul ar",
      "Ġre l",
      "Ġre p",
      "Ġt w",
      "Ġ ra",
      "Ġp l",
      "Ġ y",
      "Ġim p",
      "Ġp res",
      "Ġs im",
      "Ġc or",
      "Ġt ran",
      "t ain",
      "Ġal l",
      "ĠTh is",
      "Ġp h",
      "Ġal so",
      "e p",
      "Ġsu b",
      "or y",
      "o ur",
      "Ġd at",
      "ĠâĪ Ĵ",
      "Ġg ro",
      "e en",
      "Ġon e",
      "Ġ )",
      "or k",
      "i p",
      "om e",
      "ul d",
      "Ġf unc",
      "as ed",
      "b er",
      "ati ve",
      "Ġwhe re",
      "id e",
      "etw een",
      "o und",
      "ol og",
      "Ġt im",
      "T he",
      "ec tion",
      "ug h",
      "Ġd et",
      "Ġe t",
      "Ġb etween",
      "as t",
      "Ġtw o",
      "os e",
      "y p",
      "re n",
      "Ġan al",
      "ti es",
      "er v",
      "Ġf ol",
      "d s",
      "Ġgen er",
      "Ġ 5",
      "Ġv al",
      "0 1",
      "en s",
      "il ity",
      "en c",
      "Ġe qu",
      "Ġre c",
      "Ġc ell",
      "Ġre g",
      "Ġ U",
      "Ġfol low",
      "Ġd es",
      "t e",
      "Ġ j",
      "c ess",
      "Ġ Â",
      "h od",
      "Ġs am",
      "an g",
      "Ġn um",
      "t r",
      "Ġthe se",
      "Ġa r",
      "re e",
      "d er",
      "Ġin d",
      "i ed",
      "t ing",
      "Ġtran s",
      "o in",
      "Ġs uch",
      "Ġs ign",
      "Ġ K",
      "ti v",
      "Ġm at",
      "ĠF ig",
      "el y",
      "u al",
      "Ġus ed",
      "it e",
      "Ġv ari",
      "ac k",
      "Ġdat a",
      "f in",
      "Ġus ing",
      "Ġp os",
      "Ġres p",
      "Ġ ro",
      "Ġmet hod",
      "Ġf in",
      "e w",
      "Ġthe re",
      "Ġo ut",
      "Ġac c",
      "re c",
      "Ġo ther",
      "ec h",
      "Ġm ore",
      "o ut",
      "Ġth an",
      "Ġtim e",
      "a us",
      "Ġw ill",
      "Ġs et",
      "Ġapp ro",
      "Ġ V",
      "ar d",
      "Ġthe ir",
      "i tion",
      "Ġ und",
      "Ġn on",
      "Ġbe en",
      "Ġdis t",
      "di tion",
      "a x",
      "tic al",
      "Ġstud y",
      "at ing",
      "Ġn o",
      "Ġ +",
      "ot h",
      "ra in",
      "Ġo ver",
      "Ġinc re",
      "Ġo ur",
      "Ġfunc tion",
      "u res",
      "l ud",
      "Ġm an",
      "Ġresul ts",
      "l es",
      "p os",
      "Ġin v",
      "i a",
      "Ġund er",
      "Ġd ec",
      "on d",
      "e ver",
      "ul ation",
      "at ure",
      "ir st",
      "Ġs ol",
      "Ġon ly",
      "Ġit s",
      "ruc t",
      "iz ation",
      "Ġe ach",
      "Ġpar tic",
      ". ,",
      "' s",
      "pl ic",
      "Ġb ut",
      "Ġs ur",
      "Ġc ol",
      "Ġcon st",
      "p t",
      "Ġme as",
      "Ġob s",
      "Ġ |",
      "Ġgro up",
      "Ġe m",
      "o uld",
      "c es",
      "e x",
      "er g",
      "Ġdifferen t",
      "r y",
      "as es",
      "Ġf act",
      "vel y",
      "Ġfi el",
      "Ġh igh",
      "Ġ 6",
      "Ġm ay",
      "ra m",
      "u b",
      "Ġ2 01",
      "on s",
      "l l",
      "am et",
      "Ġint o",
      "Ġ x",
      "iz ed",
      "Ġv er",
      "Ġâ Ģ",
      "i b",
      "ab ility",
      "Ġcons id",
      "Ġg iv",
      "Ġnum ber",
      "Ġpro v",
      "u es",
      "ys is",
      "ic i",
      "a re",
      "ĠâĪ Ī",
      "Ġpro cess",
      "Ġp a",
      "n e",
      "Ġs o",
      "Ġd o",
      "ec ts",
      "ĠF or",
      "t en",
      "Ġc ase",
      "Ġ X",
      "Ġ \"",
      "Ġdis c",
      "ment s",
      "Ġp oin",
      "i le",
      "Ġl ow",
      "Ġper form",
      "f ore",
      "Ġa m",
      "vel op",
      "a il",
      "us t",
      "y n",
      "Ġin f",
      "Ġsp ec",
      "ow ever",
      "Ġcomp le",
      "Ġl ar",
      "is m",
      "Ġs m",
      "Ġp ati",
      "Ġf irst",
      "Ġm o",
      "f ter",
      "Ġus e",
      "Ġthe n",
      "Ġpres ent",
      "Ġobs erv",
      "Ġp r",
      "Ġ if",
      "re at",
      "oc i",
      "I n",
      "ar k",
      "ro s",
      "Ġob tain",
      "ĠI t",
      "i k",
      "n ow",
      "res s",
      "Ġ z",
      "Ġt erm",
      "n ing",
      "Ġa g",
      "e g",
      "ect ed",
      "Ġwhe n",
      "Ġs ome",
      "Ġâ ī",
      "Ġo p",
      "at h",
      "Ġb oth",
      "] [",
      "Ġcom m",
      "Ġex per",
      "Ġcl ass",
      "form ation",
      "Ġcell s",
      "Ġde velop",
      "Ġ1 0",
      "Ġf l",
      "Ġb ec",
      "Ġ -",
      "Ġmeas ure",
      "Ġde fin",
      "Ġl oc",
      "Ġ id",
      "Ġinc lud",
      "an ge",
      "Ġch ar",
      "Ġpar amet",
      "Ġc ur",
      "o od",
      "ac tion",
      "Ġ1 9",
      "y m",
      "Ġb l",
      "Ġex am",
      "Ġst ruct",
      "Ġ up",
      "Ġm ass",
      "Ġ2 00",
      "i an",
      "Ġw ork",
      "Ġor der",
      "Ġ es",
      "duc ed",
      "Ġanal ysis",
      "ec tive",
      "i ti",
      "â Ģ",
      "Ġ J",
      "Ġdes c",
      "enti al",
      "Ġg ra",
      "] ,",
      "Ġan y",
      "ation al",
      "ur ing",
      "Ġw ell",
      "Ġst r",
      "ere d",
      "Ġsign ific",
      "Ġa p",
      "on e",
      "Ġle vel",
      "Ġo per",
      "iz e",
      "Ġs ec",
      "Ġde p",
      "Ġgiv en",
      "he m",
      "ul t",
      "Ġp ol",
      "v ed",
      "Ġcon c",
      "a tic",
      "â Ī",
      "res sion",
      "ac ter",
      "Ġfiel d",
      "ic e",
      "Ġm in",
      "is e",
      "ro ugh",
      "Ġt yp",
      "Ġrep res",
      "Ġc al",
      "en sion",
      "Ġsam e",
      "Ġl ine",
      "enc y",
      "al ity",
      "he d",
      "al s",
      "Ġre m",
      "Ġid enti",
      "Ġf e",
      "aus e",
      "he s",
      "ĠFig ure",
      "in ce",
      "Ġfollow ing",
      "Ġ Q",
      "Ġm ost",
      "or d",
      "o b",
      "Ġsignific ant",
      "c c",
      "Ġthe y",
      "res p",
      "ren t",
      "o un",
      "Ġm ul",
      "at or",
      "Ġ 7",
      "Ġshow n",
      "qu i",
      "i e",
      "Ġl im",
      "ati s",
      "ĠA s",
      "Ġsp ace",
      "v es",
      "he n",
      "tiv ity",
      "o ve",
      "Ġk now",
      "Ġsc al",
      "Ġcont ro",
      "Ġa fter",
      "ter n",
      "p ar",
      "ay s",
      "v en",
      "o f",
      "Ġt r",
      "Ġme an",
      "Ġpati ents",
      "ĠH owever",
      "Ġsm all",
      "1 0",
      "duc tion",
      "im ension",
      "olog ical",
      "re l",
      "g or",
      "ur ther",
      "t y",
      "o ugh",
      "Ġre f",
      "r al",
      "il ar",
      "m et",
      "a red",
      "it s",
      "Ġst ate",
      "Ġdi rec",
      "Ġdet erm",
      "Ġdist rib",
      "Ġst ar",
      "ble m",
      "Ġth rough",
      "i qu",
      "Ġf ound",
      "erg y",
      "ion s",
      "Ġcal c",
      "ur al",
      "si ble",
      "Ġ 8",
      "Ġmul ti",
      "Ġsu pp",
      "Ġsy m",
      "Ĩ Ĵ",
      "Ġh ig",
      "st r",
      "ech n",
      "an c",
      "Ġass oci",
      "Ġp ot",
      "olog y",
      "ĠÎ ±",
      "ak e",
      "Ġc ar",
      "1 9",
      "o ver",
      "Ġcor resp",
      "Ġrepres ent",
      "Ġe lec",
      "Ġpro blem",
      "is tic",
      "Ġre qui",
      "ti vely",
      "Ġind ic",
      "Ġp red",
      "Ġstud ies",
      "at er",
      "Ġ Z",
      "ant um",
      "Ġdesc rib",
      "f t",
      "v ing",
      "Ġexper im",
      "Ġcomp ut",
      "Ġb ased",
      "Ġm ain",
      "Ġval ue",
      "ol ution",
      "Ġconsid er",
      "em ent",
      "Ġex t",
      "Ġes tim",
      "Ġb ound",
      "ĠThe re",
      "Ġ u",
      "Ġgener al",
      "Ġpro per",
      "Ġth ree",
      "ent ly",
      "ic s",
      "p tion",
      "Ġimp ort",
      "Ġchar acter",
      "Ġint eg",
      "Ġne w",
      "ag es",
      "h a",
      "Ġ 9",
      "Ġidenti f",
      "i ver",
      "k s",
      "Ġpoin t",
      "Ġmodel s",
      "Ġs ing",
      "t al",
      "Ġa ut",
      "ith m",
      "Ġb i",
      "Ġt em",
      "Ġne ed",
      "Ġlar ge",
      "Ġin formation",
      "vi ous",
      "Ġres ear",
      "an ts",
      "Ġle ar",
      "Ġresul t",
      "Ġlim it",
      "ens ity",
      "Ġâ ĨĴ",
      "Ġ <",
      "ro p",
      "Ġin s",
      "Ġval ues",
      "Ġt echn",
      "Ġh y",
      "Ġen ergy",
      "Ġqu antum",
      "yn am",
      "ical ly",
      "orm al",
      "Ġco uld",
      "v al",
      "2 0",
      "Ġm ed",
      "y l",
      "ĠÂ µ",
      "j ect",
      "Ġd uring",
      "in c",
      "in ed",
      "in es",
      "ol d",
      "an n",
      "Ġe le",
      "Ġcon f",
      "Ġass um",
      "Ġb as",
      "i x",
      "Ġm on",
      "Ġpa per",
      "Ġin iti",
      "c l",
      "g et",
      "Ġ Ã",
      "ent al",
      "is h",
      "ec tively",
      "Ġad dition",
      "g es",
      "i ve",
      "Ġpro pos",
      "m a",
      "in al",
      "Ġ *",
      "Ġd ue",
      "or ph",
      "Ġg l",
      "in d",
      "ore m",
      "etw ork",
      "N A",
      "Ġle ad",
      "p ut",
      "en e",
      "Ġ Y",
      "Ġobtain ed",
      "i ties",
      "Ġpred ic",
      "Ġl ong",
      "Ġdep end",
      "Ġhig her",
      "Ġra di",
      "Ġcontro l",
      "in s",
      "Ġthe ory",
      "Ġf re",
      "an ti",
      "Ġstruct ure",
      "Ġex pl",
      "si ve",
      "ot e",
      "Ġw ould",
      "Ġ :",
      "ep end",
      "i tive",
      "f ul",
      "Ġsec ond",
      "ro und",
      "Ġh ad",
      "Ġsim ilar",
      "ul ated",
      "Ġsh ould",
      "us ion",
      "Ġpot ential",
      "Ġd en",
      "Ġab ove",
      "Ġobserv ed",
      "gor ithm",
      "r ation",
      "Ġo cc",
      "Ġpro b",
      "Ġph ase",
      "ff ici",
      "ear s",
      "1 1",
      "Ġappro ach",
      "ect or",
      "ech an",
      "Ġwith in",
      "Ġwh ile",
      "g er",
      "Ġcorresp on",
      "u tions",
      "Ġt ra",
      "Ġc ent",
      "o k",
      "s p",
      "ag n",
      "in ation",
      "Ġimp ro",
      "n ess",
      "Ġab out",
      "Ġd em",
      "al u",
      "Ġd er",
      "ĠâĢ ²",
      "o x",
      "Ġ ed",
      "ti g",
      "u ce",
      "ik e",
      "Ġp ath",
      "Ġn etwork",
      "ate g",
      "Ġp op",
      "Ġdefin ed",
      "Ġbec ause",
      "Ġcomple x",
      "1 2",
      "f ace",
      "Ġterm s",
      "id ual",
      "er r",
      "Ġr ate",
      "ĠA l",
      "di tions",
      "Ġt reat",
      "Ġsp ect",
      "g an",
      "Ġprov id",
      "Ġev alu",
      "g th",
      "p or",
      "om et",
      "ros s",
      "Ġimport ant",
      "Ġc y",
      "ĠS t",
      "Ġpro g",
      "Ġwh o",
      "r on",
      "Ġpro te",
      "le ar",
      "Ġbe ha",
      "Ġt est",
      "Ġse qu",
      "Ġ q",
      "a v",
      "ĠThe se",
      "Ġde f",
      "Ġm echan",
      "pl es",
      "Ġch ang",
      "l ed",
      "Ġre al",
      "Ġassoci ated",
      "Ġen d",
      "Ġcon ditions",
      "Ġloc al",
      "Ġal gorithm",
      "Ġc ap",
      "t he",
      "Ġ2 0",
      "Ġpartic ular",
      "Ġmethod s",
      "Ġresear ch",
      "ĠA n",
      "Ġsu g",
      "ow er",
      "Ġeff ect",
      "ut e",
      "âĪ Ĵ",
      "Ġin di",
      "Ġâ Ĭ",
      "Ġdisc us",
      "i ly",
      "Ġcont ain",
      "at ors",
      "ce pt",
      "ri x",
      "Ġsystem s",
      "W e",
      "Ġse e",
      "ĠT o",
      "c on",
      "Ġd om",
      "Ġst and",
      "Ġparamet ers",
      "r it",
      "d e",
      "Ġcom b",
      "Ġ ent",
      "Ġexp ression",
      "Ġdes ign",
      "Ġsing le",
      "ul ations",
      "l ine",
      "Ġ >",
      "Ġver y",
      "or ted",
      "x im",
      "Ġresp ectively",
      "ĠP ro",
      "Ġth ose",
      "o id",
      "o v",
      "ex t",
      "Ġp e",
      "Ġl o",
      "Ġc ases",
      "Ġdistrib ution",
      "ge b",
      "is s",
      "Ġpre vious",
      "Ġbeha vi",
      "an e",
      "Ġr is",
      "Ġsu per",
      "Ġthe m",
      "Ġm ax",
      "Ġlear ning",
      "ĠÂ ·",
      "Ġpos sible",
      "Ġpropos ed",
      "Ġexam ple",
      "Ġin st",
      "Ġpar t",
      "Ġde g",
      "Ġco un",
      "Ġpro duc",
      "oc k",
      "Ġanal y",
      "Ġtem per",
      "Ġb el",
      "Ġfre qu",
      "Ġm ic",
      "il d",
      "t ro",
      "Ġman y",
      "Ġequ ation",
      "s c",
      "Ġal low",
      "or ding",
      "iv al",
      "Ġse lec",
      "ĠÎ »",
      "c om",
      "if ied",
      "Ġd ynam",
      "el f",
      "Ġcont rib",
      "ti t",
      "Ġgro w",
      "Ġd ensity",
      "Ġop tim",
      "Ġfollow s",
      "Ġmat rix",
      "in k",
      "ra ph",
      "Ġindi v",
      "vi ew",
      "Ġcomp ared",
      "Ġs ize",
      "Ġeff ects",
      "1 3",
      "Ġcor rel",
      "Ġiniti al",
      "a ve",
      "um an",
      "ab les",
      "Ġto tal",
      "Ġp ower",
      "epend ent",
      "Ġm em",
      "iv ed",
      "Ġsym met",
      "Ġt ri",
      "Ġa ff",
      "ur b",
      "h ib",
      "i od",
      "F ig",
      "Ġline ar",
      "l u",
      "Ġs er",
      "Ġa v",
      "Ġg al",
      "al th",
      "d uce",
      "ak ing",
      "Ġtreat ment",
      "Ġf urther",
      "1 5",
      "Ġt um",
      "er tain",
      "Ġsol ution",
      "t o",
      "ĠL et",
      "is sion",
      "1 4",
      "Ġd imension",
      "ir on",
      "on al",
      "ar t",
      "Ġcomp on",
      "h ip",
      "Ġindiv idual",
      "Ġs ection",
      "at ures",
      "is ts",
      "ĠC h",
      "Ġcon dition",
      "at ely",
      "m ed",
      "se qu",
      "Ġshow s",
      "u ally",
      "Ġfunc tions",
      "i er",
      "Ġs um",
      "Ġincre ase",
      "us ter",
      "Ġperform ance",
      "Ġinv es",
      "Ġcur rent",
      "ific ation",
      "ĠÃ Ĺ",
      "Ġev en",
      "Ġan ti",
      "ere st",
      "ĠT able",
      "e ed",
      "it al",
      "Ġdevelop ment",
      "Ġcont in",
      "Ġdo es",
      "Ġocc ur",
      "Ġst ates",
      "Ġinves tig",
      "Ġph ys",
      "Ġcorrespon ding",
      "is ion",
      "os ed",
      "id ence",
      "Ġs ince",
      "Ġm a",
      "Ġint ro",
      "Ġreg ion",
      "Ġperform ed",
      "Ġdirec t",
      "Ġn ormal",
      "al e",
      "ra p",
      "Ġlow er",
      "Ġch ange",
      "Ġrel ations",
      "u pl",
      "ic ation",
      "Ġv i",
      "Ġconsid ered",
      "Ġris k",
      "et s",
      "er o",
      "ac y",
      "el s",
      "Ġpr im",
      "Ġgal ax",
      "ĠI f",
      "it ud",
      "Ġ err",
      "Ġor gan",
      "Ġinv ol",
      "Ġcomp ar",
      "oun t",
      "Ġqu anti",
      "Ġappro xim",
      "Ġac tivity",
      "er n",
      "Ġfact or",
      "Ġrem ain",
      "nd om",
      "Ġ '",
      "Ġw or",
      "ing s",
      "Ġtyp e",
      "Ġfl u",
      "a u",
      "ad e",
      "i um",
      "Ġh ow",
      "Ġresp on",
      "ĠThe n",
      "Ġper iod",
      "ul l",
      "Ġy ears",
      "Ġstand ard",
      "Ġap plic",
      "os is",
      "Ġdec re",
      "ti l",
      "ĠE q",
      "ir c",
      "o y",
      "ver age",
      "Ġchang es",
      "a w",
      "Ġh uman",
      "1 6",
      "Ġs en",
      "ĠÏ ĥ",
      "Ġp ost",
      "v iron",
      "se e",
      "ĠThere fore",
      "Ġtemper ature",
      "e f",
      "Ġâī ¤",
      "Ġra ndom",
      "Ġdescrib ed",
      "Ġmin im",
      "Ġt rain",
      "Ġ| |",
      "Ġto p",
      "Ġv ol",
      "Ġ /",
      "Ġwith out",
      "Ġsur face",
      "v ant",
      "atis f",
      "ĠTh us",
      "Ġr ange",
      "Ġs l",
      "Ġcon n",
      "enc es",
      "Ġstr ong",
      "Ġgroup s",
      "Ġs our",
      "Ġproper ties",
      "ag ne",
      "Ġsy n",
      "Ġe ar",
      "Ġcl uster",
      "Ġat t",
      "Ġ {",
      "ot her",
      "Ġacc ur",
      "Ġf r",
      "Ġal geb",
      "Ġparamet er",
      "Ġfact ors",
      "Ġre st",
      "Ġm ap",
      "Ġt re",
      "f er",
      "Ġmax im",
      "i el",
      "en gth",
      "Ġinclud ing",
      "Ġb ack",
      "Ġex ist",
      "Ġ1 2",
      "l d",
      "t on",
      "as ing",
      "Ġshow ed",
      "Ġ19 9",
      "od e",
      "Ġs atisf",
      "c ed",
      "Ġincre ased",
      "Ġrep orted",
      "Ġf our",
      "Ġass ess",
      "ĠC on",
      "ĠÎ ²",
      "Ġrel ated",
      "ver y",
      "n er",
      "Ġp ers",
      "Ġse ver",
      "g en",
      "b ased",
      "Ġbe ing",
      "ti ce",
      "Ġor ig",
      "Ġconst ant",
      "og n",
      "1 8",
      "th ough",
      "Ġne g",
      "Ġl ess",
      "Ġint erest",
      "Ġeff ective",
      "ur n",
      "ar get",
      "Ġspec ific",
      "Ġlevel s",
      "os s",
      "at ory",
      "Ġdiscus s",
      "Ġsam ple",
      "Ġst ep",
      "Ġpoin ts",
      "Ġab s",
      "Ġtechn iqu",
      "Ġcor rec",
      "1 7",
      "ac tions",
      "Ġfi x",
      "u le",
      "it ed",
      "ic k",
      "Ġp at",
      "b ers",
      "Ġunder st",
      "pl ied",
      "b it",
      "Ġpos itive",
      "Ġ &",
      "Ġco upl",
      "Ġe l",
      "Ġcomm un",
      "Ġex tr",
      "c op",
      "Ġpop ulation",
      "Ġfin d",
      "Ġen viron",
      "Ġdem on",
      "Ġch o",
      "Ġcons ist",
      "Ġex c",
      "Ġmechan ism",
      "o le",
      "Ġa ge",
      "e y",
      "Ġac h",
      "Ġs it",
      "Ġdemon str",
      "Ġan g",
      "Ġform ation",
      "Ġha nd",
      "Ġw ay",
      "Ġknow n",
      "Ġach ie",
      "ub l",
      "og raph",
      "Ġfin ite",
      "Ġl it",
      "Ġcon ver",
      "Ġcontin u",
      "Ġim age",
      "agne tic",
      "Ġhe alth",
      "Ġgen e",
      "ĠâĢ ¢",
      "Ġcont r",
      "Ġcan c",
      "Ġn ow",
      "O N",
      "I I",
[...]
