{
  "version": "1.0",
  "truncation": null,
  "padding": null,
  "added_tokens": [
    {
      "id": 0,
      "content": "[EOS]",
      "single_word": false,
      "lstrip": false,
      "rstrip": false,
      "normalized": false,
      "special": true
    }
  ],
  "normalizer": {
    "type": "Replace",
    "pattern": {
      "Regex": "[[:space:]]+"
    },
    "content": " "
  },
  "pre_tokenizer": {
    "type": "ByteLevel",
    "add_prefix_space": false,
    "trim_offsets": true,
    "use_regex": true
  },
  "post_processor": {
    "type": "ByteLevel",
    "add_prefix_space": true,
    "trim_offsets": false,
    "use_regex": true
  },
  "decoder": {
    "type": "ByteLevel",
    "add_prefix_space": true,
    "trim_offsets": true,
    "use_regex": true
  },
  "model": {
    "type": "BPE",
    "dropout": null,
    "unk_token": null,
    "continuing_subword_prefix": null,
    "end_of_word_suffix": null,
    "fuse_unk": false,
    "byte_fallback": false,
    "ignore_merges": false,
    "vocab": {
      "[EOS]": 0,
      "!": 1,
      "\"": 2,
      "#": 3,
      "$": 4,
      "%": 5,
      "&": 6,
      "'": 7,
      "(": 8,
      ")": 9,
      "*": 10,
      "+": 11,
      ",": 12,
      "-": 13,
      ".": 14,
      "/": 15,
      "0": 16,
      "1": 17,
      "2": 18,
      "3": 19,
      "4": 20,
      "5": 21,
      "6": 22,
      "7": 23,
      "8": 24,
      "9": 25,
      ":": 26,
      ";": 27,
      "<": 28,
      "=": 29,
      ">": 30,
      "?": 31,
      "@": 32,
      "A": 33,
      "B": 34,
      "C": 35,
      "D": 36,
      "E": 37,
      "F": 38,
      "G": 39,
      "H": 40,
      "I": 41,
      "J": 42,
      "K": 43,
      "L": 44,
      "M": 45,
      "N": 46,
      "O": 47,
      "P": 48,
      "Q": 49,
      "R": 50,
      "S": 51,
      "T": 52,
      "U": 53,
      "V": 54,
      "W": 55,
      "X": 56,
      "Y": 57,
      "Z": 58,
      "[": 59,
      "\\": 60,
      "]": 61,
      "^": 62,
      "_": 63,
      "`": 64,
      "a": 65,
      "b": 66,
      "c": 67,
      "d": 68,
      "e": 69,
      "f": 70,
      "g": 71,
      "h": 72,
      "i": 73,
      "j": 74,
      "k": 75,
      "l": 76,
      "m": 77,
      "n": 78,
      "o": 79,
      "p": 80,
      "q": 81,
      "r": 82,
      "s": 83,
      "t": 84,
      "u": 85,
      "v": 86,
      "w": 87,
      "x": 88,
      "y": 89,
      "z": 90,
      "{": 91,
      "|": 92,
      "}": 93,
      "~": 94,
      "¡": 95,
      "¢": 96,
      "£": 97,
      "¤": 98,
      "¥": 99,
      "¦": 100,
      "§": 101,
      "¨": 102,
      "©": 103,
      "ª": 104,
      "«": 105,
      "¬": 106,
      "®": 107,
      "¯": 108,
      "°": 109,
      "±": 110,
      "²": 111,
      "³": 112,
      "´": 113,
      "µ": 114,
      "¶": 115,
      "·": 116,
      "¸": 117,
      "¹": 118,
      "º": 119,
      "»": 120,
      "¼": 121,
      "½": 122,
      "¾": 123,
      "¿": 124,
      "À": 125,
      "Á": 126,
      "Â": 127,
      "Ã": 128,
      "Ä": 129,
      "Å": 130,
      "Æ": 131,
      "Ç": 132,
      "È": 133,
      "É": 134,
      "Ê": 135,
      "Ë": 136,
      "Ì": 137,
      "Í": 138,
      "Î": 139,
      "Ï": 140,
      "Ð": 141,
      "Ñ": 142,
      "Ò": 143,
      "Ó": 144,
      "Ô": 145,
      "Õ": 146,
      "Ö": 147,
      "×": 148,
      "Ø": 149,
      "Ù": 150,
      "Ú": 151,
      "Û": 152,
      "Ü": 153,
      "Ý": 154,
      "Þ": 155,
      "ß": 156,
      "à": 157,
      "á": 158,
      "â": 159,
      "ã": 160,
      "ä": 161,
      "å": 162,
      "æ": 163,
      "ç": 164,
      "è": 165,
      "é": 166,
      "ê": 167,
      "ë": 168,
      "ì": 169,
      "í": 170,
      "î": 171,
      "ï": 172,
      "ð": 173,
      "ñ": 174,
      "ò": 175,
      "ó": 176,
      "ô": 177,
      "õ": 178,
      "ö": 179,
      "÷": 180,
      "ø": 181,
      "ù": 182,
      "ú": 183,
      "û": 184,
      "ü": 185,
      "ý": 186,
      "þ": 187,
      "ÿ": 188,
      "Ā": 189,
      "ā": 190,
      "Ă": 191,
      "ă": 192,
      "Ą": 193,
      "ą": 194,
      "Ć": 195,
      "ć": 196,
      "Ĉ": 197,
      "ĉ": 198,
      "Ċ": 199,
      "ċ": 200,
      "Č": 201,
      "č": 202,
      "Ď": 203,
      "ď": 204,
      "Đ": 205,
      "đ": 206,
      "Ē": 207,
      "ē": 208,
      "Ĕ": 209,
      "ĕ": 210,
      "Ė": 211,
      "ė": 212,
      "Ę": 213,
      "ę": 214,
      "Ě": 215,
      "ě": 216,
      "Ĝ": 217,
      "ĝ": 218,
      "Ğ": 219,
      "ğ": 220,
      "Ġ": 221,
      "ġ": 222,
      "Ģ": 223,
      "ģ": 224,
      "Ĥ": 225,
      "ĥ": 226,
      "Ħ": 227,
      "ħ": 228,
      "Ĩ": 229,
      "ĩ": 230,
      "Ī": 231,
      "ī": 232,
      "Ĭ": 233,
      "ĭ": 234,
      "Į": 235,
      "į": 236,
      "İ": 237,
      "ı": 238,
      "Ĳ": 239,
      "ĳ": 240,
      "Ĵ": 241,
      "ĵ": 242,
      "Ķ": 243,
      "ķ": 244,
      "ĸ": 245,
      "Ĺ": 246,
      "ĺ": 247,
      "Ļ": 248,
      "ļ": 249,
      "Ľ": 250,
      "ľ": 251,
      "Ŀ": 252,
      "ŀ": 253,
      "Ł": 254,
      "ł": 255,
      "Ń": 256,
      "ĠÐ": 257,
      "Ð¾": 258,
      "Ðµ": 259,
      "Ð°": 260,
      "ÑĤ": 261,
      "Ð¸": 262,
      "Ð¾Ð": 263,
      "Ñģ": 264,
      "ÑĢ": 265,
      "Ð½": 266,
      "Ð»": 267,
      "Ð°Ð": 268,
      "Ñĥ": 269,
      "Ñĭ": 270,
      "ÐµÐ": 271,
      "Ñı": 272,
      "ĠÐ¿": 273,
      "ÑĮ": 274,
      "Ð¸Ð": 275,
      "ĠÑģ": 276,
      "Ñĩ": 277,
      "ĠÐ²": 278,
      "ĠÐ½": 279,
      "ÑģÑĤ": 280,
      "Ðº": 281,
      "ÐµÐ½": 282,
      "ĠÐ¸": 283,
      "Ð¾Ð²": 284,
      "Ð²": 285,
      "ĠÐº": 286,
      "ĠÐ¾": 287,
      "Ñħ": 288,
      "Ð´": 289,
      "ÐµÑĢ": 290,
      "Ð¼": 291,
      "ÑĤÐ¾": 292,
      "ÐµÑĤ": 293,
      "ĠÐ´": 294,
      "Ð°Ð½": 295,
      "ĠÐ¿ÑĢ": 296,
      "Ð¾Ð»": 297,
      "Ð¿": 298,
      "Ð°ÑĤ": 299,
      "Ñİ": 300,
      "Ð¾Ð¼": 301,
      "ĠÐ¼": 302,
      "Ð½Ð¾": 303,
      "ĠÑĢ": 304,
      "Ð¾Ð´": 305,
      "Ð½Ñĭ": 306,
      "ĠÑ": 307,
      "ĠÑĤ": 308,
      "Ð¸ÑĤ": 309,
      "ÐµÐ¼": 310,
      "Ð°Ð»": 311,
      "ÐµÐ»": 312,
      "Ð¾Ð³": 313,
      "ÑĪ": 314,
      "Ð°Ðº": 315,
      "Ð·": 316,
      "ĠÐ±": 317,
      "ÑĨ": 318,
      "ĠÐ½Ð°": 319,
      "Ð¸Ñı": 320,
      "Ð±": 321,
      "ĠÐ·": 322,
      "Ð¾Ð¹": 323,
      "ĠÑĩ": 324,
      "Ð¾ÑĤ": 325,
      "ÑģÑı": 326,
      "Ð¸Ð¼": 327,
      "ĠÑĥ": 328,
      "Ð¾ÑĢ": 329,
      "Ð°Ð·": 330,
      "Ñī": 331,
      "ÐµÐ´": 332,
      "Ð°Ð¼": 333,
      "Ð¾Ð½": 334,
      "Ð°ÑĤÑĮ": 335,
      "Ð¾Ð±": 336,
      "Ð»Ð¸": 337,
      "Ð¸Ðµ": 338,
      "Ð»Ñı": 339,
      "Ð°Ð²": 340,
      "ĠÑį": 341,
      "Ð³": 342,
      "Ð¾Ð¶": 343,
      "Ð¾Ð»ÑĮ": 344,
      "ÐµÑģ": 345,
      "Ð¶": 346,
      "ÐµÐº": 347,
      "ÑĤÐ¾ÑĢ": 348,
      "Ð¸Ð½": 349,
      "Ð¾Ñģ": 350,
      "Ð¸Ðº": 351,
      "ĠÐ½Ðµ": 352,
      "Ð¾Ð³Ð¾": 353,
      "ÐµÐ¹": 354,
      "er": 355,
      "ĠÐ°": 356,
      "Ð¾ÑģÑĤ": 357,
      "âĢ": 358,
      "ÑĢÑĥ": 359,
      "in": 360,
      "ÑģÑĤÐ²": 361,
      "Ð¸Ð¸": 362,
      "ÑĦ": 363,
      "Ð°Ð±": 364,
      "Ð¸Ñģ": 365,
      "Ð¹": 366,
      "ĠâĢ": 367,
      "Ð°ÑĢ": 368,
      "Ð¸Ð²": 369,
      "ĠÐ¾Ð±": 370,
      "Ð°Ñģ": 371,
      "Ð¾Ðº": 372,
      "on": 373,
      "ĠÐ¾ÑĤ": 374,
      "ĠÐ²Ñĭ": 375,
      "Ð¸Ð»": 376,
      "ĠÐµ": 377,
      "Ġ(": 378,
      "ĠÐ³": 379,
      "ÐµÐ½Ð¸Ñı": 380,
      "Ð½Ð°": 381,
      "ĠÑĩÑĤÐ¾": 382,
      "Ð¸Ð·": 383,
      "Ð¾Ð·": 384,
      "Ð¸ÑĤÑĮ": 385,
      "Ð¸ÑĢ": 386,
      "Ð¸Ð¹": 387,
      "ĠÐŁ": 388,
      "ĠÐĴ": 389,
      "Ð°ÐµÑĤ": 390,
      "ĠÐ»": 391,
      "ĠÑģÑĤ": 392,
      "Ð¸Ñĩ": 393,
      "Ð½ÑĭÑħ": 394,
      "ÐºÐ¸": 395,
      "re": 396,
      "ĠÐ¿Ð¾": 397,
      "Ð°Ð´": 398,
      "ÐµÐ³": 399,
      "de": 400,
      "at": 401,
      "Ð°Ð¿": 402,
      "ÐµÐ½ÑĤ": 403,
      "ĠâĢĶ": 404,
      "ÑĥÑİ": 405,
      "Ð°ÑĨ": 406,
      "ĠÐ´Ð»Ñı": 407,
      "ÐµÐ»ÑĮ": 408,
      "ĠÐ¸Ð·": 409,
      "ĠÑĢÐ°Ð·": 410,
      "st": 411,
      "##": 412,
      "ĠÑĦ": 413,
      "Ð¾ÑĤÐ¾ÑĢ": 414,
      "Ð½ÑĭÐµ": 415,
      "ÑĥÑĤ": 416,
      "ĠÐ¿ÑĢÐ¾": 417,
      "ĠÐ±Ñĭ": 418,
      "Ð°Ð¹": 419,
      "Ð½Ð¾ÑģÑĤ": 420,
      "co": 421,
      "ÑĥÑĩ": 422,
      "Ð¾Ð²Ð°Ð½": 423,
      "Ð°Ð»ÑĮ": 424,
      "Ð°Ð±Ð¾ÑĤ": 425,
      "Ð¾Ð¿": 426,
      "le": 427,
      "Ð°Ð¶": 428,
      "ÐµÐ½Ð¸Ðµ": 429,
      "ĠÐºÐ°Ðº": 430,
      "Ġ1": 431,
      "ÑģÐ¿": 432,
      "or": 433,
      "ĠÐĿ": 434,
      "ÐµÐ·": 435,
      "ÑĥÐ´": 436,
      "ĠÐºÐ¾ÑĤÐ¾ÑĢ": 437,
      "en": 438,
      "Ð¾Ð»ÑĮÐ·": 439,
      "ĠÐ²Ñģ": 440,
      "ÐºÐ°": 441,
      "ĠÐ¸Ð½": 442,
      "ĠÐ¿Ð¾Ð´": 443,
      "ĠÑĤÐ°Ðº": 444,
      "ÑİÑĤ": 445,
      "Ð¸Ñħ": 446,
      "Ð½Ð¾Ð¹": 447,
      "ĠÑįÑĤ": 448,
      "ĠÐ¿ÐµÑĢ": 449,
      "ĠÐ¡": 450,
      "Ñĳ": 451,
      "Ð½Ð¾Ð³Ð¾": 452,
      "Ð½ÑĭÐ¹": 453,
      "Ð¿ÑĢ": 454,
      "ÑıÑĤ": 455,
      "ÑħÐ¾Ð´": 456,
      "ĠÑįÑĤÐ¾": 457,
      "Â»": 458,
      "Â«": 459,
      "ĠÐ¼Ð¾Ð¶": 460,
      "ĠÂ«": 461,
      "ÐµÑģÑĤ": 462,
      "ĠÑģÐ»": 463,
      "an": 464,
      "00": 465,
      "ĠÑı": 466,
      "al": 467,
      "ĠÐºÐ¾Ð¼": 468,
      "Ð¸Ð´": 469,
      "ÑĢÐ°": 470,
      "it": 471,
      "ar": 472,
      "Ð¸ÑģÑĤ": 473,
      "ÐµÐºÑĤ": 474,
      "Ð°Ñı": 475,
      "ĠÐļ": 476,
      "Ġt": 477,
      "Ġ[": 478,
      "ĠÐ¿Ð¾Ð»": 479,
      "ÑĭÐ²": 480,
      "ĠS": 481,
      "ÐµÐµ": 482,
      "Ġ2": 483,
      "ÑĢÐ°Ð½": 484,
      "ÑģÐº": 485,
      "ÐµÐ²": 486,
      "ÑĭÐµ": 487,
      "ro": 488,
      "Ð½ÑĭÐ¼": 489,
      "ĠÑģÐ²": 490,
      "ÐºÐ¾": 491,
      "Ð´Ð°": 492,
      "Ġ=": 493,
      "ĠÐŀ": 494,
      "Ð°ÑģÑĤ": 495,
      "et": 496,
      "ĠÐºÐ¾Ð½": 497,
      "ĠÐ¸ÑģÐ¿": 498,
      "Ð¸Ñİ": 499,
      "ÑĭÐ¹": 500,
      "Ð°Ð¼Ð¸": 501,
      "ĠÐĶ": 502,
      "Ð°Ð³": 503,
      "ĠÑħ": 504,
      "ĠÐ¶": 505,
      "ĠÐĺ": 506,
      "code": 507,
      "ÐµÑĩ": 508,
      "ion": 509,
      "ÐµÑģÑĤÐ²": 510,
      "ÐµÐ±": 511,
      "ĠA": 512,
      "ĠÑĤÐ¾": 513,
      "ct": 514,
      "ÐµÑĪ": 515,
      "ĠÐ¢": 516,
      "ÐµÐ³Ð¾": 517,
      "ĠÑĢÐ°Ð±Ð¾ÑĤ": 518,
      "ĠÐ±ÑĥÐ´": 519,
      "--": 520,
      "Ð¾Ð²Ð°ÑĤÑĮ": 521,
      "ĠC": 522,
      "Ð»Ñİ": 523,
      "ĠÐ¸ÑģÐ¿Ð¾Ð»ÑĮÐ·": 524,
      "ic": 525,
      "Ð¸ÑĩÐµÑģ": 526,
      "ĠÐ¼Ñĭ": 527,
      "Ġs": 528,
      "ĠÐ¿ÑĢÐµÐ´": 529,
      "ÑģÑĤÑĢ": 530,
      "Ġp": 531,
      "ÑģÐ»Ð¸": 532,
      "es": 533,
      "ÐºÑĥ": 534,
      "ÑĭÑħ": 535,
      "Ð¾Ð»ÑĮÐºÐ¾": 536,
      "ÐµÑĤÑģÑı": 537,
      "ĠÑģÐ¾": 538,
      "ĠÐ¾Ð´": 539,
      "Ð°Ñĩ": 540,
      "ÐµÐ¿": 541,
      "ÑĤÐµÑĢ": 542,
      "Ð¶Ðµ": 543,
      "Ġc": 544,
      "Ð¾ÑĢÐ¼": 545,
      "Ð°ÑĨÐ¸Ð¸": 546,
      "ĠÐľ": 547,
      "Ð¾Ð¼Ñĥ": 548,
      "am": 549,
      "as": 550,
      "Ð¸Ð±": 551,
      "ÐµÑħ": 552,
      "Ġ##": 553,
      "Ð½Ð¾ÑģÑĤÑĮ": 554,
      "ĠÐ´Ð°Ð½": 555,
      "ĠÑĢÐ°Ñģ": 556,
      "Ð°ÑİÑĤ": 557,
      "Ð½Ð¸Ðº": 558,
      "ĠP": 559,
      "ĠÐ½Ð¾": 560,
      "Ð¸ÑĨ": 561,
      "ĠÐ¾Ð¿": 562,
      "Ġf": 563,
      "Ð½Ð¾Ðµ": 564,
      "ÑĥÐ¶": 565,
      "ĠÐŁÑĢ": 566,
      "ÐµÐ½ÑĮ": 567,
      "Ð¾Ñĩ": 568,
      "ÑĢÐµÐ¼": 569,
      "ĠÐ·Ð°": 570,
      "ÑĥÐ¼": 571,
      "ĠÐ¸Ð»Ð¸": 572,
      "ĠÑģÐ¿": 573,
      "ing": 574,
      "ÐµÐ¶": 575,
      "ÑĥÑĢ": 576,
      "Ð¸ÑĢÐ¾Ð²Ð°Ð½": 577,
      "ĠÐºÐ¾Ð¼Ð¿": 578,
      "Ð½Ð°Ñı": 579,
      "Ð¸ÑĤÐµÐ»ÑĮ": 580,
      "Ð»Ð¾": 581,
      "lo": 582,
      "Ð½Ð¾ÑģÑĤÐ¸": 583,
      "Ð°ÐµÑĤÑģÑı": 584,
      "ĠÐ¾Ð½": 585,
      "Ð¾Ðµ": 586,
      "ĠÐ·Ð°Ð¿": 587,
      "Ġi": 588,
      "ĠÐ¸Ð¼": 589,
      "ĠÐ¼Ð¾Ð¶Ð½Ð¾": 590,
      "ÐµÑĢÐ²": 591,
      "ÑĥÐ½": 592,
      "ĠÐ¿ÑĢÐ¸": 593,
      "ĠÐ¿Ð¾Ñģ": 594,
      "Ð»ÑİÑĩ": 595,
      ");": 596,
      "..": 597,
      "Ð¾Ð»ÑĮÑĪ": 598,
      "Ð°Ñħ": 599,
      "ĠM": 600,
      "Ð¾Ð±Ñĭ": 601,
      "ĠÑĨ": 602,
      "Ġ{": 603,
      "ÑĢÑĥÐ³": 604,
      "ĠI": 605,
      ").": 606,
      "Ð¸Ð¿": 607,
      "he": 608,
      "ac": 609,
      "ĠÐ²Ð¾Ð·": 610,
      "ĠÐł": 611,
      "Ð¸Ð¼ÐµÑĢ": 612,
      "Ð½Ð°Ñĩ": 613,
      "ÑĥÐ¿": 614,
      "ut": 615,
      "Ð°Ð»Ð¸": 616,
      "Ġ>": 617,
      "Ġ}": 618,
      "Ð¸Ð³": 619,
      "ÑĥÑī": 620,
      "ĠÑģÐº": 621,
      "Ð°ÐµÐ¼": 622,
      "Ð½Ð¾Ð²": 623,
      "un": 624,
      "Ð»ÐµÐ½": 625,
      "Ð¸Ð»Ð¸": 626,
      "ĠT": 627,
      "Ð°Ð½Ð¸Ñı": 628,
      "ÑİÑī": 629,
      "ĠÐĲ": 630,
      "Ð¾Ð»Ð½": 631,
      "ÑĥÐ»": 632,
      "Ð°Ð¹ÑĤ": 633,
      "Ð´ÐµÐ»": 634,
      "ĠÐ²ÑģÐµ": 635,
      "ÑģÑĤÑĮ": 636,
      "Ġ\"": 637,
      "Ġ3": 638,
      "ĠÐ¾Ñģ": 639,
      "ĠD": 640,
      "ent": 641,
      "ÑĢÐ°Ð±Ð¾ÑĤ": 642,
      "ĠÐķ": 643,
      "Ð¾ÑģÑĤÐ¾": 644,
      "ĠÑģÐ°Ð¼": 645,
      "Ġ/": 646,
      "Ð³Ð¾": 647,
      "ÑĢÐ°Ð·": 648,
      "Ġm": 649,
      "ÐºÑĤ": 650,
      "Ð°ÑĢÑĤ": 651,
      "ur": 652,
      "ed": 653,
      "Ġ`": 654,
      "ĠÐ±ÑĥÐ´ÐµÑĤ": 655,
      "ÑĢÐ¾Ñģ": 656,
      "Ð°ÑĤÐµÐ»": 657,
      "ĠâĢĵ": 658,
      "Ð¸ÑģÑĤÐµÐ¼": 659,
      "ÑĨÐ¸": 660,
      "ĠÐŃ": 661,
      "el": 662,
      "ĠÑĤÑĢ": 663,
      "ÑĤÑĮ": 664,
      "Ñį": 665,
      "ÑģÐ»": 666,
      "Ð¼Ð¾Ð¶": 667,
      "ĠÐ²ÑĢÐµÐ¼": 668,
      "ĠÑĪ": 669,
      "ĠÐ¿Ð¾Ð»ÑĥÑĩ": 670,
      "ĠÐ´ÑĢÑĥÐ³": 671,
      "ÐµÑĢÐ¶": 672,
      "ĠÐ¼Ð¾Ð¶ÐµÑĤ": 673,
      "ĠÐ¿Ð»": 674,
      "Ð¾Ð³Ð´Ð°": 675,
      "ad": 676,
      "ĠR": 677,
      "id": 678,
      "ÑĤÐ¾Ð±Ñĭ": 679,
      "Ġn": 680,
      "Ð½ÑĥÑİ": 681,
      "ĠG": 682,
      "ĠÐ¶Ðµ": 683,
      "is": 684,
      "ĠÐ´Ð¾ÑģÑĤ": 685,
      "ĠÐ±Ð¾Ð»ÑĮÑĪ": 686,
      "Ġ-": 687,
      "Ð°ÑĤÐµÐ»ÑĮ": 688,
      "Ð½Ð¾Ð¼": 689,
      "ÑĬ": 690,
      "ÐºÐµ": 691,
      "ĠÐ½Ð°Ð¿": 692,
      "Ð¼Ð¸": 693,
      "ÐµÑģÑģ": 694,
      "Ð°ÑĪ": 695,
      "ĠÐµÑģÑĤÑĮ": 696,
      "Ð¾Ð·Ð´": 697,
      "Ġ0": 698,
      "ĠÐ¿Ð¾Ð¼": 699,
      "ĠÐ¿Ð¾ÑĤ": 700,
      "Ð°Ð»Ð¸Ð·": 701,
      "ÑĦÐ¾ÑĢÐ¼": 702,
      "ĠÐµÐ³Ð¾": 703,
      "ĠÐ½Ð¾Ð²": 704,
      "ÑĢÐ°Ð¼": 705,
      "ÐµÐ½Ð½Ð¾": 706,
      "ĠÑģÐ¸ÑģÑĤÐµÐ¼": 707,
      "Ġb": 708,
      "ĠÐ²Ð¸Ð´": 709,
      "ĠÐ¸Ð½ÑĤÐµÑĢ": 710,
      "),": 711,
      "Ð»ÐµÐ¼": 712,
      "ĠÐ½ÑĥÐ¶": 713,
      "Ð¸ÑĩÐµÑģÐº": 714,
      "Ð°Ð²Ð»Ñı": 715,
      "ĠÐ·Ð°Ð´": 716,
      "Ð¸ÑĢÑĥ": 717,
      "Ð¾Ð´Ð°": 718,
      "ĠÐ¿Ð¾Ð»ÑĮÐ·": 719,
      "ĠÑģÐ²Ð¾": 720,
      "ĠÐ¿Ð¾Ðº": 721,
      "ag": 722,
      "ÑıÑĤÑĮ": 723,
      "us": 724,
      "ĠÑĢÐµÑĪ": 725,
      "ĠÑĤÐ¾Ð»ÑĮÐºÐ¾": 726,
      "Ð¸Ð»ÑĮ": 727,
      "Ġre": 728,
      "ÑĢÐ¾Ð²": 729,
      "ĠÐ´Ð²": 730,
      "ĠÐµÑģÐ»Ð¸": 731,
      "ex": 732,
      "ĠÐ´ÐµÐ»": 733,
      "oo": 734,
      "ÑīÐµ": 735,
      "ÐµÑĢÐ°": 736,
      "Ð¸ÐµÐ¼": 737,
      "ĠÐ¾Ñĩ": 738,
      "Ġ[/": 739,
      "ĠÐ»Ñİ": 740,
      "Ð²ÐµÑĤ": 741,
      "Ð»Ðµ": 742,
      "Ð´Ðµ": 743,
      "ÑĭÑĤ": 744,
      "ĠÐ´Ð¾Ð»": 745,
      "ĠÑĩÑĤÐ¾Ð±Ñĭ": 746,
      "ÑĢÐ°Ð¼Ð¼": 747,
      "ap": 748,
      "il": 749,
      "ÑıÐ·": 750,
      "ĠÐºÐ¾ÑĤÐ¾ÑĢÑĭÐµ": 751,
      "ĠF": 752,
      "Ġw": 753,
      "ĠÐ¿ÑĢÐ¾Ð´": 754,
      "ĠÑĩÐ°ÑģÑĤ": 755,
      "Ġin": 756,
      "Ð»Ð°": 757,
      "ĠÐ¸Ñħ": 758,
      "ig": 759,
      "Ð°Ð½Ð¸Ðµ": 760,
      "ate": 761,
      "ÑĥÑİÑī": 762,
      "ĠÐĹ": 763,
      "Ð°Ð¶Ð´": 764,
      "ĠÐĳ": 765,
      "ĠÐ²Ð½": 766,
      "ĠÑģÐ¾Ð·Ð´": 767,
      "mp": 768,
      "ĠÐ¿ÑĢÐ¾Ð³": 769,
      "Ð¾ÑģÑĮ": 770,
      "ÑĥÑģ": 771,
      "ĠN": 772,
      "ÑĪÐµ": 773,
      "ÐµÐ½Ð¸Ð¹": 774,
      "ÑĢÐµÐ´": 775,
      "Ð°ÑģÑģ": 776,
      "Ð¸ÑĤÑģÑı": 777,
      "Ġv": 778,
      "ĠÐ¼Ð½": 779,
      "Ġ<": 780,
      "ĠÑģÐµÑĢÐ²": 781,
      "ĠÑĢÐµ": 782,
      "ĠW": 783,
      "Ð°ÑĨÐ¸Ñı": 784,
      "ĠÐ²ÐµÑĢ": 785,
      "Ð°Ð½Ð´": 786,
      "Ġd": 787,
      "ĠÐ´Ð¾": 788,
      "ch": 789,
      "ĠL": 790,
      "ÑĥÐ»ÑĮ": 791,
      "Ð½ÑĭÐ¼Ð¸": 792,
      "ĠE": 793,
      "ab": 794,
      "ÑĥÐ½Ðº": 795,
      "Ð°ÐºÑĤ": 796,
      "Ð°Ð½Ð¾Ð²": 797,
      "ĠÐ¿Ð¾Ð»ÑĮÐ·Ð¾Ð²": 798,
      "Ð°Ð»Ð°": 799,
      "ĠÐ¾Ð±ÑĬ": 800,
      "Ġo": 801,
      "Ð¾Ð»ÐµÐµ": 802,
      "Ġ4": 803,
      "Ð¼ÐµÐ½": 804,
      "ĠÐ½Ð°Ñĩ": 805,
      "ĠB": 806,
      "ÑĩÐ¸Ðº": 807,
      "Ð¸Ð»Ð¾Ð¶": 808,
      "ÐµÑģÐº": 809,
      "Ð¸ÑĦ": 810,
      "ĠÐ½Ð°ÑĪ": 811,
      "ĠÑĥÐ¶Ðµ": 812,
      "ÑĢÐ°Ð²": 813,
      "ĠÐ¿ÑĢÐ¾ÐµÐºÑĤ": 814,
      "ri": 815,
      "ÐµÑĤÑĮ": 816,
      "ĠÑĢÐ°Ð·ÑĢÐ°Ð±Ð¾ÑĤ": 817,
      "Ð°ÑĤÑĮÑģÑı": 818,
      "ÑĨÐ¸Ð¸": 819,
      "Ð¾Ð²ÐµÑĢ": 820,
      "ÐµÐ´ÐµÐ»": 821,
      "ĠÐ²Ð¾Ð·Ð¼Ð¾Ð¶": 822,
      "ub": 823,
      "ĠÐ¿Ð¾Ð·": 824,
      "ul": 825,
      "ĠÐŃÑĤÐ¾": 826,
      "ĠÐ¼Ð¾Ð´": 827,
      "ĠÑģÐ»ÑĥÑĩ": 828,
      "ÐºÐ»ÑİÑĩ": 829,
      "----": 830,
      "ÑĢÐ°ÑĤ": 831,
      "ĠÑįÐº": 832,
      "Ð¸ÑĤÐµ": 833,
      "ĠÐ£": 834,
      "ue": 835,
      "ĠÑĦÑĥÐ½Ðº": 836,
      "ĠÐ¿ÑĢÐ¾Ð³ÑĢÐ°Ð¼Ð¼": 837,
      "ĠÐ§": 838,
      "ame": 839,
      "Ġ5": 840,
      "ĠÐ¼ÐµÐ½": 841,
      "ĠÐºÐ»": 842,
      "ÐºÑĢ": 843,
      "ÐµÑģÑĮ": 844,
      "Ð°ÑİÑī": 845,
      "ÐºÐ¾Ð²": 846,
      "Ð¸Ð¶": 847,
      "ĠÐķÑģÐ»Ð¸": 848,
      "ĠÑĤÐµÑħ": 849,
      "ĠÐ°Ð²": 850,
      "ĠÐ´Ð°Ð½Ð½ÑĭÑħ": 851,
      "ĠÑĥÐ´": 852,
      "Ð²Ð¾Ð´": 853,
      "ÑĭÐ¼": 854,
      "Ð¾ÑĤÑĢ": 855,
      "Ð¸ÑĢÐ¾Ð²Ð°ÑĤÑĮ": 856,
      "ot": 857,
      "ĠÐ°Ð½": 858,
      "ÑĮÑİ": 859,
      "ĠH": 860,
      "and": 861,
      "Ð²Ð¾Ð»": 862,
      "ĠÐ±ÐµÐ·": 863,
      "ĠÐ±ÑĭÐ»Ð¾": 864,
      "Ð¾Ñī": 865,
      "Ð»ÐµÐ½Ð¸Ñı": 866,
      "ĠÑģÐ¾Ð±": 867,
      "ĠÐ·Ð°Ðº": 868,
      "Ġ*": 869,
      "ĠÐ¿ÑĢÐ¸Ð»Ð¾Ð¶": 870,
      "ÑĥÐ±": 871,
      "Ġ$": 872,
      "ĠÐ¿ÑĢÐ¾ÑĨ": 873,
      "Ġ20": 874,
      "ÐºÐ°Ð·": 875,
      "ĠÐ¿Ð¾Ð½": 876,
      "ĠÐ²ÑĭÐ¿": 877,
      "ĠÐºÐ¾Ð»": 878,
      "ĠÐ·Ð½Ð°Ñĩ": 879,
      "ĠÐºÐ¾ÑĤÐ¾ÑĢÑĭÐ¹": 880,
      "Ð»Ð¸Ñĩ": 881,
      "se": 882,
      "ĠÐĿÐ¾": 883,
      "im": 884,
      "ÑĥÐ»ÑĮÑĤ": 885,
      "ĠÐ¼Ð¾Ð³": 886,
      "ÑĤÑĢ": 887,
      "ÐµÐ¼Ñĥ": 888,
      "ĠÐºÐ°Ð¶Ð´": 889,
      "ĠÐ¢Ð°Ðº": 890,
      "Ð¼Ð¾ÑĤÑĢ": 891,
      "ĠÐ¼ÐµÑĤ": 892,
      "ÑĥÐµÑĤ": 893,
      "Ð¸Ð¼Ð¸": 894,
      "ÐºÐ¸Ñħ": 895,
      "ĠÐ±Ð»": 896,
      "ĠU": 897,
      "ĠÐ´Ð¾Ð»Ð¶": 898,
      "ation": 899,
      "Ġ//": 900,
      "ĠO": 901,
      "Ġ'": 902,
      "ÑģÑĤÑĢÐ¾Ð¹": 903,
      "ĠÑĥÑĩ": 904,
      "Ð¸ÑĪ": 905,
      "ce": 906,
      "ĠÐ¿ÑĢÐ¾Ð±": 907,
      "ĠÐ¿ÐµÑĢÐ²": 908,
      "ter": 909,
      "Ð³ÑĢ": 910,
      "Ð¿ÑĢÐµÐ´ÐµÐ»": 911,
      "ĠÑĤÐ¾Ð³Ð¾": 912,
      "Ð½Ñı": 913,
      "ĠÑįÑĤÐ¾Ð¼": 914,
      "ay": 915,
      "ĠÐ±ÑĭÑĤÑĮ": 916,
      "ĠÐ¿ÑĢÐ°Ð²": 917,
      "em": 918,
      "ÑģÑĤÑĢÑĥ": 919,
      "ĠÑįÑĤÐ¾Ð³Ð¾": 920,
      "Ð¾ÑĪ": 921,
      "ĠÐ²ÑĢÐµÐ¼Ñı": 922,
      "ĠÑģÐ´ÐµÐ»": 923,
      "Ð¸Ð¾Ð½": 924,
      "ÑĢÐ¸Ð¼ÐµÑĢ": 925,
      "ow": 926,
      "ĠÐ¿Ð¾Ð»ÑĮÐ·Ð¾Ð²Ð°ÑĤÐµÐ»": 927,
      "Ġa": 928,
      "Ð°Ð½ÑĤ": 929,
      "ĠÐºÑĢ": 930,
      "th": 931,
      "ĠÐ±Ð¾Ð»ÐµÐµ": 932,
      "Ð°Ð½Ð¸Ð¸": 933,
      "Ð»Ð°Ð´": 934,
      "ect": 935,
      "ĠÐĶÐ»Ñı": 936,
      "ĠÑģÐ»ÐµÐ´": 937,
      "Ð¡": 938,
      "Ð²Ð»Ñı": 939,
      "ew": 940,
      "ĠÐ½ÑĥÐ¶Ð½Ð¾": 941,
      "Ð¾Ð±ÑĢ": 942,
      "ĠÐ¿Ð°ÑĢ": 943,
      "ÐµÐ»Ð¸": 944,
      "Â».": 945,
      "ĠÑĢÐµÐ·": 946,
      "pt": 947,
      "ÐµÑī": 948,
      "ÐµÐ¹ÑģÑĤÐ²": 949,
      "ĠÑĦÐ°Ð¹": 950,
      "()": 951,
      "Ð¿ÑĢÐ°Ð²": 952,
      "ĠV": 953,
      "ĠÐ¾ÑĩÐµÐ½ÑĮ": 954,
      "um": 955,
      "Ð¾Ð²Ð¾ÑĢ": 956,
      "ÑħÐ¾Ð´Ð¸Ð¼": 957,
      "Ð¾Ð²Ð°Ð½Ð¸Ñı": 958,
      "ĠÑĤÐ¾Ð¼": 959,
      "Ð¼ÐµÐ½ÑĤ": 960,
      "Ð»ÐµÐ´": 961,
      "ÑıÐ½": 962,
      "ÑģÑĤÐ°Ð²": 963,
      "ĠÐ¿Ð¾Ð¿": 964,
      "Ġst": 965,
      "ĠÐ¿Ð¾ÑģÑĤ": 966,
      "ht": 967,
      "ĠÐ¾Ð½Ð¸": 968,
      "ĠÐ¿ÑĢÐ¾ÑĨÐµÑģÑģ": 969,
      "Ð¸ÑģÑĮ": 970,
      "ĠÐ½Ð°Ð´": 971,
      "Ð´Ñĥ": 972,
      "ver": 973,
      "Ð¼ÐµÑĢ": 974,
      "ĠÐĵ": 975,
      "Ġ#": 976,
      "ÑĩÐ½Ð¾": 977,
      "ÑģÑĭ": 978,
      "Ġthe": 979,
      "Ð¸Ð·Ð½": 980,
      "ve": 981,
      "ÑĳÑĤ": 982,
      "ÐµÐ½Ð¸Ð¸": 983,
      "ĠÐ¸Ð½ÑĦÐ¾ÑĢÐ¼": 984,
      "Ġ####": 985,
      "ÑģÑĮ": 986,
      "ĠÐ¿ÑĢÐ¾Ð¸Ð·": 987,
      "Ð¾Ð»Ð¾Ð³": 988,
      "ĠÐ½Ð°Ð·": 989,
      "ĠÑĤÐµÐ¼": 990,
      "ĠÑĥÑģÑĤ": 991,
      "pe": 992,
      "ĠÐ·Ð°Ð´Ð°Ñĩ": 993,
      "ĠÐºÐ¾Ð³Ð´Ð°": 994,
      "ĠÐ¿ÑĢÐ¾Ð±Ð»ÐµÐ¼": 995,
      "li": 996,
      "ÑĥÑīÐµÑģÑĤÐ²": 997,
      "ĠÐºÐ¾Ð´": 998,
      "ĠÐ¿Ð¾ÑĢ": 999,
      "ĠÑĤÐ°ÐºÐ¶Ðµ": 1000,
      "ĠÐ¿ÑĢÐ¸Ð²": 1001,
      "ĠÐ¿ÑĢÐ¸Ð¼ÐµÑĢ": 1002,
      "ĠÐ½ÐµÑģÐº": 1003,
      "Ð¸ÑĤÑĮÑģÑı": 1004,
      "ĠÐ²Ð¾": 1005,
      "Ð¾ÑģÑĤÐ¸": 1006,
      "ĠÐĿÐ°": 1007,
      "ĠÐļÐ°Ðº": 1008,
      "ÑģÑĤÐ²Ð°": 1009,
      "Ð¸Ð½Ð³": 1010,
      "ĠÐ»ÑİÐ±": 1011,
      "ont": 1012,
      "Ġg": 1013,
      "Ð¸ÑĢÐ¾Ð²": 1014,
      "Ð¾Ð±ÑħÐ¾Ð´Ð¸Ð¼": 1015,
      "Ð°ÑİÑĤÑģÑı": 1016,
      "ĠÐ¿Ð¾Ð·Ð²Ð¾Ð»": 1017,
      "ĠÑģÑĤÑĢ": 1018,
      "ĠÐ¾ÑģÐ½Ð¾Ð²": 1019,
      "ĠÑĩÐµÐ¼": 1020,
      "ĠÐŁÐ¾": 1021,
      "ĠÐ¿ÑĢÐ¾ÑģÑĤÐ¾": 1022,
      "ĠÑĩÐµÑĢ": 1023,
      "om": 1024,
      "ÐµÑĢÑĮ": 1025,
      "ÑĥÐ»ÑĮÑĤÐ°ÑĤ": 1026,
      "ÑĢÐ°ÑĦ": 1027,
      "Ġ###": 1028,
      "ĠÐ¯": 1029,
      "ĠÐ´Ð¾ÑģÑĤÑĥÐ¿": 1030,
      "Ð°ÑĨÐ¸Ñİ": 1031,
      "ĠÑĥÐ²": 1032,
      "Ð°Ð¶Ðµ": 1033,
      "ÐµÑģÑĤÐ²Ð¾": 1034,
      "ĠÑĤÐµÑģÑĤ": 1035,
      "ÑģÑĤÐ²ÐµÐ½": 1036,
      "Ð´ÐµÑĢÐ¶": 1037,
      "ÑĩÐ¸ÑĤ": 1038,
      "ĠÐ½ÐµÐ¾Ð±ÑħÐ¾Ð´Ð¸Ð¼": 1039,
      "ĠJ": 1040,
      "ÑĥÐ»Ñı": 1041,
      "ĠÐ´Ð¾Ð±": 1042,
      "ĠÐ¿ÑĢÐ¸Ð½": 1043,
      "Â»,": 1044,
      "ÑıÐµÑĤ": 1045,
      "...": 1046,
      "ÑįÑĤ": 1047,
      "ĠÐ¾Ð¿ÑĢÐµÐ´ÐµÐ»": 1048,
      "Ð¸ÐºÐ°": 1049,
      "ĠÑģÐ¼": 1050,
      "ĠÐ¸ÑģÐ¿Ð¾Ð»ÑĮÐ·Ð¾Ð²Ð°ÑĤÑĮ": 1051,
      "ass": 1052,
      "ĠÑĢÐ°Ð±Ð¾ÑĤÑĭ": 1053,
      "Ð±Ð¾ÑĢ": 1054,
      "tr": 1055,
      "ĠÐ¿Ð¾Ð¼Ð¾Ñī": 1056,
      "ĠÐ·Ð°Ð²": 1057,
      "ĠÑģÐ¾Ð²": 1058,
      "ĠÐ¿ÑĢÐ¾ÑģÑĤ": 1059,
      "ĠÑħÐ¾ÑĤ": 1060,
      "ĠÑģÐ»ÑĥÑĩÐ°": 1061,
      "Ðŀ": 1062,
      "ol": 1063,
      "ĠÐ²Ð·": 1064,
      "ĠÐºÐ¾ÑĢ": 1065,
      "Ð½Ð°Ðº": 1066,
      "int": 1067,
      "up": 1068,
      "ĠÐ²ÑĭÐ¿Ð¾Ð»Ð½": 1069,
      "ÐµÑģÐ¿": 1070,
      "Ġ6": 1071,
      "ĠÐ¸Ð·Ð¼ÐµÐ½": 1072,
      "ÑģÑĤÐ²Ð¾": 1073,
      "ÑıÐ¼": 1074,
      "ĠÐ¿Ð¾Ð²": 1075,
      "age": 1076,
      "Ð»ÐµÐ½Ð¸Ðµ": 1077,
      "ĠÐ³Ð¾Ð´": 1078,
      "ÑĥÑģÑĤ": 1079,
      "ĠÐ½Ð°Ð¼": 1080,
      "Ð¸ÐºÐ¸": 1081,
      "ĠÑĤÐµÑħÐ½": 1082,
      "ile": 1083,
      "Ð°Ð»ÑĮÐ½Ð¾": 1084,
      "ĠÑģÑĤÐ°ÑĤÑĮ": 1085,
      "ÑĤÐ¸": 1086,
      "ĠÐ½Ð°Ñģ": 1087,
      "ÑĤÐ¾Ð¼": 1088,
      "ĠÑĦÐ¾ÑĢÐ¼": 1089,
      "nt": 1090,
      "ĠÑıÐ²Ð»Ñı": 1091,
      "ĠÐ¾Ð´Ð¸Ð½": 1092,
      "ÑįÑĤÐ¾Ð¼Ñĥ": 1093,
      "ext": 1094,
      "Ð¾Ð±Ñī": 1095,
      "ĠÐ¸Ð¼Ðµ": 1096,
      "Ð°Ð¼ÐµÑĤ": 1097,
      "ck": 1098,
      "ĠÑĢÐµÐ·ÑĥÐ»ÑĮÑĤÐ°ÑĤ": 1099,
      "ĠÐµÑīÐµ": 1100,
      "Ð¾ÑĤÐ¾Ð²": 1101,
      "ĠÐ²ÑĢÐµÐ¼ÐµÐ½": 1102,
      "ÐµÐ½Ñĭ": 1103,
      "ĠÑģÑĤÑĢÐ°Ð½": 1104,
      "ĠÐ¿ÐµÑĢÐµÐ´": 1105,
      "ĠÐ¾Ð±ÑĢÐ°Ð·": 1106,
      "ĠÑĦÐ°Ð¹Ð»": 1107,
      "ĠÑģÐµÐ±": 1108,
      "ÐµÐ½ÑĤÐ¾Ð²": 1109,
      "res": 1110,
      "ata": 1111,
      "ĠÐ½ÐµÐº": 1112,
      "ction": 1113,
      "ĠÐ³Ð»": 1114,
      "ĠÐ½ÐµÑĤ": 1115,
      "ĠÑģÐ²ÑıÐ·": 1116,
      "Ð¸ÑĢÐ¾Ð²Ð°Ð½Ð¸Ñı": 1117,
      "Ġ+": 1118,
      "ack": 1119,
      "ÑĥÑĤÑĮ": 1120,
      "ÑıÐ²": 1121,
      "ĠÐ¾ÑģÑĤ": 1122,
      "ÐŁ": 1123,
      "ort": 1124,
      "Ð¾ÑģÐ¾Ð±": 1125,
      "ĠÐ¾ÑĢ": 1126,
      "ÑģÑĤÑĢÐ¾": 1127,
      "ÑĨÐ¸Ñı": 1128,
      "ÑĢÐ¾Ð½": 1129,
      "com": 1130,
      "Ð½ÐµÐ¹": 1131,
      "ÐºÐ¾Ð¹": 1132,
      "ode": 1133,
      "Ð½ÐµÐµ": 1134,
      "Ð¾ÑģÑĤÑĮ": 1135,
      "ÑĢÑĥÐ¶": 1136,
      "ĠÑģÐ°Ð¹ÑĤ": 1137,
      "ind": 1138,
      "ÑıÐ´": 1139,
      "ÐµÑĨÐ¸": 1140,
      "ÑĢÑĥÐ·": 1141,
      "ĠÑĩÐµÑĢÐµÐ·": 1142,
      "ĠÑĤÐµÐº": 1143,
      "ĠÑģÑĢÐµÐ´": 1144,
      "ÑıÑī": 1145,
      "**": 1146,
      "ĠÐ²Ð°ÑĪ": 1147,
      "Ġ8": 1148,
      "=\"": 1149,
      "Ð·Ñĭ": 1150,
      "ĠÐ²Ð¸Ð´Ðµ": 1151,
      "ĠÑĤÐ¸Ð¿": 1152,
      "ĠÐ¸Ñģ": 1153,
      "Ġ10": 1154,
      "ĠÐ¾Ð±Ñī": 1155,
      "ÐµÐ½Ð¸Ñİ": 1156,
      "ÑĢÐ¾": 1157,
      "Ð°Ð»Ð¾": 1158,
      "Ð¾Ð¿ÑĢÐ¾Ñģ": 1159,
      "ÐĲ": 1160,
      "ĠÐ´Ð°Ð¶Ðµ": 1161,
      "ĠÐ±ÑĭÐ»": 1162,
      "ĠÐ±Ð¾Ð»ÑĮÑĪÐµ": 1163,
      "lic": 1164,
      "ĠÐ¿Ð»Ð°ÑĤ": 1165,
      "ĠÑģÐ»ÑĥÑĩÐ°Ðµ": 1166,
      "ĠÐ´Ð¾Ðº": 1167,
      "ÐµÐ½Ð°": 1168,
      "av": 1169,
      "Ðļ": 1170,
      "ĠÐ¿Ð¾Ð´Ð´ÐµÑĢÐ¶": 1171,
      "Ġde": 1172,
      "ĠÐ¿Ð¾ÐºÐ°Ð·": 1173,
      "Ð»ÐµÐºÑĤ": 1174,
      "ÐµÐ½Ð´": 1175,
      "Ð½Ðµ": 1176,
      "ĠÐ¾Ðº": 1177,
      "20": 1178,
      "ĠÐ¾Ð±ÑĬÐµÐºÑĤ": 1179,
      "Ð¼ÐµÑģÑĤ": 1180,
      "ĠÑģÐµÑĤ": 1181,
      "Ð¸ÑĤÐµÐ»ÑĮÐ½Ð¾": 1182,
      "od": 1183,
      "ÑİÑĤÑģÑı": 1184,
      "ĠÑģÐ»ÐµÐ´ÑĥÑİÑī": 1185,
      "ĠÐ¿Ð¾ÑģÐ»ÐµÐ´": 1186,
      "ĠÐ¸Ð½ÑĤÐµÑĢÐµÑģ": 1187,
      "ÑĥÑİÑĤ": 1188,
      "ÑĭÐ²Ð°ÑĤÑĮ": 1189,
      "ĠÑģÐ»Ð¾Ð¶": 1190,
      "ĠÐ½ÐµÑģÐºÐ¾Ð»ÑĮÐºÐ¾": 1191,
      "Ð°ÑģÑĮ": 1192,
      "ĠÐ¼Ð¾Ð³ÑĥÑĤ": 1193,
      "ĠÐºÐ»Ð¸": 1194,
      "ĠÐºÐ¾Ð»Ð¸Ñĩ": 1195,
      "ess": 1196,
      "Ð¾ÑĢÐ¾ÑĪ": 1197,
      "ĠÑĢÐµÐ°Ð»Ð¸Ð·": 1198,
      "ÑĨÐµÐ½": 1199,
      "ĠÑĤÐ¾Ñĩ": 1200,
      "Ð²ÐµÑĢ": 1201,
      "end": 1202,
      "ÐµÐ½ÑĤÐ°": 1203,
      "ÑĢÐ°Ñī": 1204,
      "ĠÐ¿ÑĢÐ¾Ð¸Ð·Ð²Ð¾Ð´": 1205,
      "\",": 1206,
      "ĠÐĽ": 1207,
      "ÐµÐ¿ÐµÑĢÑĮ": 1208,
      "Ġth": 1209,
      "ĠÐ±Ð°Ð·": 1210,
      "ĠÐ¿Ð¾Ñĩ": 1211,
      "ĠÑĥÑģÑĤÑĢÐ¾Ð¹": 1212,
      "ÐµÐ»Ð¾Ð²": 1213,
      "ÑĳÐ¼": 1214,
      "ir": 1215,
      "ÐµÐ½Ð¸ÐµÐ¼": 1216,
      "Ġto": 1217,
      "ĠÐ²ÐµÑĢÑģ": 1218,
      "ĠÑĤÑĢÐµÐ±": 1219,
      "ĠÐ²Ð¾Ð¿ÑĢÐ¾Ñģ": 1220,
      "ÑĢÑĥÐ¿": 1221,
      "ĠÑĥÐ¼": 1222,
      "ĠÐºÐ¾Ð¼Ð¿Ð°Ð½Ð¸Ð¸": 1223,
      "ĠÐ³Ð´Ðµ": 1224,
      "ĠÐºÐ°Ñĩ": 1225,
      "ĠÐ¼Ð½Ð¾Ð³Ð¾": 1226,
      "ÐºÐ¾Ð¼": 1227,
      "ĠÐ°Ð´": 1228,
      "ĠÐ¸Ð³ÑĢ": 1229,
      "ĠÐºÐ»Ð°ÑģÑģ": 1230,
      "ĠÐ¼ÐµÑģÑĤ": 1231,
      "ĠÑģÐµÑĢÐ²Ð¸Ñģ": 1232,
      "ĠÑģÑĤÐ¾": 1233,
      "Ð²ÐµÑģÑĤ": 1234,
      "ĠÐ¸ÑģÐ¿Ð¾Ð»ÑĮÐ·Ñĥ": 1235,
      "Ð¸ÑĤÐµÐ»": 1236,
      "==": 1237,
      "ÐµÑĤÐ°": 1238,
      "ĠÑģÐ¾Ð¾Ð±Ñī": 1239,
      "ĠÑįÑĤÐ¾Ð¹": 1240,
      "ĠÐºÐ¾Ð¼Ð°Ð½Ð´": 1241,
      "ĠÐ¥": 1242,
      "ĠÑģÐ¿ÐµÑĨÐ¸": 1243,
      "ĠÐ¿Ð¾ÑģÐ»Ðµ": 1244,
      "ĠÐ²ÑģÐµÐ³Ð¾": 1245,
      "Ġif": 1246,
      "ĠÐ²ÑģÑĳ": 1247,
      "ĠÑįÑĤÐ¾ÑĤ": 1248,
      "ĠÐ¤": 1249,
      "Ð¸ÑĩÐµÑģÐºÐ¸": 1250,
      "Ð°ÑĤÐ¾": 1251,
      "000": 1252,
      "ÑĢÑĥÐ´": 1253,
      "Ġ.": 1254,
      "ĠÐºÐ¾Ð½ÑĤ": 1255,
      "Ð°Ð»Ð¾ÑģÑĮ": 1256,
      "if": 1257,
      "eb": 1258,
      "Ð°Ñİ": 1259,
      "ĠÐ»ÑİÐ´": 1260,
      "10": 1261,
      "ĠÐ¿ÑĢÐ¾Ð²": 1262,
      "ĠÐ¼ÐµÑĤÐ¾Ð´": 1263,
      "ĠÐ²ÑģÐµÑħ": 1264,
      "ĠÑģÐ¿Ð¾ÑģÐ¾Ð±": 1265,
      "ÑĤÐµ": 1266,
      "ers": 1267,
      "ĠÐ´Ð°Ð½Ð½ÑĭÐµ": 1268,
      "Ð¾ÑģÑĤÐ¾ÑıÐ½": 1269,
      "iz": 1270,
      "ĠÐĴÑĭ": 1271,
      "ype": 1272,
      "est": 1273,
      "art": 1274,
      "Ġh": 1275,
      "ĠÐ¼Ð¸Ð½": 1276,
      "ĠÐ¾Ð±Ð»": 1277,
      "Ġ7": 1278,
      "ke": 1279,
      "ÐµÑĢÐµ": 1280,
      "Ð°ÑĢÐ¸": 1281,
      "all": 1282,
      "ÑĥÑģÐº": 1283,
      "Ð¸Ð²Ð°ÑĤÑĮ": 1284,
      "urn": 1285,
      "able": 1286,
      "ĠÐ·Ð°Ð³": 1287,
      "ÑĨÐ¸Ð¾Ð½": 1288,
      "ĠÐ´ÐµÐ¹ÑģÑĤÐ²": 1289,
      "ÑģÐµ": 1290,
      "ÐµÑĢÑĭ": 1291,
      "Ð¾Ð²Ð°Ð½Ð¸Ðµ": 1292,
      "ĠÐ¼ÐµÐ½Ñı": 1293,
      "ÐµÐ½Ð½ÑĭÑħ": 1294,
      "Ð°Ð½Ð¸Ð·": 1295,
      "ÐµÑĢÐ¾Ð²": 1296,
      "ÐµÑĤÐµ": 1297,
      "ÑĭÐ²Ð°ÐµÑĤ": 1298,
      "ÑĦÑĦ": 1299,
      "ÑĭÑĪ": 1300,
      "ÑĤÑĥ": 1301,
      "pp": 1302,
      "Ġof": 1303,
      "ĠÑĩÐµÐ»Ð¾Ð²": 1304,
      "\\.": 1305,
      "ĠÐ½ÐµÐ¿": 1306,
      "Ð¸Ð±Ð¾": 1307,
      "ĠÐ¼ÐµÐ¶": 1308,
      "ĠÐ°ÑĢ": 1309,
      "ĠÐ¿Ð¾Ð¼Ð¾ÑīÑĮÑİ": 1310,
      "Ð¸Ð»Ð°": 1311,
      "ĠÐ¿ÑĢÐ¾Ð²ÐµÑĢ": 1312,
      "Ð¾ÑĤÐ²ÐµÑĤ": 1313,
      "ĠÑĥÑģÐ»": 1314,
      "ist": 1315,
      "ĠÑħÐ¾ÑĢÐ¾ÑĪ": 1316,
      "ain": 1317,
      "Ð»Ð¾Ð¶": 1318,
      "ĠÐ³Ð¾Ð²Ð¾ÑĢ": 1319,
      "ĠÐ»ÑĥÑĩ": 1320,
      "ĠÐ¼Ð¾Ð¼": 1321,
      "ĠÐºÐ°ÑĢÑĤ": 1322,
      "ĠÐŁÐ¾Ñģ": 1323,
      "ĠÐ½Ð°Ð±": 1324,
      "ĠÐ½ÐµÐºÐ¾ÑĤÐ¾ÑĢ": 1325,
      "ĠÑĥÑģÑĤÐ°Ð½Ð¾Ð²": 1326,
      "ĠÑĩÐ¸Ñģ": 1327,
      "Ð¾Ð±ÑĢÐ°Ð¶": 1328,
      "ĠÑģÐ´ÐµÐ»Ð°ÑĤÑĮ": 1329,
      "ÑĪÐ¸Ð±": 1330,
      "ine": 1331,
      "ÑĢÐ¾Ð±": 1332,
      "ĠÐ»Ð¸": 1333,
      "ĠÐ°Ð²ÑĤÐ¾Ð¼": 1334,
      "ĠÐ½Ð¸Ñħ": 1335,
      "ĠÐ¸Ð½ÑģÑĤÑĢÑĥ": 1336,
      "Ð´ÐµÑģÑĮ": 1337,
      "ĠÑĥÑĢÐ¾Ð²": 1338,
      "ÑħÐ¾Ð´Ð¸ÑĤ": 1339,
      "ĠÐľÑĭ": 1340,
      "ity": 1341,
      "ÐĴ": 1342,
      "Ð¾ÑĤÐ²ÐµÑĤÑģÑĤÐ²": 1343,
      "ĠÑĢÐ°Ð·ÑĢÐ°Ð±Ð¾ÑĤÑĩÐ¸Ðº": 1344,
      "ĠÐŀÐ±": 1345,
      "ĠÑıÐ²Ð»ÑıÐµÑĤÑģÑı": 1346,
      "//": 1347,
      "ĠÐ³Ð¾Ð´Ð°": 1348,
      "ĠÐ¿ÑĢÐ¾Ð´Ñĥ": 1349,
      "ĠÐ¿Ð»Ð°Ð½": 1350,
      "Ð½Ð¾ÑģÑĤÑĮÑİ": 1351,
      "Ġ201": 1352,
      "ĠÐ²ÑĢÐµÐ¼ÐµÐ½Ð¸": 1353,
      "ru": 1354,
      "ĠÑĨÐµÐ»": 1355,
      "Ð¸Ð¼ÐµÐ½": 1356,
      "ĠÐ±ÑĥÐ´ÑĥÑĤ": 1357,
      "so": 1358,
      "Ð°ÑĤÐ¸Ð²": 1359,
      "ĠÐ²ÑĭÐ·": 1360,
      "Ð´Ð¸Ð½": 1361,
      "ĠÐ´Ð¾Ð¿": 1362,
      "Ġ:": 1363,
      "ĠÑģÐ»Ð¾Ð²": 1364,
      "ĠÐ²Ð°Ð¼": 1365,
      "Ðĺ": 1366,
      "ĠÑĤÐµÑħÐ½Ð¾Ð»Ð¾Ð³": 1367,
      "Ġl": 1368,
      "Ð°Ð¹ÑĤÐµ": 1369,
      "Ð»Ð°ÑĤ": 1370,
      "ĠÐ¾ÑĤÐºÑĢ": 1371,
      "ÑĤÐ°": 1372,
      "Ð°ÑĨÐ¸Ð¾Ð½": 1373,
      "os": 1374,
      "ĠÐ¸ÑģÑĤ": 1375,
      "ĠÑģÑĤÐ¾ÑĢ": 1376,
      "ÐµÐ½Ð½ÑĭÐµ": 1377,
      "ĠÐ¼Ð°ÑĤ": 1378,
      "ÐµÑĢÐµÐ´": 1379,
      "Ð°Ð»ÑģÑı": 1380,
      "ÑĤÐ¾ÑĢÐ°": 1381,
      "ĠÐºÐ¾ÑĤÐ¾ÑĢÐ°Ñı": 1382,
      "ĠÐ¾ÑĪÐ¸Ð±": 1383,
      "Ð°Ð»ÑĮÐ½ÑĭÑħ": 1384,
      "ĠÐºÐ°ÑĩÐµÑģÑĤÐ²": 1385,
      "ÑĩÐ°Ñģ": 1386,
      "ĠÐ½Ð¸Ðº": 1387,
      "Ð°Ð¿ÑĢÐ¸Ð¼ÐµÑĢ": 1388,
      "ĠÐ²Ð°Ð¶": 1389,
      "ÑģÐ°": 1390,
      "Ġfor": 1391,
      "ÑģÑĭÐ»": 1392,
      "ĠÐ·Ð°Ð¿ÑĢÐ¾Ñģ": 1393,
      "ÐµÑģÑı": 1394,
      "Ð³Ð»Ñı": 1395,
      "turn": 1396,
      "--------": 1397,
      "Ð½Ð¸Ð¼": 1398,
      "ÐĶ": 1399,
      "get": 1400,
      "ĠÑĢÐµÐº": 1401,
      "ĠÐºÐ½": 1402,
      "Ð½Ð¸ÐºÐ¾Ð²": 1403,
      "ĠÐ·Ð°Ð½": 1404,
      "ÐºÐ°Ñħ": 1405,
      "ĠÑĢÐµÐ³": 1406,
      "ĠÑģÑĤÐ¾ÑĢÐ¾Ð½": 1407,
      "ÑĤÐ°Ðº": 1408,
      "ĠÐ¾Ð¿Ð¸Ñģ": 1409,
      "ĠÑģÑĥÑīÐµÑģÑĤÐ²": 1410,
      "ĠÑĢÐ°Ð·Ð²": 1411,
      "ĠÑıÐ·Ñĭ": 1412,
      "Ġand": 1413,
      "ĠÑģÐ¸ÑģÑĤÐµÐ¼Ñĭ": 1414,
      "ĠÐ²ÑĭÐ±": 1415,
      "ÐµÐ½ÑĤÑĭ": 1416,
      "lass": 1417,
      "Ġcon": 1418,
      "ÑĳÐ½": 1419,
      "Ð¢": 1420,
      "ĠÐ´Ð¾Ð±Ð°Ð²": 1421,
      "ÑĦÐ¾Ð½": 1422,
      "ĠÑĥÐºÐ°Ð·": 1423,
      "ĠÐ¿ÑĢÐ¾Ð´ÑĥÐºÑĤ": 1424,
      "Ġe": 1425,
      "ÑģÐ»ÐµÐ´": 1426,
      "Ġr": 1427,
      "op": 1428,
      "ĠÐ±ÑĭÐ»Ð¸": 1429,
      "Ð°Ð»Ð¸ÑģÑĮ": 1430,
      "ĠÐŁÑĢÐ¸": 1431,
      "Ð½Ð¾Ð¼Ñĥ": 1432,
      "ĠÑģÐ²Ð¾Ð¹": 1433,
      "ĠK": 1434,
      "ĠÐ¸ÑģÐº": 1435,
      "ÐµÐ¹ÑĩÐ°Ñģ": 1436,
      "Ġ9": 1437,
      "ult": 1438,
      "ĠÐ½Ð°Ð¿Ð¸Ñģ": 1439,
      "ĠÑįÐ»ÐµÐ¼": 1440,
      "ÑģÐºÐ°Ð·": 1441,
      "ĠÐ¸Ð´": 1442,
      "con": 1443,
      "ĠÑģÐºÐ¾ÑĢ": 1444,
      "ĠÐ°Ð»": 1445,
      "Ð¸Ð½Ð°": 1446,
      "St": 1447,
      "ÑĥÑĤÑĢ": 1448,
      "Ġ|": 1449,
      "Ðľ": 1450,
      "ĠÑĤÐµÐ»": 1451,
      "ĠÐ¾ÑĤÐ²ÐµÑĤ": 1452,
      "Ð¸ÐµÐ¹": 1453,
      "ĠÐ¾ÑĤÐ´": 1454,
      "ĠÑĩÐµÐ»Ð¾Ð²ÐµÐº": 1455,
      "ĠÐ¼ÐµÐ¶Ð´Ñĥ": 1456,
      "ÑĢÐ¾Ð¼": 1457,
      "gle": 1458,
      "ĠÑģÐ¾Ð¾ÑĤÐ²ÐµÑĤÑģÑĤÐ²": 1459,
      "ĠÐ¿ÑĢÐ¾ÑĤ": 1460,
      "ĠÐ½Ð°Ð¿ÑĢÐ¸Ð¼ÐµÑĢ": 1461,
      "Ð°Ð»ÑĮÐ½Ð¾Ð¹": 1462,
      "ÑīÑĳ": 1463,
      "ĠÐŀÐ½": 1464,
      "tp": 1465,
      "ĠÐ½ÐµÐ´": 1466,
      "ĠÐ°ÐºÑĤ": 1467,
      "ĠÐ¾Ð½Ð°": 1468,
      "Ġco": 1469,
      "Ġreturn": 1470,
      "ĠÐ¿ÑĢÐµÐ´ÑģÑĤÐ°Ð²": 1471,
      "Ð°Ð»ÑĮÐ½ÑĭÐ¹": 1472,
      "Ð°Ð»ÑĮÐ½ÑĭÐµ": 1473,
      "ÑĭÐ¼Ð¸": 1474,
      "Ð°ÑĤÐ¾ÑĩÐ½Ð¾": 1475,
      "ÑģÐ¾Ð²": 1476,
      "ĠÐ²ÐºÐ»ÑİÑĩ": 1477,
      "Ð°Ð¹Ð½": 1478,
      "per": 1479,
      "ÑĥÑħ": 1480,
      "ĠÐ·Ð°Ð¼": 1481,
      "ĠÐ³Ð¾ÑĢ": 1482,
      "ĠÐ¼Ð½Ð¾Ð³": 1483,
      "ject": 1484,
      "ĠÐ¿ÑĢÐ¸Ð»Ð¾Ð¶ÐµÐ½Ð¸Ñı": 1485,
      "Ð¾ÑģÑģ": 1486,
      "ĠÐ¼Ð½Ðµ": 1487,
      "ost": 1488,
      "ĠÑĢÐ°Ð±Ð¾ÑĤÐ°ÐµÑĤ": 1489,
      "ĠÐ¾Ð¿ÐµÑĢ": 1490,
      "ff": 1491,
      "ÑĦÐµÐ¹": 1492,
      "ĠÐºÐ¾Ð½ÑĦ": 1493,
      "ĠÑħÑĢÐ°Ð½": 1494,
      "',": 1495,
      "Ð¿Ð¾Ð»": 1496,
      "ĠÐ²ÑĭÑģ": 1497,
      "ÐµÑĤÑĭ": 1498,
      "ĠÐ½ÐµÐ¼": 1499,
      "ft": 1500,
      "Ð¾Ð´ÐµÑĢÐ¶": 1501,
      "ĠÐ·Ð°ÑĢ": 1502,
      "ĠÑģÐ¿Ð¸Ñģ": 1503,
      "ĠÐĺÐ½": 1504,
      "ÐĿ": 1505,
      "rom": 1506,
      "Ð¸Ð²Ð°ÐµÑĤ": 1507,
      "Ð¾Ð¶Ðµ": 1508,
      "Ð°Ð»Ð¾Ð³": 1509,
      "ment": 1510,
      "ĠÐ±ÑĭÐ»Ð°": 1511,
      "ĠÐ²Ð¾ÑĤ": 1512,
      "ĠÐ»ÐµÑĤ": 1513,
      "Ð¼Ð°": 1514,
      "ser": 1515,
      "nd": 1516,
      "Ð¸ÑĤÐ¾ÑĢ": 1517,
      "ĠÐ±Ð»Ð¾Ðº": 1518,
      "ĠÐ²Ð°Ñģ": 1519,
      "Ð¸ÑĢÐ¾Ð²Ð°Ð½Ð¸Ðµ": 1520,
      "ÑĮÑİÑĤ": 1521,
      "ĠÐŀÐ´": 1522,
      "ĠÑĤÐµÐºÑģÑĤ": 1523,
      "cri": 1524,
      "Ð¾ÑĢÑĤ": 1525,
      "Ð»Ð¸Ðº": 1526,
      "Ð¾ÑĢÐ¸ÑĤ": 1527,
      "ĠÐ¾Ð±ÑĢÐ°Ð·Ð¾Ð¼": 1528,
      "Ð»Ð°Ð³": 1529,
      "ÑĦÑĦÐµÐºÑĤ": 1530,
      "ĠSt": 1531,
      "ÑĥÐ³": 1532,
      "ĠÐ¿ÑĢÐ¸Ð¼ÐµÐ½": 1533,
      "ĠÑįÑĤÐ¸": 1534,
      "ĠÐºÑĤÐ¾": 1535,
      "ĠÐºÐ¾Ð½ÑĤÑĢ": 1536,
      "ĠÐ¾ÑĢÐ³": 1537,
      "Ð°ÑĢÐ¸Ð°Ð½ÑĤ": 1538,
      "Ð½Ð°ÐºÐ¾": 1539,
      "ĠÑįÐºÑģÐ¿": 1540,
      "Ð¼Ñĥ": 1541,
      "PI": 1542,
      "(\"": 1543,
      "indow": 1544,
      "ĠÑģÐ¾Ð´ÐµÑĢÐ¶": 1545,
      "::": 1546,
      "ĠÐ¾Ð±Ñĭ": 1547,
      "ĠÐ¾ÑĤÐ»Ð¸Ñĩ": 1548,
      "Ð»ÐµÐº": 1549,
      "act": 1550,
      "ure": 1551,
      "ĠÐºÐ¾Ð½ÑĨ": 1552,
      "ĠÑģÑĤÑĢÐ¾Ðº": 1553,
      "ĠÑģÐ¾ÑĤ": 1554,
      "In": 1555,
      "ĠÐ¼Ð¾Ð¼ÐµÐ½ÑĤ": 1556,
      "ĠÐ²Ð¾Ñģ": 1557,
      "ÑĥÐº": 1558,
      "ĠX": 1559,
      "ĠÑĥÐ¿ÑĢÐ°Ð²": 1560,
      "ĠÑĢÐ°ÑģÑģ": 1561,
      "ÑĢÑĭ": 1562,
      "ĠÑģÐµÐ±Ñı": 1563,
      "ĠÐ¿Ð¾ÑįÑĤÐ¾Ð¼Ñĥ": 1564,
      "Ð³Ð»ÑıÐ´": 1565,
      "ith": 1566,
      "ud": 1567,
      "ĠÐĿÐµ": 1568,
      "âĢĿ": 1569,
      "ĠÐ¿ÑĢÐ°ÐºÑĤ": 1570,
      "Ġis": 1571,
      "ĠÐ°Ð²ÑĤÐ¾Ð¼Ð°ÑĤ": 1572,
      "ÑĢÐ°Ð½Ð¸Ñĩ": 1573,
      "ÐµÑĢÐ¸": 1574,
      "ĠÐ²Ð½ÑĥÑĤÑĢ": 1575,
      "oogle": 1576,
      "ĠÐ¸Ð½ÑģÑĤÑĢÑĥÐ¼ÐµÐ½ÑĤ": 1577,
      "ang": 1578,
      "ĠÐ¿Ð¾Ð·Ð²Ð¾Ð»ÑıÐµÑĤ": 1579,
      "ĠÐŀÑĤ": 1580,
      "orm": 1581,
      "log": 1582,
      "ĠÐ»Ð¾Ð³": 1583,
      "__": 1584,
      "ice": 1585,
      "ĠÑĤÑĭ": 1586,
      "ĠÐ¿Ð°ÑĢÐ°Ð¼ÐµÑĤ": 1587,
      "ĠÐ´Ð¸Ñģ": 1588,
      "ĠÐŁÐ¾Ð´": 1589,
      "ÐµÑĢÑĤ": 1590,
      "ime": 1591,
      "ĠÐµÑīÑĳ": 1592,
      "one": 1593,
      "are": 1594,
      "qu": 1595,
      "ĠÐ¿Ð¾Ð¸Ñģ": 1596,
      "ĠÐ²Ð¿": 1597,
      "ÑĢÐµÑģ": 1598,
      "ĠÐ¿Ð¾Ð´ÑħÐ¾Ð´": 1599,
      "ÑĥÑĪ": 1600,
      "ĠÐ²Ð¾Ð·Ð¼Ð¾Ð¶Ð½Ð¾ÑģÑĤÑĮ": 1601,
      "Ð¸Ð·Ð½ÐµÑģ": 1602,
      "ĠÑĥÐ·": 1603,
      "ĠÐ¾ÑģÐ¾Ð±": 1604,
      "ĠÑģÑĤÑĢÐ°Ð½Ð¸ÑĨ": 1605,
      "ÐµÐ½ÐµÑĢ": 1606,
      "ore": 1607,
      "Ð°Ð²Ð»ÑıÐµÑĤ": 1608,
      "ÐµÐ½Ð½ÑĭÐ¹": 1609,
      "ĠÐºÐ¾ÑĤÐ¾ÑĢÑĭÑħ": 1610,
      "ĠÑĤÐ°ÐºÐ¾Ð¹": 1611,
      "ase": 1612,
      "ĠÐ´Ð¾ÐºÑĥÐ¼": 1613,
      "Ð°Ð½Ð¸Ñİ": 1614,
      "cript": 1615,
      "ĠÐ·Ð°Ð²Ð¸Ñģ": 1616,
      "ĠÑĢÐ°Ð·Ð»Ð¸Ñĩ": 1617,
      "pl": 1618,
      "Ð°Ð½Ð¸Ð¹": 1619,
      "ÑĢÐµÐ±": 1620,
      "ĠÐ¾Ð³": 1621,
      "ÐºÐ°Ñı": 1622,
      "ĠIn": 1623,
      "Ð¸Ð½Ñĭ": 1624,
      "ÐµÑģÐ¿ÐµÑĩ": 1625,
      "ĠÐ¾ÑĤÐ½Ð¾": 1626,
      "out": 1627,
      "iew": 1628,
      "ĠÐ²Ð°ÑĢÐ¸Ð°Ð½ÑĤ": 1629,
      "ÑĢÐµ": 1630,
      "Ġx": 1631,
      "ER": 1632,
      "();": 1633,
      "ĠÑĢÐ°Ð±Ð¾ÑĤÐ°ÑĤÑĮ": 1634,
      "Ġ19": 1635,
      "ÑĭÐ²Ð°ÐµÑĤÑģÑı": 1636,
      "ĠÐ´Ð¾ÑģÑĤÐ°ÑĤÐ¾ÑĩÐ½Ð¾": 1637,
      "ĠÐ·Ð°ÑĤ": 1638,
      "ÑĩÐµÑĤ": 1639,
      "ĠÐµÐµ": 1640,
      "ĠÐ³Ð¾Ð´Ñĥ": 1641,
      "Ð¸Ð»Ð¾ÑģÑĮ": 1642,
      "Ð¸Ð»ÑģÑı": 1643,
      "ĠÐ¿Ð¾Ð´ÐºÐ»ÑİÑĩ": 1644,
      "11": 1645,
      "ÐµÐ½Ð½Ð¾Ð¹": 1646,
      "ĠÐºÐ¾Ð»Ð¸ÑĩÐµÑģÑĤÐ²Ð¾": 1647,
      "Ð°Ð½Ð¾": 1648,
      "ec": 1649,
      "http": 1650,
      "ÐµÐ´Ð¸Ð½": 1651,
      "ĠÐ¸Ð¼ÐµÐ½Ð½Ð¾": 1652,
      "ĠÐ´Ð¾Ð¿Ð¾Ð»Ð½": 1653,
      "alue": 1654,
      "unt": 1655,
      "Ðĳ": 1656,
      "ĠÐ´Ð²Ð°": 1657,
      "ÑĥÑĢÑĭ": 1658,
      "ÑıÑģ": 1659,
      "Ð½Ð¸ÐºÐ¸": 1660,
      "ĠÑįÐ»ÐµÐºÑĤ": 1661,
      "Ð°Ð½Ð´Ð°ÑĢÑĤ": 1662,
      "ÑĥÐ·": 1663,
      "ĠÐºÐ¾Ð´Ð°": 1664,
      "ĠÐ¿Ð°Ð¼": 1665,
      "ĠâĢľ": 1666,
      "ÐµÑģÑĤÐ¸": 1667,
      "ire": 1668,
      "name": 1669,
      "Ð¸ÑĤÑĥ": 1670,
      "Ð¾ÑĢÐ°": 1671,
      "ĠÐ§ÑĤÐ¾": 1672,
      "ĠÐ¸Ð½ÑĤÐµÑĢÑĦÐµÐ¹": 1673,
      "Ð¾Ð¿Ð°Ñģ": 1674,
      "Ġus": 1675,
      "ĠÐºÐ¾Ð¼Ð¿ÑĮÑİÑĤ": 1676,
      "ÐµÐ³Ð´Ð°": 1677,
      "ĠÐ·Ð²": 1678,
      "ĠÐ»Ð¸ÑĪ": 1679,
      "ĠÐ¾Ð±ÐµÑģÐ¿ÐµÑĩ": 1680,
      "ÑĨÐ¸Ð¹": 1681,
      "ĠÐ½Ð°ÑħÐ¾Ð´": 1682,
      "Ð¸ÑĩÐµÑģÐºÐ¸Ñħ": 1683,
      "ĠÐ¾ÑĤÐ´ÐµÐ»ÑĮ": 1684,
      "ast": 1685,
      "ĠÐ¿Ð¾ÑıÐ²": 1686,
      "Ð¾ÑģÑĤÐ°Ð²": 1687,
      "ÑĨÐ¸Ñİ": 1688,
      "Ð½ÐµÑĤ": 1689,
      "ĠÐ²ÑĤÐ¾ÑĢ": 1690,
      "ÑĢÐ°Ð·Ñĥ": 1691,
      "ÑĢÑĥÐ¿Ð¿": 1692,
      "Ð¼ÐµÑĤ": 1693,
      "ÐµÐºÑĤÐ¾ÑĢ": 1694,
      "ĠÑģÐºÑĢ": 1695,
      "ava": 1696,
      "ĠÐ´ÐµÐ½ÑĮ": 1697,
      "->": 1698,
      "ĠÐ¼Ð°ÑĪ": 1699,
      "ĠÐ´Ð¾Ð¼": 1700,
      "Ġy": 1701,
      "Ð»Ð¸ÑĨ": 1702,
      "ĠÑģÑĩÐ¸ÑĤ": 1703,
      "Ð¼Ð¸Ð½": 1704,
      "ĠÑįÑĦÑĦÐµÐºÑĤ": 1705,
      "ÑıÐ¼Ð¸": 1706,
      "ĠÐ±Ð¸Ð·Ð½ÐµÑģ": 1707,
      "ĠÐĿÐ°Ð¿ÑĢÐ¸Ð¼ÐµÑĢ": 1708,
      "ĠÐ¸Ð´Ðµ": 1709,
      "ĠÐ½Ð°ÑģÑĤ": 1710,
      "ĠÐ¿ÐµÑĢÐµÐ¼": 1711,
      "ĠÐ´ÑĢÑĥÐ³Ð¸Ñħ": 1712,
      "ÑħÑĢÐ°Ð½": 1713,
      "Ġpro": 1714,
      "ĠÐ¼Ð¾": 1715,
      "ace": 1716,
      "Ð¿Ð¸Ñģ": 1717,
      "12": 1718,
      "ÐµÐ½Ð¾": 1719,
      "ĠÐ¿Ð¾Ð»ÑĮÐ·Ð¾Ð²Ð°ÑĤÐµÐ»ÐµÐ¹": 1720,
      "ÑĢÐ°Ð²Ð½": 1721,
      "ĠÐ·Ð°Ð¿Ð¸Ñģ": 1722,
      "app": 1723,
      "ĠÐ¾ÑĢÐ³Ð°Ð½Ð¸Ð·": 1724,
      "Ðł": 1725,
      "ĠÐ½ÐµÐ¹": 1726,
      "Ð¸ÑģÑĤÑĢ": 1727,
      "ublic": 1728,
      "ail": 1729,
      "ĠÑģÑģÑĭÐ»": 1730,
      "Ð°Ð²Ð½Ð¾": 1731,
      "ĠÐ½Ð°ÑĩÐ¸Ð½": 1732,
      "ĠÐºÐ»ÑİÑĩ": 1733,
      "io": 1734,
      "Ð»Ð¸Ð²": 1735,
      "ĠÐ¿ÐµÑĢÐµ": 1736,
      "ĠÐ¿ÑĢÐ¾ÑĪ": 1737,
      "iv": 1738,
      "ĠÐ¿Ð¾Ð½Ð¸Ð¼": 1739,
      "ĠÑĢÐ°Ð·ÑĢ": 1740,
      "ÑĭÐ½": 1741,
      "ĠÑģÑĤÐ°ÑĤ": 1742,
      "ĠÐ½Ð°Ð´Ð¾": 1743,
      "))": 1744,
      "Ð¸Ð»Ð¾": 1745,
      "ĠÐ°Ðº": 1746,
      "ĠÐ´ÐµÐ»Ð°ÑĤÑĮ": 1747,
      "ÑıÑĤÑģÑı": 1748,
      "ĠÐ¿Ð¾ÑĤÐ¾Ð¼Ñĥ": 1749,
      "ive": 1750,
      "ĠÐ¸Ð³": 1751,
      "ÐµÑĨ": 1752,
      "Ð°Ð»ÑĮÐ½Ð¾Ð³Ð¾": 1753,
      "Ð°Ð²Ð°ÑĤÑĮ": 1754,
      "ÐµÑĩÐ½Ð¾": 1755,
      "0000": 1756,
      "ĠGoogle": 1757,
      "ÑĥÐ»ÑıÑĢ": 1758,
      "Ð¾Ð²Ð¾Ð¹": 1759,
      "Ð¾ÑĤÐµÐº": 1760,
      "indows": 1761,
      "ÑĭÐ²Ð°ÐµÐ¼": 1762,
      "Ð¸Ð±Ð»Ð¸": 1763,
      "ĠÑĤÐµ": 1764,
      "ĠÑĥÑģÐ¿": 1765,
      "ĠÐ·Ð´ÐµÑģÑĮ": 1766,
      "ĠÐ²ÑģÐµÐ³Ð´Ð°": 1767,
      "ĠÐ·Ð½": 1768,
      "our": 1769,
      "Ð¸Ð¼Ð¾ÑģÑĤÐ¸": 1770,
      "ĠÑĢÐµÑĪÐµÐ½Ð¸Ñı": 1771,
      "ĠÑĢÑĥ": 1772,
      "ĠÑĤÐ¾Ð¶Ðµ": 1773,
      "\":": 1774,
      "ĠÑĥÐ´Ð°Ð»": 1775,
      "Ð°Ð¹Ð´": 1776,
      "Ð¸ÑĨÐ¸": 1777,
      "Ð½Ñĥ": 1778,
      "ĠÐ°ÐºÑĤÐ¸Ð²": 1779,
      "ĠÑĢÐµÑģ": 1780,
      "pen": 1781,
      "ord": 1782,
      "ize": 1783,
      "ight": 1784,
      "ĠÐ½ÐµÐ¾Ð±ÑħÐ¾Ð´Ð¸Ð¼Ð¾": 1785,
      "ĠÑĦÑĥÐ½ÐºÑĨÐ¸Ð¸": 1786,
      "ĠÐ²Ð½Ð¸Ð¼": 1787,
      "ÐµÐ»Ð¸Ñĩ": 1788,
      "ĠÑĩÐ°ÑģÑĤÑĮ": 1789,
      "ĠÐ¿Ð¾ÐºÐ°": 1790,
      "Ġtr": 1791,
      "ĠÐ·Ð°Ð±": 1792,
      "Ð¸Ð±Ð»Ð¸Ð¾ÑĤÐµÐº": 1793,
      "ÑĤÐ¾Ñĩ": 1794,
      "ĠÐ¾Ð±ÑĥÑĩ": 1795,
      "ÐµÐ¶Ð¸Ð¼": 1796,
      "ĠÐ¼Ð°ÑģÑģ": 1797,
      "Ð³Ð¾ÑĢÐ¸ÑĤ": 1798,
      "ĠÐ·Ð½Ð°": 1799,
      "ite": 1800,
      "Ð»Ð¾Ð½": 1801,
      "ĠÑĤÐ°Ð¼": 1802,
      "Ð¸ÑĩÐµÑģÐºÐ¸Ðµ": 1803,
      "):": 1804,
      "ĠÐ³Ð¾ÑĤÐ¾Ð²": 1805,
      "ĠÐ¾Ð³ÑĢÐ°Ð½Ð¸Ñĩ": 1806,
      "ĠÐ¿ÑĢÐ¾Ð¸Ñģ": 1807,
      "ĠÐ¾Ð±Ð½Ð¾Ð²": 1808,
      "ĠÐ¿ÑĢÐ¾ÐµÐºÑĤÐ°": 1809,
      "ĠÑģÐµÑĢÐ²ÐµÑĢ": 1810,
      "ÑģÐ¸Ð¼": 1811,
      "ĠÐ¿ÑĢÐµ": 1812,
      "50": 1813,
      "ĠÑģÐµÐ¹ÑĩÐ°Ñģ": 1814,
      "Ð·Ð°": 1815,
      "ÑĤÐ¾Ð³": 1816,
      "Re": 1817,
      "ĠÐ¡ÑĤ": 1818,
      "ĠÑģÐ¾ÑģÑĤÐ¾ÑıÐ½": 1819,
      "ÑĥÐ´Ð°": 1820,
      "Ð½ÐµÑĢ": 1821,
      "('": 1822,
      "add": 1823,
      "ĠÑģÐµÑĤÐ¸": 1824,
      "ĠÑĢÐµÑģÑĥÑĢ": 1825,
      "ĠÐ½Ð°Ð·Ð²": 1826,
      "Ð°ÑĨÐ¸Ð¹": 1827,
      "ĠÐ½ÐµÐ³Ð¾": 1828,
      "ĠÐ¼Ð¾Ð¶ÐµÑĤÐµ": 1829,
      "Ð¿ÑĢÐ°Ð²Ð»Ñı": 1830,
      "ĠÑģÐºÐ°Ð·": 1831,
      "ll": 1832,
      "ĠÑģÐ¾ÑĤÑĢÑĥÐ´": 1833,
      "ork": 1834,
      "ĠRe": 1835,
      "Ð°ÑĤÐµÐ»ÑĮÐ½Ð¾": 1836,
      "ĠÐ²ÑĭÑģÐ¾Ðº": 1837,
      "ÑıÐµÐ¼": 1838,
      "Ð¾Ð²Ð¾Ð»ÑĮ": 1839,
      "ĠÐłÐ°Ð·": 1840,
      "ĠÐ¾ÐºÐ°Ð·": 1841,
      "Ð¸Ð»ÑĮÐ½Ð¾": 1842,
      "ĠÐ¸ÑģÐ¿Ð¾Ð»ÑĮÐ·Ð¾Ð²Ð°Ð½": 1843,
      "ĠÐ·Ð°Ð½Ð¸Ð¼": 1844,
      "ĠÐ¼Ð°Ðº": 1845,
      "Ð¾Ð±Ð¸Ð»ÑĮ": 1846,
      "ĠÐ½ÐµÐ±": 1847,
      "ÑĢÑĥÐºÑĤ": 1848,
      "Ġpublic": 1849,
      "ĠÑģÑĤÐ°Ð½Ð´Ð°ÑĢÑĤ": 1850,
      "set": 1851,
      "Ð¾Ð½Ð¾Ð¼": 1852,
      "Ġ@": 1853,
      "ĠÐ¸ÑģÑģÐ»ÐµÐ´": 1854,
      "ĠÑĥÐ´Ð¾Ð±": 1855,
      "ĠÐ³ÑĢÑĥÐ¿Ð¿": 1856,
      "ÐºÐ°Ð¼Ð¸": 1857,
      "ob": 1858,
      "unction": 1859,
      "ĠÐ¸Ð¼ÐµÐµÑĤ": 1860,
      "ĠÐ¾Ð±ÑĢÐ°Ð±Ð¾ÑĤ": 1861,
      "ĠÐ´ÐµÑĤ": 1862,
      "Ð¸ÑĦÐ¸Ðº": 1863,
      "ĠÐ±ÐµÐ·Ð¾Ð¿Ð°Ñģ": 1864,
      "Ð¸Ð·Ð°ÑĨÐ¸Ð¸": 1865,
      "ĠÐ¾Ð¿ÑĭÑĤ": 1866,
      "Ð°Ð±Ð°ÑĤ": 1867,
      "ĠÑĤÑĢÐ°Ð½": 1868,
      "ĠÐºÐ¾Ð¼Ð¿Ð¾Ð½": 1869,
      "ĠÐ»ÐµÐ³": 1870,
      "ip": 1871,
      "ĠÑĤÐµÑĢ": 1872,
      "ĠÐ½Ð°Ð²": 1873,
      "ĠÐ´Ð¾Ð»Ð¶Ð½Ñĭ": 1874,
      "Ġint": 1875,
      "ĠÐŁÐ¾ÑģÐ»Ðµ": 1876,
      "OS": 1877,
      "ĠÐ¿Ð¾ÑĤÑĢÐµÐ±": 1878,
      "Ð¸ÑıÑĤ": 1879,
      "ĠÐ²ÐµÐ±": 1880,
      "ring": 1881,
      "ÑĩÐ¸Ñģ": 1882,
      "ĠÐ¢ÐµÐ¿ÐµÑĢÑĮ": 1883,
      "ĠÐ²ÐµÐ´": 1884,
      "ĠÑĥÑĩÐ°ÑģÑĤ": 1885,
      "ÑıÑħ": 1886,
      "ĠÑĤÐ°Ð±": 1887,
      "ÑıÑĤÐ¸": 1888,
      "Ð¸ÑĢÑĥÐµÐ¼": 1889,
      "ĠÐ¿ÑĢÐ¸Ñĩ": 1890,
      "ĠÐ¶Ð¸Ð·Ð½": 1891,
      "ĠÐ»ÑĥÑĩÑĪÐµ": 1892,
      "ĠÐĺÐ·": 1893,
      "Ġex": 1894,
      "ĠÐ¸Ð½ÑĤ": 1895,
      "ĠÑĢÐ°Ð±Ð¾ÑĤÑĥ": 1896,
      "Ġj": 1897,
      "Ð°ÑĤÐ°": 1898,
      "Ð¸Ð»Ð¸ÑģÑĮ": 1899,
      "ĠÐ¼Ð¸ÑĢ": 1900,
      "://": 1901,
      "ĠÐ²Ð¼ÐµÑģÑĤ": 1902,
      "ĠÑģÑĢÐ°Ð·Ñĥ": 1903,
      "ĠÑįÑĤÐ¸Ñħ": 1904,
      "ath": 1905,
      "ĠÐµÑĳ": 1906,
      "ĠÐºÐ¾ÑĤÐ¾ÑĢÐ¾Ð¹": 1907,
      "Ð¸ÑĢÑĥÐµÑĤ": 1908,
      "Ġ12": 1909,
      "ĠÑģÑĤÐ¾Ð¸ÑĤ": 1910,
      "Ð¾Ð·Ð¼Ð¾Ð¶": 1911,
      "ĠÐļÐ¾Ð½": 1912,
      "ĠÐ´Ð¾Ð»Ð¶ÐµÐ½": 1913,
      "ĠÐ¿Ð¾Ð»ÑĥÑĩÐ¸ÑĤÑĮ": 1914,
      "ĠÑĥÑģÐ»Ð¾Ð²": 1915,
      "Ð½Ð¸Ð¹": 1916,
      "ĠApp": 1917,
      "ĠÐ¿ÑĢÐ¸Ð´": 1918,
      "ĠÐ¾ÑĨÐµÐ½": 1919,
      "roid": 1920,
      "ÑĤÐ¾Ð²": 1921,
      "Ð²ÐµÐ´": 1922,
      "ĠÐ²ÑģÐµÐ¼": 1923,
      "Ð°Ð»Ðµ": 1924,
      "Ð¾Ð±ÑĢÐ°Ð·": 1925,
      "Ð¾Ð»Ð¾Ð²": 1926,
      "Ġnew": 1927,
      "ÑĢÑı": 1928,
      "ĠÐºÐ°ÑĩÐµÑģÑĤÐ²Ðµ": 1929,
      "ÑģÐºÐ¸Ð¹": 1930,
      "ĠÐ°Ð½Ð°Ð»Ð¸Ð·": 1931,
      "ĠÐ³Ð»Ð°Ð²": 1932,
      "IN": 1933,
      "ĠÐ±Ð¸Ð±Ð»Ð¸Ð¾ÑĤÐµÐº": 1934,
      "ÑĪÐ¸ÑĢ": 1935,
      "ber": 1936,
      "ress": 1937,
      "ĠÑĢÐµÐ¶Ð¸Ð¼": 1938,
      "Ð¸ÑıÑħ": 1939,
      "Ð¾Ð»Ð¶": 1940,
      "ĠÐĴÑģÐµ": 1941,
      "ĠÑģÑĤÐ°ÑĢ": 1942,
      "Ð²Ð¾ÑĢ": 1943,
      "ĠÑģÐµÐº": 1944,
      "Ð°Ð½Ñģ": 1945,
      "ĠÐ¶ÐµÐ»": 1946,
      "ĠÐ¸Ð½ÑĦÐ¾ÑĢÐ¼Ð°ÑĨÐ¸Ð¸": 1947,
      "ĠÑĢÐ°Ð·Ð´ÐµÐ»": 1948,
      "ĠWindows": 1949,
      "ÑĢÐ°ÑĤÑĮ": 1950,
      "ĠÐŁÐ¾ÑįÑĤÐ¾Ð¼Ñĥ": 1951,
      "ĠÑĢÐ°Ð±": 1952,
      "ÑĤÐ¸Ð¼": 1953,
      "ĠÐ¿Ð»Ð°ÑĤÑĦÐ¾ÑĢÐ¼": 1954,
      "16": 1955,
      "oc": 1956,
      "ĠÐºÐ°ÐºÐ¾Ð¹": 1957,
      "ard": 1958,
      "ĠÑĢÑĭÐ½": 1959,
      "++": 1960,
      "sh": 1961,
      "ĠÐ½Ð¸": 1962,
      "ull": 1963,
      "ĠÐ²ÑĭÑĪÐµ": 1964,
      "ĠÐºÐ°Ð¶Ð´ÑĭÐ¹": 1965,
      "ÑģÐºÐ¾Ð³Ð¾": 1966,
      "ÑĥÑĢÐ°": 1967,
      "und": 1968,
      "ĠÑĥÐ¿": 1969,
      "ĠÐ°Ð»Ð³Ð¾ÑĢÐ¸ÑĤ": 1970,
      "ÑĥÑĤÑģÑĤÐ²": 1971,
      "ĠÑĢÐ°Ð´": 1972,
      "Ð°Ð¹ÑĤÐ¸": 1973,
      "32": 1974,
      "ĠÐ³ÑĢÐ°ÑĦ": 1975,
      "ĠÑĢÐ°Ð½": 1976,
      "ĠÐ¼Ð¾Ð½": 1977,
      "ĠÐ´Ð°Ð»ÑĮ": 1978,
      "ĠÑĩÐ°Ñģ": 1979,
      "Ð°Ð»Ð¸ÑģÑĤ": 1980,
      "ĠÐ¸Ð·Ð¾Ð±ÑĢÐ°Ð¶": 1981,
      "ĠÑĤÐµÐ¿ÐµÑĢÑĮ": 1982,
      "pro": 1983,
      "ĠÐ½Ð°ÑģÑĤÑĢÐ¾Ð¹": 1984,
      "ĠÐ¾Ð´Ð½Ð¾Ð¹": 1985,
      "Ð¼Ð¾ÑĤÑĢÐµÑĤÑĮ": 1986,
      "Ð¸ÐºÐµ": 1987,
      "ĠÐŀÐ´Ð½Ð°ÐºÐ¾": 1988,
      "AT": 1989,
      "ĠÑģÐ¾Ð±ÑģÑĤÐ²ÐµÐ½": 1990,
      "ml": 1991,
      "ĠÐ¾Ð±Ð»Ð°ÑģÑĤ": 1992,
      "ÑĥÐµÑĤÑģÑı": 1993,
      "ĠÑĢÐ°ÑģÑģÐºÐ°Ð·": 1994,
      "ĠÐ·Ð°Ñī": 1995,
      "Ð°Ð½Ð°": 1996,
      "Ð½Ð¸Ðµ": 1997,
      "ĠÑĦÑĥÐ½ÐºÑĨÐ¸Ð¾Ð½": 1998,
      "ra": 1999,
      "ĠÑĢÐ°Ð·Ð¼ÐµÑĢ": 2000,
      "ÑıÐ»": 2001,
      "ĠÐºÐ»Ð¸ÐµÐ½ÑĤ": 2002,
      "Ð°Ð½Ñĭ": 2003,
      "ON": 2004,
      "ĠÐ¿ÐµÑĢÐµÐ²": 2005,
      "ĠÐºÐ¾Ð¼Ð¿Ð°Ð½Ð¸Ñı": 2006,
      "ĠÐ¾ÑĩÐµÑĢÐµÐ´": 2007,
      "ĠÑĤÑĥÑĤ": 2008,
      "ĠÐ¼Ð°ÑĢ": 2009,
      "ÐºÐ¾Ð»ÑĮ": 2010,
      "ial": 2011,
      "ÑĥÑģÐºÐ°": 2012,
      "Ð¾ÑıÑĤ": 2013,
      "ÑıÐµÑĤÑģÑı": 2014,
      "Ð²Ð°ÑĤ": 2015,
      "ĠÑįÐºÑĢÐ°Ð½": 2016,
      "ĠÐ´ÑĢÑĥÐ³Ð¸Ðµ": 2017,
      "ÐµÑģÑĤÐ²Ð°": 2018,
      "ÐµÐ³Ð¾Ð´": 2019,
      "ĠÐºÐ°ÐºÐ¸Ðµ": 2020,
      "ĠÐ¾Ð±ÑĢÐ°ÑĤ": 2021,
      "ÑĥÐ±Ð»Ð¸Ðº": 2022,
      "ĠÐ°Ð´ÑĢÐµÑģ": 2023,
      "ĠÐ¿ÑĢÐ¾Ñģ": 2024,
      "ĠÑĥÑģÑĤÑĢÐ¾Ð¹ÑģÑĤÐ²": 2025,
      "ĠÑģÐ¸ÑĤÑĥ": 2026,
      "ng": 2027,
      "Ð´ÐµÐº": 2028,
      "`,": 2029,
      "ÐºÑĢÐµÑĤ": 2030,
      "ĠÑģÐ²Ð¾Ð¸": 2031,
      "ĠÐºÐ¾Ð½ÑĤÑĢÐ¾Ð»": 2032,
      "Ġâ": 2033,
      "Ð¾Ð±ÑīÐµ": 2034,
      "ÐµÑĢÐµÐ½": 2035,
      "ĠQ": 2036,
      "ans": 2037,
      "te": 2038,
      "ÑĨÐ¸Ð¿": 2039,
      "Ð¾Ð¶Ð´": 2040,
      "ĠÐ·Ð½Ð°ÑĩÐµÐ½Ð¸Ðµ": 2041,
      "Ð¸ÑħÐ¾Ð´": 2042,
      "Ð¾Ð²ÑĭÑħ": 2043,
      "ĠÑģÐ¾ÑħÑĢÐ°Ð½": 2044,
      "Ð¾Ð±ÑĭÑĤ": 2045,
      "icro": 2046,
      "ĠÐºÐ°ÑĤ": 2047,
      "ĠÑģÐµÐ±Ðµ": 2048,
      "lu": 2049,
      "ĠÑģÑĤÑĢÑĥÐºÑĤ": 2050,
      "Ð°ÑĤÐ¾ÑĢ": 2051,
      "Ġ--": 2052,
      "ĠÐ·Ð°Ð´Ð°ÑĩÐ¸": 2053,
      "Ð³Ð»": 2054,
      "ĠÐ¿Ð¾Ð»ÐµÐ·": 2055,
      "Ð¾Ð³Ð»": 2056,
      "ĠÐ´Ð¸": 2057,
      "Ð»ÑĥÑĩ": 2058,
      "Ð¸ÑĩÐµÑģÐºÐ¾Ð¹": 2059,
      "ÐµÐ½Ð½Ð¾Ð³Ð¾": 2060,
      "ĠÐ½Ð¸Ñĩ": 2061,
      "ÑĢÐ¾Ðº": 2062,
      "Ð½ÑĥÑĤÑĮ": 2063,
      "ĠÑįÑĤÑĥ": 2064,
      "ĠÐ»Ð¸Ð±Ð¾": 2065,
      "Ġ&": 2066,
      "Ð¾Ð²ÑĭÐµ": 2067,
      "ia": 2068,
      "ÑĢÐ°Ñģ": 2069,
      "****": 2070,
      "ĠÑĤÐ°ÐºÐ¸Ñħ": 2071,
      "ory": 2072,
      "ĠÐ²ÑħÐ¾Ð´": 2073,
      "ĠÐ¿ÑĢÐ¾ÑĦ": 2074,
      "tring": 2075,
      "ĠÐ²ÑĭÑħÐ¾Ð´": 2076,
      "ĠÑĢÐµÑĪÐµÐ½Ð¸Ðµ": 2077,
      "ĠÐ¸ÑģÐ¿Ð¾Ð»ÑĮÐ·Ð¾Ð²Ð°Ð½Ð¸Ñı": 2078,
      "ID": 2079,
      "ĠÑĥÑĤ": 2080,
      "net": 2081,
      "</": 2082,
      "ĠÐ¿Ð¸Ñģ": 2083,
      "Ð¸Ð¶Ðµ": 2084,
      "Ġon": 2085,
      "ÐµÑģÑıÑĨ": 2086,
      "ax": 2087,
      "`.": 2088,
      "Ð°Ð»ÐµÐµ": 2089,
      "ild": 2090,
      "ĠÑģÑĢÐ°Ð²Ð½": 2091,
      "ox": 2092,
      "vice": 2093,
      "ÑĥÐµÐ¼": 2094,
      "ĠÐ¾ÑĦ": 2095,
      "yst": 2096,
      "ĠÐ½ÐµÐ²": 2097,
      "ĠÐ´Ð²ÑĥÑħ": 2098,
      "Ð¼Ñĭ": 2099,
      "Ġclass": 2100,
      "ĠÐ¸ÑģÑħÐ¾Ð´": 2101,
      "oid": 2102,
      "ÑģÐµÐ¼": 2103,
      "ĠÑĤÐ°Ð±Ð»Ð¸ÑĨ": 2104,
      "ĠÑģÑħ": 2105,
      "ĠÐºÐ½Ð¾Ð¿": 2106,
      "Ġle": 2107,
      "ĠÑĩÐ¸ÑĤ": 2108,
      "ÐµÑĢÑģ": 2109,
      "ĠÐ¿ÑĢÐ¾Ð±Ð»ÐµÐ¼Ñĭ": 2110,
      "ĠÐ²ÑĭÐ±Ð¾ÑĢ": 2111,
      "ĠÐ¿ÑĢÐ¸Ð»Ð¾Ð¶ÐµÐ½Ð¸Ðµ": 2112,
      "ĠÐ½Ð°Ð³": 2113,
      "ĠÐ°ÑĢÑħ": 2114,
      "SS": 2115,
      "ĠÐĴÐ¾ÑĤ": 2116,
      "ĠÐ»Ð¸ÑĪÑĮ": 2117,
      "ĠÐ±ÐµÑģÐ¿": 2118,
      "ĠÐ¿ÑĥÑĤ": 2119,
      "ĠÐºÐ¾": 2120,
      "ĠÑĤÐ°ÐºÐ¸Ðµ": 2121,
      "Ð½Ð¸ÐºÐ°": 2122,
      "Ġvar": 2123,
      "ĠAPI": 2124,
      "ĠÐ¿Ð°Ð¼ÑıÑĤÐ¸": 2125,
      "Ð»Ð°Ð¼": 2126,
      "put": 2127,
      "ĠÐ²ÑĭÐ³Ð»ÑıÐ´": 2128,
      "ĠY": 2129,
      "ÑģÐºÐ¾Ð¹": 2130,
      "ĠÐ¼ÐµÑģÑıÑĨ": 2131,
      "ĠÐ¿ÑĢÐ¸ÑħÐ¾Ð´": 2132,
      "ĠÐ¿Ð°Ðº": 2133,
      "ĠÐ´ÑĢÑĥÐ³Ð¾Ð¹": 2134,
      "Ð½Ð¸Ñħ": 2135,
      "ĠÑĢÐµÐ´": 2136,
      "ĠÐ»ÑİÐ´ÐµÐ¹": 2137,
      "ĠÐ¿Ð¾Ð´Ð¾Ð±": 2138,
      "ele": 2139,
      "Ð°Ð»Ð°ÑģÑĮ": 2140,
      "ĠÑĢÐ°Ð±Ð¾Ñĩ": 2141,
      "ÑĢÐ°Ð¶": 2142,
      "ÑĢÐ¾Ð´": 2143,
      "ĠÑģÐ¾Ð±ÑĭÑĤ": 2144,
      "ĠÐ½ÐµÐ±Ð¾Ð»ÑĮÑĪ": 2145,
      "ĠÐ½Ð°Ð¹ÑĤÐ¸": 2146,
      "ST": 2147,
      "Ð»ÑĮ": 2148,
      "ĠÑģÐ½": 2149,
      "Ð£": 2150,
      "que": 2151,
      "Ð¸Ð»Ð°ÑģÑĮ": 2152,
      "Ð¸ÑĩÐµÑģÐºÐ¸Ð¹": 2153,
      "ĠÐ¼Ð¾Ð±Ð¸Ð»ÑĮ": 2154,
      "Ð½ÐµÐ¼": 2155,
      "ĠÑģÐ±Ð¾ÑĢ": 2156,
      "Ð½Ð¾ÑģÑĤÐµÐ¹": 2157,
      "Ð¸Ð³ÑĥÑĢ": 2158,
      "ĠÐ¾ÑĤÐºÑĢÑĭÑĤ": 2159,
      "ĠÑħÐ¾Ñĩ": 2160,
      "Ġ=>": 2161,
      "ĠÐ´Ð¾Ð¿Ð¾Ð»Ð½Ð¸ÑĤÐµÐ»ÑĮ": 2162,
      "ĠÑĢÐ¸Ñģ": 2163,
      "ĠÐµÐ´Ð¸Ð½": 2164,
      "ÐµÐ³Ð¾Ð´Ð½Ñı": 2165,
      "ĠÐ¢Ð°ÐºÐ¶Ðµ": 2166,
      "Ġ100": 2167,
      "ĠÐ°Ð²ÑĤÐ¾ÑĢ": 2168,
      "key": 2169,
      "ÑĢÐ°ÑĥÐ·": 2170,
      "ĠÑģÐ¸Ð¼": 2171,
      "ĠÐŁÑĢÐ¾": 2172,
      "ĠÑĥÐ²ÐµÐ»Ð¸Ñĩ": 2173,
      "ĠÐ¼Ð¾Ð¶ÐµÐ¼": 2174,
      "loc": 2175,
      "ĠÐ¿Ð¾Ð»ÑĮÐ·Ð¾Ð²Ð°ÑĤÐµÐ»Ñı": 2176,
      "ĠÐ¿Ð¾Ð»ÑĮÐ·Ð¾Ð²Ð°ÑĤÐµÐ»ÑĮ": 2177,
      "ux": 2178,
      "Ð¸ÑĢÑĤÑĥ": 2179,
      "to": 2180,
      "ĠÑĩÐµÐ³Ð¾": 2181,
      "80": 2182,
      "Ð¸Ð½Ðµ": 2183,
      "Ð¸ÐºÑģ": 2184,
      "Ð¸ÐºÑĥ": 2185,
      "ĠÑĢÐ°Ð·ÑĢÐ°Ð±Ð¾ÑĤÐºÐ¸": 2186,
      "LE": 2187,
      "ĠJava": 2188,
      "Ð¾Ð²Ð°ÑĤÐµÐ»ÑĮ": 2189,
      "ÐµÑĦÐ¾Ð½": 2190,
      "ĠÑĥÐ¿ÑĢÐ°Ð²Ð»ÐµÐ½Ð¸Ñı": 2191,
      "ĠÐ½Ð°Ðº": 2192,
      "ÑıÑģÐ½": 2193,
      "ĠÐ¦": 2194,
      "ĠPro": 2195,
      "ock": 2196,
      "ĠÑħÐ¾ÑĢÐ¾ÑĪÐ¾": 2197,
      "ÑĥÐ»Ð¸": 2198,
      "ĠÐ·Ð°Ð¿ÑĥÑģÐº": 2199,
      "ign": 2200,
      "ĠÐ²Ð¸Ð´ÐµÐ¾": 2201,
      "ĠÐ·Ð°ÐºÐ°Ð·": 2202,
      "Ġ200": 2203,
      "ĠÐ¼Ð¾Ð´ÐµÐ»Ð¸": 2204,
      "cess": 2205,
      "form": 2206,
      "fig": 2207,
      "ĠÐ²ÐµÑĢÑģÐ¸Ð¸": 2208,
      "Ð¸Ð»Ñı": 2209,
      "ĠÐłÐ¾ÑģÑģ": 2210,
      "ÐºÐ¾Ð»ÑĮÐºÑĥ": 2211,
      "ĠÐ¿ÑĢÐ¸Ñģ": 2212,
      "ĠÐ¸ÑĤÐ¾Ð³": 2213,
      "ĠÐ²Ð¾Ð·Ð½Ð¸Ðº": 2214,
      "Ðĵ": 2215,
      "Ð½Ð°ÐºÐ¾Ð¼": 2216,
      "ĠÐ¸ÑģÑĤÐ¾ÑĢ": 2217,
      "Pro": 2218,
      "ph": 2219,
      "ĠÐ¿Ð¾ÑĤÐ¾Ðº": 2220,
      "Ð¸Ð²Ð°ÐµÑĤÑģÑı": 2221,
      "ĠÐºÐ¾Ð½ÐºÑĢÐµÑĤ": 2222,
      "ĠÑģÐ¸Ð½": 2223,
      "ĠÑĢÐ°ÑģÑĪÐ¸ÑĢ": 2224,
      "js": 2225,
      "Ð°Ð½Ð½ÑĭÐµ": 2226,
      "ĠÐ´Ð¾ÑĢ": 2227,
      "ĠÐ¿ÑĢÐµÐ´ÑģÑĤ": 2228,
      "ĠÐ´Ð¾Ð²Ð¾Ð»ÑĮ": 2229,
      "Ð¾Ð²ÐµÑĢÑĪ": 2230,
      "Ð¸Ð½Ð³Ð°": 2231,
      "ĠÐ¿Ð¾Ð½ÑıÑĤ": 2232,
      "30": 2233,
      "ĠÐŁÐ¾Ð»": 2234,
      "ĠÐ»Ð¸ÑĨ": 2235,
      "ĠÐ¸ÑģÐ¿Ð¾Ð»ÑĮÐ·ÑĥÐµÑĤÑģÑı": 2236,
      "ĠÐ¼Ð°ÑĤÐµÑĢÐ¸": 2237,
      "Ð°Ð»ÑĮÐ½Ð¾Ðµ": 2238,
      "ĠÐ¼ÐµÐ½ÑĮ": 2239,
      "ĠÐ¿ÑĢÐµÐ´Ð»Ð¾Ð¶": 2240,
      "dex": 2241,
      "ĠÐ¿Ð¾Ð¼Ð¾Ð³": 2242,
      "Ð¿ÑĢÐ¾ÑģÑĤ": 2243,
      "ĠÐ²ÐµÑī": 2244,
      "ĠÐ²Ð»": 2245,
      "ĠÐ¸Ð·Ð²ÐµÑģÑĤ": 2246,
      "Ð¸Ð³Ð½": 2247,
      "ĠÑģÐ¸ÑģÑĤÐµÐ¼Ð°": 2248,
      "Ð°Ð¸Ð¼": 2249,
      "ĠÐ±ÑĭÑģÑĤÑĢ": 2250,
      "Ð²ÑĢÐ°Ñī": 2251,
      "ĠÐľÐ¾Ð¶": 2252,
      "Ð¸ÑĩÐµÑģÐºÐ¾Ð³Ð¾": 2253,
      "====": 2254,
      "ool": 2255,
      "gr": 2256,
      "ĠÐºÑĥÑĢ": 2257,
      "sp": 2258,
      "ĠÐ¿ÑĢÑıÐ¼": 2259,
      "ook": 2260,
      "ystem": 2261,
      "Ð¾Ð½Ð°": 2262,
      "Ġimp": 2263,
      "ĠÐ´Ð¸Ð·": 2264,
      "ĠÑĦÑĢ": 2265,
      "Ð°Ð»ÑĮÐ½Ð°Ñı": 2266,
      "ĠÐºÐ°Ð¼": 2267,
      "ĠÐ¿Ð»Ð¾": 2268,
      "ĠÐ¿ÑĢÐ¾Ð´Ð¾Ð»Ð¶": 2269,
      "ĠÐ¾Ð´Ð½Ð¾Ð³Ð¾": 2270,
      "ET": 2271,
      "ĠÐ·Ð½Ð°ÑĩÐµÐ½Ð¸Ñı": 2272,
      "ĠÐ·Ð°Ð³ÑĢÑĥÐ·": 2273,
      "ĠÑĢÐ°Ð·Ð¼": 2274,
      "ĠÐ²ÑĭÑĩÐ¸Ñģ": 2275,
      "ĠÑĩÐ°ÑģÑĤÐ¾": 2276,
      "ĠÐ½Ð¸ÑĩÐµÐ³Ð¾": 2277,
      "ĠÐ¿ÑĢÐ¸ÑĪ": 2278,
      "ĠÑĢÐ°Ð·Ð½ÑĭÑħ": 2279,
      "Ð½Ð¸": 2280,
      "Ġthis": 2281,
      "Cont": 2282,
      "Name": 2283,
      "ĠÐ¿ÑĢÐ¾Ð¿": 2284,
      "ĠÐ´Ð¾ÐºÑĥÐ¼ÐµÐ½ÑĤ": 2285,
      "ÑĭÐ²Ð°ÑİÑĤ": 2286,
      "elf": 2287,
      "ĠÐ¼Ð½Ð¾Ð¶": 2288,
      "ĠÐºÐ¾Ð¼Ð°Ð½Ð´Ñĭ": 2289,
      "ĠÐ§ÑĤÐ¾Ð±Ñĭ": 2290,
      "ly": 2291,
      "ĠÐ²Ð·Ð°Ð¸Ð¼": 2292,
      "ĠÐ¼Ð¸Ðº": 2293,
      "ÐµÑĩÐ°ÑĤ": 2294,
      "aa": 2295,
      "ĠÑįÑĦÑĦÐµÐºÑĤÐ¸Ð²": 2296,
      "ĠÐ¼Ð¸Ð½Ð¸Ð¼": 2297,
      "ĠÐ¾Ð¿ÑĤÐ¸Ð¼": 2298,
      "ĠÐ¾ÑĤÑģ": 2299,
      "ĠÐ²Ð¾Ð¾Ð±ÑīÐµ": 2300,
      "Ġ\\": 2301,
      "ĠÐ²Ð¾Ð·Ð¼Ð¾Ð¶Ð½Ð¾ÑģÑĤÐ¸": 2302,
      "Ð°ÑĨÐ¸ÐµÐ¹": 2303,
      "ÑģÐºÐ¸Ñħ": 2304,
      "ĠÑĩÐ°ÑģÑĤÐ¸": 2305,
      "ĠÑģÐ²Ð¾Ñİ": 2306,
      "ĠÐ¼Ð°ÐºÑģÐ¸Ð¼": 2307,
      "ĠÐĴÐ¾": 2308,
      "ĠÐºÐ¾ÑĤÐ¾ÑĢÐ¾Ðµ": 2309,
      "ash": 2310,
      "ĠÑĢÐ°Ð·Ð²Ð¸ÑĤ": 2311,
      "ÑĪÐ¸Ñħ": 2312,
      "ĠÑĥÐ±": 2313,
      "ou": 2314,
      "],": 2315,
      "ĠÐ²Ð¸ÑĢÑĤÑĥ": 2316,
      "ĠÐ¿ÑĢÐ¾Ð¸Ð·Ð²Ð¾Ð´Ð¸ÑĤÐµÐ»ÑĮ": 2317,
      "Ð¸Ð²Ð°ÐµÐ¼": 2318,
      "ĠÑĤÐµÐ»ÐµÑĦÐ¾Ð½": 2319,
      "Ð¸Ð»Ð»Ð¸": 2320,
      "ĠÐ»Ð¸Ð½": 2321,
      "soft": 2322,
      "Ð»Ð¾Ð²": 2323,
      "ption": 2324,
      "ĠÐ¿ÑĢÐ¸Ð½ÑĨÐ¸Ð¿": 2325,
      "ĠÑģÐ°Ð¼Ð¾Ð¼": 2326,
      "Ð¿Ð¾Ð»Ð¾Ð¶": 2327,
      "ÐºÐ¾Ð²Ð¾Ð´": 2328,
      "ĠÐ´Ð¾Ð²Ð¾Ð»ÑĮÐ½Ð¾": 2329,
      "RE": 2330,
      "Ð¾ÑĢÐ¾Ð²": 2331,
      "25": 2332,
      "ss": 2333,
      "Ð¼Ð°ÑĤ": 2334,
      "ĠÐºÐ²": 2335,
      "QL": 2336,
      "ĠÐºÐ¾Ð¿": 2337,
      "Ġch": 2338,
      "ĠÑĨÐ²ÐµÑĤ": 2339,
      "du": 2340,
      "ĠÐºÐ°Ð¶Ð´Ð¾Ð³Ð¾": 2341,
      "Ð¿Ð°ÑĢ": 2342,
      "ĠÐ½Ð°Ð¿ÑĢÐ°Ð²": 2343,
      "vent": 2344,
      "ÐºÐ¾Ðµ": 2345,
      "ĠÑįÑĤÐ°Ð¿": 2346,
      "ĠÐ¸Ð½ÑĦÐ¾ÑĢÐ¼Ð°ÑĨÐ¸Ñİ": 2347,
      "ĠÑĤÐµÐºÑĥÑī": 2348,
      "ĠÐ¾Ð·": 2349,
      "ĠÐ½Ð¸ÐºÐ°Ðº": 2350,
      "ĠÐļÐ¾Ð³Ð´Ð°": 2351,
      "ĠÐ±ÑĢÐ°ÑĥÐ·": 2352,
      "ĠÐ¿Ð¾ÑĤÐ¾Ð¼": 2353,
      "bject": 2354,
      "Ð»ÐµÐ¹": 2355,
      "ĠÐ½Ð¾Ð²ÑĭÐ¹": 2356,
      "ĠÑĤÐ¾ÑĤ": 2357,
      "ĠÑģÐ¾Ð·Ð´Ð°Ð½Ð¸Ñı": 2358,
      "port": 2359,
      "64": 2360,
      "ror": 2361,
      "Ġ15": 2362,
      "Ð¼Ð¾ÑĤÑĢÐ¸Ð¼": 2363,
      "Ð°Ð½Ð¸ÐµÐ¼": 2364,
      "Ġhttp": 2365,
      "Ð¿Ð¾ÑĢ": 2366,
      "ĠÑĢÐ°Ð±Ð¾ÑĤÐµ": 2367,
      "ĠÐ¨": 2368,
      "Ð°ÐºÑĤÐ¾ÑĢ": 2369,
      "Ð¿ÑĢÐ¾": 2370,
      "ix": 2371,
      "Ð¸Ð¼Ð¾ÑģÑĤÑĮ": 2372,
      "ÐºÑĥÑĢ": 2373,
      "Ð¸ÑĤÐµÐ»ÐµÐ¹": 2374,
      "ĠÐ¸Ð·Ð¼ÐµÐ½ÐµÐ½Ð¸Ñı": 2375,
      "Ð¸Ð¼Ð¾": 2376,
      "ĠÐ¿Ð¾ÐºÑĥÐ¿": 2377,
      "ĠÐ´Ð²Ð¸Ð¶": 2378,
      "rint": 2379,
      "ĠÐ²Ð½Ð¸Ð¼Ð°Ð½Ð¸Ðµ": 2380,
      "Ð½Ð°ÑĢÑĥÐ¶": 2381,
      "ĠÑģÑĤÐ¾Ð»": 2382,
      "ĠÐ¿ÑĢÐ¸Ð»Ð¾Ð¶ÐµÐ½Ð¸Ð¹": 2383,
      "Ġ...": 2384,
      "ĠÑĤÐ¸Ð¿Ð°": 2385,
      "ant": 2386,
      "Ġconst": 2387,
      "Ð¾Ð¹Ð´": 2388,
      "Ð´Ð¾": 2389,
      "Ð¾Ð´ÐµÐ¹ÑģÑĤÐ²": 2390,
      "ÑĤÑĭ": 2391,
      "ĠÐ²ÑĭÐ·Ð¾Ð²": 2392,
      "ĠÐ¾Ð±ÑĭÑĩ": 2393,
      "ill": 2394,
      "ator": 2395,
      "Ð°ÑĢÑı": 2396,
      "ĠÐļÐ¾Ð¼": 2397,
      "ĠÐºÐ°Ð½": 2398,
      "Ġfunction": 2399,
      "ĠÐŁÐµÑĢÐ²": 2400,
      "ĠÐ¸ÑģÐ¿Ð¾Ð»ÑĮÐ·ÑĥÑİÑĤ": 2401,
      "Ð°ÑİÑīÐ¸Ñħ": 2402,
      "ÑĥÐ´ÑĮ": 2403,
      "low": 2404,
      "ĠÐ¿ÑĢÐ¾Ð¸ÑģÑħÐ¾Ð´Ð¸ÑĤ": 2405,
      "ÐµÑĪÑĮ": 2406,
      "ĠÐ°Ð¿": 2407,
      "icrosoft": 2408,
      "ĠÐ°Ð±": 2409,
      "ĠÑĥÐ²Ð¸Ð´": 2410,
      "Ġit": 2411,
      "ĠÑįÑĤÐ¸Ð¼": 2412,
      "Ġ16": 2413,
      "ÐºÐ¾Ð½": 2414,
      "Ð¾Ð³ÑĢÐ°ÑĦ": 2415,
      "ÐµÑĢÐ°ÑĤÐ¾ÑĢ": 2416,
      "ĠÐ´Ð°": 2417,
      "22": 2418,
      "ĠDe": 2419,
      "ĠÐ½Ð¾Ð²ÑĭÐµ": 2420,
      "atch": 2421,
      "ĠÐ·Ð°Ñı": 2422,
      "Co": 2423,
      "ĠÐ½Ð°Ð±Ð¾ÑĢ": 2424,
      "Ð°ÐµÑĤÐµ": 2425,
      "ĠÑģÐ¿Ð¸ÑģÐ¾Ðº": 2426,
      "ĠÑĤÐ°ÐºÐ¾Ðµ": 2427,
      "Ġ%": 2428,
      "ĠÐ²ÑĭÐ²Ð¾Ð´": 2429,
      "ĠÐ²ÐµÑģÑĮ": 2430,
      "ĠÐ±ÑĭÑģÑĤÑĢÐ¾": 2431,
      "ĠÐ±Ð°Ð½": 2432,
      "19": 2433,
      "ĠÐºÐ¾Ð¼Ð¼ÐµÐ½ÑĤ": 2434,
      "Ð¾Ð³Ð»Ð°Ñģ": 2435,
      "Ð°ÑĤÐµÐ»Ð¸": 2436,
      "ĠÐ¼Ð°Ð»": 2437,
      "Ġ</": 2438,
      "ĠÑģÐ²Ð¾ÐµÐ¹": 2439,
      "ry": 2440,
      "ÐµÐ³ÑĢ": 2441,
      "ww": 2442,
      "15": 2443,
      "ĠÐ¿Ð¾Ð¿ÑĥÐ»ÑıÑĢ": 2444,
      "ĠÐ½ÐµÐºÐ¾ÑĤÐ¾ÑĢÑĭÐµ": 2445,
      "ĠAnd": 2446,
      "Ð¾Ð²ÑĭÐ¹": 2447,
      "Ð¶Ð¸Ð´": 2448,
      "ĠÐ½Ð°Ð»": 2449,
      "ition": 2450,
      "Ġwh": 2451,
      "Ð¾ÑĤÐ°": 2452,
      "ÑĥÑĢÑĥ": 2453,
      "40": 2454,
      "ĠÑĢÐ°Ð·Ð±": 2455,
      "ĠÐ¾Ð±ÑıÐ·": 2456,
      "ĠÐ½ÐµÑģÐºÐ¾Ð»ÑĮ": 2457,
      "ĠÐ¼Ð°Ð³": 2458,
      "ĠÐ¿Ð¾ÑģÑĤÐ°Ð²": 2459,
      "ĠÐºÐ¾ÑĤÐ¾ÑĢÐ¾Ð¼": 2460,
      "ĠÑĪÐ°Ð³": 2461,
      "ĠÐ±ÑĥÐ´ÐµÐ¼": 2462,
      "ĠÐ¼Ð¾Ð´ÐµÐ»ÑĮ": 2463,
      "Ð¸Ð½Ñĥ": 2464,
      "ÑıÑĤÐµÐ»ÑĮ": 2465,
      "ĠÑģÐ¾Ð²ÐµÑĢÑĪ": 2466,
      "ĠÐ¿ÑĢÐ¾Ð²Ð¾Ð´": 2467,
      "ĠÐŀÑģ": 2468,
      "ĠÐºÐ¾Ð¼Ð°Ð½": 2469,
      "ĠÑģÑĤÐ¾ÑĢÐ¾Ð½Ñĭ": 2470,
      "ĠÐ¸Ð·ÑĥÑĩ": 2471,
      "inux": 2472,
      "Ð³Ð¾ÑĤÐ¾Ð²": 2473,
      "ĠEx": 2474,
      "gin": 2475,
      "ĠÐ½Ð¾Ð²ÑĭÑħ": 2476,
      "ĠÑģÑĤÐ°Ð½": 2477,
      "Ð¾Ð²Ð°ÑĤÑĮÑģÑı": 2478,
      "ĠÐ¼ÐµÐ´": 2479,
      "Ð¾Ð·Ð½": 2480,
      "ĠÐ·Ð°Ð¼ÐµÑĤ": 2481,
      "ĠÐ½ÐµÑģ": 2482,
      "ĠÐ²ÑģÑĤÑĢ": 2483,
      "ĠÑħÐ¾ÑĤÑı": 2484,
      "ÑĪÐ¸Ð¹": 2485,
      "ĠÐ½ÐµÐ¼Ð½Ð¾Ð³Ð¾": 2486,
      "Ġ_": 2487,
      "ĠÐ¸ÑģÐºÐ»ÑİÑĩ": 2488,
      "ÑĢÐ¾Ð¼Ðµ": 2489,
      "ĠÑĤÐ¾ÑĩÐºÐ¸": 2490,
      "Ġbe": 2491,
      "ĠÐ´ÑĥÐ¼": 2492,
      "ÑĥÐ¶Ð´": 2493,
      "lay": 2494,
      "ĠÑģÑĤÐ°ÑĤÑĮÐ¸": 2495,
      "ÐµÐ½Ð½Ð°Ñı": 2496,
      "ĠÑģÐ¾Ð·Ð´Ð°ÑĤÑĮ": 2497,
      "ĠÐ¿ÑĢÐµÐ´Ð»Ð°Ð³": 2498,
      "Ð¿ÐµÑĢ": 2499,
      "Ð»ÑĥÑĩÑĪ": 2500,
      "ĠÑĨÐ¸ÑĦ": 2501,
      "ide": 2502,
      "odel": 2503,
      "ĠÑģÐ²ÑıÐ·Ð¸": 2504,
      "ĠÐºÐ¾Ð¼Ð¿ÑĮÑİÑĤÐµÑĢ": 2505,
      "ĠÐ·Ð°ÐºÐ¾Ð½": 2506,
      "ĠÑģÐºÑĢÐ¸Ð¿": 2507,
      "ÐºÐ¸Ð¹": 2508,
      "ĠÐ¾Ð±Ð¾ÑĢ": 2509,
      "ĠÐ²ÑĭÐ´ÐµÐ»": 2510,
      "ĠÐ¾ÑĤÐ²": 2511,
      "ML": 2512,
      "Ð°Ð»Ð¾Ð²": 2513,
      "Ð½ÐµÐ³Ð¾": 2514,
      "ĠÑįÑĤÐ°": 2515,
      "ÐµÑĤÐ¾Ð²": 2516,
      "ĠÐ²Ð½ÑĥÑĤÑĢÐ¸": 2517,
      "ĠÑĨÐµÐ½": 2518,
      "ĠÐ¿Ð¾Ð´ÑĢÐ¾Ð±": 2519,
      "Ð¸ÑĩÐ½Ð¾": 2520,
      "AR": 2521,
      "ÐĹ": 2522,
      "Ġfrom": 2523,
      "ĠÐ¿ÑĢÐ¸Ð±": 2524,
      "ĠÐŁÑĢÐµÐ´": 2525,
      "Ex": 2526,
      "ĠÐ¼ÐµÐ½ÐµÐµ": 2527,
      "ĠÑĦÐ¾ÑĢÐ¼Ð°ÑĤ": 2528,
      "ĠÐļÑĢÐ¾Ð¼Ðµ": 2529,
      "aram": 2530,
      "ĠÐ»Ð¾Ðº": 2531,
      "ĠÑĤÑĢÐ¸": 2532,
      "ĠÐ¾ÑģÐ½Ð¾Ð²Ðµ": 2533,
      "ĠÐ¾ÑĤÐ¿ÑĢÐ°Ð²": 2534,
      "ray": 2535,
      "Ðķ": 2536,
      "Ð¸ÑĤÐµÐºÑĤ": 2537,
      "yth": 2538,
      "yn": 2539,
      "ĠÐ¿ÑĢÐ¾Ð³ÑĢÐ°Ð¼Ð¼Ñĭ": 2540,
      "Ð¾Ð¼Ð¸Ð½": 2541,
      "Ġas": 2542,
      "ÑĪÑĤ": 2543,
      "Ġvoid": 2544,
      "ĠÐ±ÑĥÐ´ÑĥÑī": 2545,
      "ĠÑĦÐ¸Ð»ÑĮ": 2546,
      "ÑĭÐ´": 2547,
      "ĠÐ¿ÑĢÐµÐ²": 2548,
      "ĠÐ¿Ð¾ÑģÑĤÐ¾ÑıÐ½": 2549,
      "ĠInt": 2550,
      "ĠÐ¼Ð°Ñģ": 2551,
      "ĠÐ»ÑİÐ´Ð¸": 2552,
      "Ð°Ð½Ð°Ð²": 2553,
      "Ð¾Ð²Ð°ÑĢ": 2554,
      "ĠÑģÑĤÐ°ÑĢÑĤ": 2555,
      "ĠÑģÐ¸Ð³Ð½": 2556,
      "ĠHT": 2557,
      "Ġro": 2558,
      "Ð¸ÐºÐ¾Ð²": 2559,
      "Ð¾Ð·Ð´Ð°": 2560,
      "Ġk": 2561,
      "ÐµÐ¹Ð¼": 2562,
      "ĠÑįÐ»ÐµÐºÑĤÑĢÐ¾Ð½": 2563,
      "ÑĢÑĥÑĤ": 2564,
      "ĠÐ¿Ð¾ÑĩÑĤÐ¸": 2565,
      "ĠÑĥÐ½": 2566,
      "ĠÑģÐ¾Ð±Ð¾Ð¹": 2567,
      "ĠÑĨÐµÐ½ÑĤ": 2568,
      "ĠÑĢÐµÐ¿": 2569,
      "ib": 2570,
      "ÑıÑİÑĤ": 2571,
      "ĠÐ¾Ð±Ð½Ð°ÑĢÑĥÐ¶": 2572,
      "ĠÐ½Ð°ÑģÑĤÑĢÐ¾": 2573,
      "ĠÐ±Ð¾Ð»ÑĮÑĪÐ¸Ð½": 2574,
      "ĠZ": 2575,
      "ĠÑģÑĤÐ°ÑĤÑĮÐµ": 2576,
      "ĠÐ¿Ð¾ÑĢÑıÐ´": 2577,
      "ĠÑģÐ¾ÑģÑĤÐ¾": 2578,
      "Ð°ÑĤÐµÐ»ÐµÐ¹": 2579,
      "ÑįÐº": 2580,
      "ĠÐ¿Ð¾Ð³": 2581,
      "ep": 2582,
      "ĠÑĥÑģÑĤÑĢÐ¾Ð¹ÑģÑĤÐ²Ð°": 2583,
      "Ð¹ÑĤÐµ": 2584,
      "Ð°Ð²Ð°Ð¹ÑĤÐµ": 2585,
      "Ġ==": 2586,
      "Ð¸ÑĤÑĭ": 2587,
      "Ð¾Ð¼Ð½": 2588,
      "ÑıÐ²Ð»Ñı": 2589,
      "ĠÑģÐ²Ð¾Ð¸Ñħ": 2590,
      "ĠÑĢÑĥÐºÐ¾Ð²Ð¾Ð´": 2591,
      "ink": 2592,
      "Ð¾Ð¶Ð°Ð»": 2593,
      "ĠÐµÐ¼Ñĥ": 2594,
      "file": 2595,
      "Ð¸Ð½Ð°Ð¼": 2596,
      "ĠÐ¼Ð¸Ð»Ð»Ð¸": 2597,
      "ĠÐ¼ÐµÑħ": 2598,
      "ĠÐ¾Ð¶Ð¸Ð´": 2599,
      "ĠÐºÐ¾Ð½ÑĦÐ¸Ð³ÑĥÑĢ": 2600,
      "Ġwith": 2601,
      "ies": 2602,
      "ĠÐ»ÑİÐ±Ð¾Ð¹": 2603,
      "amp": 2604,
      "ÑĪÐ¸Ðµ": 2605,
      "ĠÐºÐ½Ð¸Ð³": 2606,
      "ak": 2607,
      "ĠÐ´Ð°ÑĤ": 2608,
      "Ð¤": 2609,
      "ĠÐ¿Ð¾ÑĩÐµÐ¼Ñĥ": 2610,
      "ÑĢÐµÐ½Ð¸Ñı": 2611,
      "ust": 2612,
      "ĠÑģÑĤÐ°Ð»": 2613,
      "ÑĩÐ¸Ð²": 2614,
      "Ġset": 2615,
      "ĠÐ¸ÑģÐ¿Ð¾Ð»ÑĮÐ·ÑĥÐµÐ¼": 2616,
      "lock": 2617,
      "ĠÑĢÑĥÐ±": 2618,
      "ĠÐºÐ¾ÑĤÐ¾ÑĢÐ¾Ð³Ð¾": 2619,
      "ĠÐºÑĢÑĥÐ¿": 2620,
      "Ġ30": 2621,
      "ĠÐ²Ð½ÐµÑĪ": 2622,
      "\">": 2623,
      "Ð»ÑİÐ´": 2624,
      "ÐµÐ½Ð½ÑĭÐ¼": 2625,
      "ĠÐ¸Ð³ÑĢÑĭ": 2626,
      "Ð°ÑİÑīÐ¸Ðµ": 2627,
      "ĠÐ¿Ð¾ÑģÑĤÑĢÐ¾": 2628,
      "Ġdef": 2629,
      "Ð¾Ð´Ñĭ": 2630,
      "Ð¾Ð²Ð°Ð»": 2631,
      "ĠÐ½ÐµÐ·": 2632,
      "OM": 2633,
      "ĠÐ±ÐµÐ·Ð¾Ð¿Ð°ÑģÐ½Ð¾ÑģÑĤÐ¸": 2634,
      "Ð¿ÑĢÐ¾ÑģÑĤÑĢÐ°Ð½": 2635,
      "ĠÑĢÐµÐºÐ»Ð°Ð¼": 2636,
      "ĠÐ³ÑĢ": 2637,
      "Ð°ÐºÑĤÐµÑĢ": 2638,
      "data": 2639,
      "ÑıÑİÑī": 2640,
      "Ġli": 2641,
      "Ð°Ð»ÑĮÐ½ÑĭÐ¼": 2642,
      "quest": 2643,
      "ÐµÐ´Ð¶": 2644,
      "ĠÐ¿Ð¾Ñħ": 2645,
      "ĠÑģÐ¾Ð±Ð¸ÑĢ": 2646,
      "\")": 2647,
      "ĠÐ·Ð°ÑıÐ²": 2648,
      "ĠÑģÑĤÐ°Ð½Ð¾Ð²": 2649,
      "ÑģÑĤÐ°Ð½Ð¾Ð²": 2650,
      "ÐºÐ»Ð°Ð´": 2651,
      "Ġ)": 2652,
      "Ð¾ÑģÑĤÐ°Ð²Ð»Ñı": 2653,
      "ĠÑģÐ¸ÑģÑĤÐµÐ¼Ñĥ": 2654,
      "Ð²ÐµÑĢÐ¶": 2655,
      "ty": 2656,
      "ĠÐ¸Ð½ÑĤÐµÑĢÐ½ÐµÑĤ": 2657,
      "ok": 2658,
      "ĠÑģÐ»ÑĥÑĩÐ°Ð¹": 2659,
      "Ð°Ð½Ð½ÑĭÑħ": 2660,
      "ĠÐ¿Ð¾Ð»Ð½Ð¾ÑģÑĤÑĮÑİ": 2661,
      "ÑģÑĤÐ²ÐµÐ½Ð½Ð¾": 2662,
      "ÑĭÐ´ÑĥÑī": 2663,
      "Ġimport": 2664,
      "Ð¾Ð»Ð¾": 2665,
      "ĠÐ¿ÐµÑĢÐ²ÑĭÐ¹": 2666,
      "Ġget": 2667,
      "ĠÐĲÐ½": 2668,
      "erver": 2669,
      "Ð¨": 2670,
      "ĠÐºÐ¾Ð½ÐµÑĩÐ½Ð¾": 2671,
      "ython": 2672,
      "ÑģÐ¾Ð½": 2673,
      "ĠâĢ¢": 2674,
      "ĠÐ¼Ð°ÑģÑģÐ¸Ð²": 2675,
      "ĠÐ³ÐµÐ½ÐµÑĢ": 2676,
      "ĠÑĦÐ°ÐºÑĤ": 2677,
      "og": 2678,
      "Ð¾Ð·Ð¼Ð¾Ð¶Ð½Ð¾": 2679,
      "ĠÐ¡Ð°Ð¼": 2680,
      "ĠÑĦÑĥÐ½ÐºÑĨÐ¸Ñı": 2681,
      "ĠMicrosoft": 2682,
      "Ð²Ñĭ": 2683,
      "ĠÑĢÐµÐºÐ¾Ð¼": 2684,
      "ĠÐ¾Ð´Ð½Ð¾": 2685,
      "ÑģÑıÑĩ": 2686,
      "ĠAndroid": 2687,
      "ÑģÑĤÑĢÑĥÐº": 2688,
      "ĠÑĥÐ»ÑĥÑĩÑĪ": 2689,
      "ĠÐºÐ¾ÑĤÐ¾ÑĢÑĥÑİ": 2690,
      "uild": 2691,
      "----------------": 2692,
      "ĠIP": 2693,
      "ĠÐ¸Ð½ÑĦ": 2694,
      "OR": 2695,
      "ĠÐ¸Ð·Ð±": 2696,
      "ĠÐ²Ð¾Ð·Ð²ÑĢÐ°Ñī": 2697,
      "ÑģÑĤÑĥÐ¿": 2698,
      "ĠÐłÐ¾ÑģÑģÐ¸Ð¸": 2699,
      "ĠÐ¿ÑĢÐ¾ÑĤÐ¸Ð²": 2700,
      "ance": 2701,
      "Ð°Ð±Ð»Ð¾Ð½": 2702,
      "ource": 2703,
      "ĠÐ½Ð°Ð¶": 2704,
      "Ð¼Ð°ÑĤÑĢ": 2705,
      "ĠÑıÐ´": 2706,
      "ĠÐ²Ð·Ð°Ð¸Ð¼Ð¾Ð´ÐµÐ¹ÑģÑĤÐ²": 2707,
      "load": 2708,
      "ÑģÐºÐ¸Ðµ": 2709,
      "ĠÐ½ÐµÐ´Ð¾ÑģÑĤ": 2710,
      "ÑģÑĤÑĢÑĥÐºÑĤ": 2711,
      "ĠÐ´ÐµÐ»Ðµ": 2712,
      "ĠÐºÐ¾Ð½ÐºÑĥÑĢ": 2713,
      "ĠÐ¸Ð½ÑĤÐµÑĢÑĦÐµÐ¹Ñģ": 2714,
      "ÑıÐ¶": 2715,
      "Ð¸ÑĢÑĥÐµÑĤÑģÑı": 2716,
      "Ð°Ð½Ð½ÑĭÐ¹": 2717,
      "....": 2718,
      "14": 2719,
      "Ð»Ð¾Ð¼": 2720,
      "Ð»Ð¸ÑĪ": 2721,
      "ĠÐ¼ÐµÐ½ÑĮÑĪÐµ": 2722,
      "ĠÑģÐ¼Ð¾Ð¶": 2723,
      "ĠÑģÑħÐµÐ¼": 2724,
      "ĠÐ²Ð¾Ð·Ð¼Ð¾Ð¶Ð½Ð¾": 2725,
      "ĠThe": 2726,
      "ĠÐĶÐ°": 2727,
      "ĠÑģÐ¾ÑģÑĤÐ°Ð²": 2728,
      "Ġ#####": 2729,
      "ĠÐ½Ð¾Ð¼": 2730,
      "ĠÐ¸ÑģÑĤÐ¾Ñĩ": 2731,
      "riv": 2732,
      "ÑĥÐ½Ð´": 2733,
      "ĠÐ¿ÑĢÐ¾Ñĩ": 2734,
      "ĠÑĦÐ¸Ð½": 2735,
      "ark": 2736,
      "reate": 2737,
      "Ð¸ÑĤÐ°": 2738,
      "Ð¾ÑıÑī": 2739,
      "work": 2740,
      "ĠÐ°Ð½Ð°Ð»Ð¾Ð³": 2741,
      "ĠÑģÐ¾Ð¾ÑĤÐ²ÐµÑĤÑģÑĤÐ²ÑĥÑİÑī": 2742,
      "ask": 2743,
      "Ð°ÑİÑīÐ¸Ð¹": 2744,
      "ÐµÐ½Ð¸": 2745,
      "ĠÑĪÐ¸ÑĢ": 2746,
      "ary": 2747,
      "Ġan": 2748,
      "Ð¸Ð·Ñĥ": 2749,
      "Ð½ÐµÑĢÐ³": 2750,
      "Ð´ÐµÐºÑģ": 2751,
      "ys": 2752,
      "Ð¾Ð²Ð°Ð»Ð¸": 2753,
      "eth": 2754,
      "ĠÐ¿ÐµÑĢÐµÑħÐ¾Ð´": 2755,
      "alse": 2756,
      "ĠÐºÐ°ÑĢ": 2757,
      "99": 2758,
      "ĠÐ¾Ð±Ð»Ð°ÑģÑĤÐ¸": 2759,
      "ell": 2760,
      "ĠÐĺÐ½ÑĤÐµÑĢ": 2761,
      "ÑĭÑģÐ»": 2762,
      "Ġname": 2763,
      "read": 2764,
      "ĠÐĿÑĥ": 2765,
      "ĠÐ¿Ð¾Ð´Ð¿Ð¸Ñģ": 2766,
      "AN": 2767,
      "Ð¾ÐºÐ°": 2768,
      "~~": 2769,
      "ĠÐ¾ÑĤÐ½Ð¾Ñģ": 2770,
      "ĠÑĢÐ°ÑģÐ¿ÑĢÐ¾ÑģÑĤÑĢÐ°Ð½": 2771,
      "ĠÐ°ÑĥÐ´": 2772,
      "ĠÐ¿Ð¸ÑĪ": 2773,
      "ÑĥÐ²": 2774,
      "Ð°Ð»Ñĭ": 2775,
      "13": 2776,
      "ĠÐ¼Ð¸Ð½ÑĥÑĤ": 2777,
      "ĠÐ°Ð»Ð³Ð¾ÑĢÐ¸ÑĤÐ¼": 2778,
      "ĠÐŀÐ½Ð¸": 2779,
      "ual": 2780,
      "ĠÑģÑĥÐ¼": 2781,
      "ĠÐķÑģÑĤÑĮ": 2782,
      "ĠÐ¿ÑĢÐµÐ´ÑĭÐ´ÑĥÑī": 2783,
      "ĠÑĨÐ¸Ðº": 2784,
      "ĠÐ¿Ð¾Ð»Ð¾Ð¶": 2785,
      "Ð»Ð°Ð¹Ð½": 2786,
      "ĠÐ°ÑĢÑħÐ¸ÑĤÐµÐºÑĤ": 2787,
      "ĠÐ¿ÑĢÐ¸Ð½Ð¸Ð¼": 2788,
      "ÐµÑĩÑĮ": 2789,
      "Ð°Ð»Ð¸ÑĤ": 2790,
      "ÐµÑĢÐ¸Ð¼": 2791,
      "ĠÑģÐ¿ÑĢ": 2792,
      "ĠÑħÐ°ÑĢ": 2793,
      "Ð°Ð»ÑĮÐ½Ð¾Ð¼": 2794,
      "ĠÑĥÑģ": 2795,
      "ĠÐ¿ÑĢÐ¸Ð¼ÐµÑĢÐ½Ð¾": 2796,
      "Ð½ÐµÐ²": 2797,
      "ĠÐ»ÐµÐ³ÐºÐ¾": 2798,
      "Ð¾ÑĤÐ¾": 2799,
      "ĠÐĺÑģÐ¿": 2800,
      "ĠÑģÐ¿ÐµÑĨÐ¸Ð°Ð»Ð¸ÑģÑĤ": 2801,
      "ma": 2802,
      "Con": 2803,
      "ĠÐ¾Ð´Ð½Ð°": 2804,
      "24": 2805,
      "ĠÐ½Ð¾ÑĢÐ¼": 2806,
      "Ð¾Ð»Ñĩ": 2807,
      "ĠÐ½Ð¸Ð¶Ðµ": 2808,
      "ĠÐ´ÐµÑģÑı": 2809,
      "ĠÐ´Ðµ": 2810,
      "ere": 2811,
      "ĠÐ±Ð»Ð°Ð³": 2812,
      "oint": 2813,
      "ge": 2814,
      "ÑĭÐ»": 2815,
      "Ð¸Ð²ÐµÑĢÑģ": 2816,
      "ĠÑģÐ¼Ð¾Ð³": 2817,
      "ÑıÐ»Ð¸": 2818,
      "Ġ25": 2819,
      "ĠÑĢÐ°Ð¼": 2820,
      "ĠÐ¾Ð±ÑĭÑĩÐ½Ð¾": 2821,
      "ĠÑĤÐ¾Ð¼Ñĥ": 2822,
      "ĠÐ·Ð°Ð¿ÑĥÑģÑĤ": 2823,
      "ĠÑĦÐ¸Ð·": 2824,
      "ĠÑĤÐ¾Ð³Ð´Ð°": 2825,
      "ÐµÑĢÐ¾Ð¼": 2826,
      "ĠÐ¼Ð¾Ñī": 2827,
      "ÐµÐºÑģÑĤ": 2828,
      "ĠÐºÐ°ÑĢÑĤÐ¸Ð½": 2829,
      "Ġcont": 2830,
      "Ð½Ð¸ÑĨ": 2831,
      "ĠÑģÐ¾Ð²ÑĢÐµÐ¼": 2832,
      "âĢĻ": 2833,
      "ĠÐ¸ÑĤÐ¾Ð³Ðµ": 2834,
      "TP": 2835,
      "ĠÐ·Ð°ÐºÐ»ÑİÑĩ": 2836,
      "ĠÑĢÐ°Ð·ÑĢÐ°Ð±Ð¾ÑĤÑĩÐ¸ÐºÐ¾Ð²": 2837,
      "ÑģÑĤÐ²Ðµ": 2838,
      "ĠÑĤÑĢÑĥÐ´": 2839,
      "ĠÑĤÐ°ÐºÐ¸Ð¼": 2840,
      "ĠÐ¢Ð¾": 2841,
      "ĠÑĥÑģÐ¿ÐµÑĪ": 2842,
      "ĠÐ½Ð°ÑĥÑĩ": 2843,
      "ĠÑĢÐµÐ°Ð»Ð¸Ð·Ð°ÑĨÐ¸Ð¸": 2844,
      "ĠCh": 2845,
      "ach": 2846,
      "ÑĪÑĤÐ°Ð±": 2847,
      "Ġar": 2848,
      "Ð°Ð»ÑĮÐ½ÑĥÑİ": 2849,
      "ÐµÐ¼Ð¾Ð½": 2850,
      "ĠÐ²ÐµÑĢÐ¾ÑıÑĤ": 2851,
      "ĠÐ²Ð¾Ð¿ÑĢÐ¾ÑģÑĭ": 2852,
      "ÐµÐ½Ñģ": 2853,
      "Ð°Ñī": 2854,
      "ĠÑĤÑĭÑģÑıÑĩ": 2855,
      "sc": 2856,
      "ÑĳÑĢ": 2857,
      "ĠÑĢÐ°ÑģÐ¿": 2858,
      "ÐĽ": 2859,
      "ĠÑĢÐ°Ð·ÑĢÐµÑĪ": 2860,
      "ĠÐ±ÐµÑģÐ¿Ð»Ð°ÑĤ": 2861,
      "ĠÐ¾ÑĤÐ¾Ð±ÑĢÐ°Ð¶": 2862,
      "Ġdata": 2863,
      "ĠÐ¿ÑĭÑĤ": 2864,
      "ov": 2865,
      "ÐµÐ½Ð½Ð¾Ðµ": 2866,
      "ĠÐ¿ÑĢÐ¾ÑģÑĤÑĢÐ°Ð½": 2867,
      "Ð»Ð°Ð²": 2868,
      "ĠÑĢÐµÐ»": 2869,
      "View": 2870,
      "Ġal": 2871,
      "ÑıÑĤÑĮÑģÑı": 2872,
      "Ð¾ÑĤÑĭ": 2873,
      "ĠÐ¿Ð¾ÑĢÑĤ": 2874,
      "ĠÐºÐ¾Ð½Ñģ": 2875,
      "ĠÑĤÐ°ÐºÐ¾Ð³Ð¾": 2876,
      "ĠÐ½Ð°ÑĩÐ°Ð»Ð°": 2877,
      "ĠÐľÐ¾Ð¶Ð½Ð¾": 2878,
      "Ð¾Ð¿ÑĢ": 2879,
      "ÐµÐ½ÑĨÐ¸": 2880,
      "ĠÐŁÐŀ": 2881,
      "ĠÐ·Ð°ÑĤÐµÐ¼": 2882,
      "ps": 2883,
      "ÑĢÐ°Ð±Ð°ÑĤ": 2884,
      "DE": 2885,
      "ĠTh": 2886,
      "ĠÑħÐ¾Ð´": 2887,
      "ĠÐ¿Ð¾ÑģÐºÐ¾Ð»ÑĮÐºÑĥ": 2888,
      "ÐµÑĢÑĪ": 2889,
      "ĠÐ´Ð¾ÑģÑĤÑĥÐ¿Ð°": 2890,
      "ĠÐ¸Ð½ÑĤÐµÐ³ÑĢ": 2891,
      "ĠÑįÐ»ÐµÐ¼ÐµÐ½ÑĤ": 2892,
      "ĠÐ¾Ð½Ð¾": 2893,
      "ÑĢÑĥÑĪ": 2894,
      "ĠÐºÐ¾Ñģ": 2895,
      "ĠÑģÐµÑĢ": 2896,
      "atic": 2897,
      "ĠÑģÐµÐ³Ð¾Ð´Ð½Ñı": 2898,
      "ĠÐ²ÑģÑĤÑĢÐµÑĩ": 2899,
      "Id": 2900,
      "')": 2901,
      "ĠÐ·Ð°Ð²Ð¸ÑģÐ¸Ð¼Ð¾ÑģÑĤÐ¸": 2902,
      "ĠÐºÑĢÐ°Ñģ": 2903,
      "ÑĩÑĳÑĤ": 2904,
      "Ð»ÐµÐ½Ð¸Ð¹": 2905,
      "ĠÐ¡Ð¿": 2906,
      "ery": 2907,
      "ÐºÐ°Ð¼": 2908,
      "AM": 2909,
      "ĠÑģÐ¼ÑĭÑģÐ»": 2910,
      "ĠÑĪÐ°Ð±Ð»Ð¾Ð½": 2911,
      "Ð³Ð¸": 2912,
      "Ð»ÐµÑĤ": 2913,
      "ĠÐ´Ð¸ÑĢ": 2914,
      "Ð¸Ñī": 2915,
      "ĠÑģÐ»ÑĥÐ¶": 2916,
      "ĠÐ¸ÑģÐ¿Ð¾Ð»ÑĮÐ·ÑĥÐµÑĤ": 2917,
      "ĠÐ²Ð½ÑĥÑĤÑĢÐµÐ½": 2918,
      "Ð¸ÑĤÐµÐ»Ñı": 2919,
      "ĠÐ½Ð°ÑĪÐµÐ¹": 2920,
      "ĠÐ´Ð²Ðµ": 2921,
      "Ð¸Ð±Ð¾Ð»ÐµÐµ": 2922,
      "Ð²Ð¾": 2923,
      "ĠÑĦÐ°Ð¹Ð»Ð¾Ð²": 2924,
      "ĠÐ¾ÑģÑĤÐ°Ð²": 2925,
      "Ð»ÐµÐ½Ð¸Ð¸": 2926,
      "ĠÑİ": 2927,
      "Ð·Ñı": 2928,
      "ĠÐ¼ÐµÑģÑĤÐ¾": 2929,
      "ĠÐ²Ð½ÐµÐ´": 2930,
      "ĠÐĹÐ´ÐµÑģÑĮ": 2931,
      "60": 2932,
      "Script": 2933,
      "Ð¾ÑģÐº": 2934,
      "ĠÑĤÐµÑħÐ½Ð¾Ð»Ð¾Ð³Ð¸Ð¸": 2935,
      "ĠÑģÐ¾ÐµÐ´Ð¸Ð½": 2936,
      "ÑĳÑĤÑģÑı": 2937,
      "Ð°ÐºÐ¾Ð²": 2938,
      "ÐµÐ²Ð¸Ð´": 2939,
      "ĠÐ²ÑĭÐ³Ð»ÑıÐ´Ð¸ÑĤ": 2940,
      "Ġ11": 2941,
      "Ġ->": 2942,
      "Ð¸Ð±ÑĥÐ´ÑĮ": 2943,
      "roup": 2944,
      "ĠÑģÐµÑĢÐ²ÐµÑĢÐ°": 2945,
      "ĠÐ¸ÑģÐ¿Ð¾Ð»Ð½": 2946,
      "ĠÐĴÑģ": 2947,
      "ĠÐ¾ÐºÐ¾Ð»Ð¾": 2948,
      "Ð¾Ð»Ð½Ðµ": 2949,
      "ĠÑģÐ¾Ð²ÑģÐµÐ¼": 2950,
      "ĠÐ´Ð»Ð¸": 2951,
      "Data": 2952,
      "ĠÐ¼Ð°ÑĪÐ¸Ð½": 2953,
      "cont": 2954,
      "ache": 2955,
      "date": 2956,
      "anag": 2957,
      "ĠÐ¿Ð¾Ð¿ÑĭÑĤ": 2958,
      "Ġel": 2959,
      "ĠÐ´Ð¾Ð»Ð¶Ð½Ð°": 2960,
      "Ð°ÑģÑĤÑĮ": 2961,
      "ĠÐºÑĢÐ¸ÑĤ": 2962,
      "def": 2963,
      "ĠCon": 2964,
      "ÐµÐ¶Ð´": 2965,
      "ĠApple": 2966,
      "String": 2967,
      "ens": 2968,
      "ĠÐ¢Ð°ÐºÐ¸Ð¼": 2969,
      "ĠÑĢÑıÐ´": 2970,
      "ĠÐ¿Ð¾Ð½ÑıÑĤÑĮ": 2971,
      "ĠÐ·Ð°Ð¿ÑĥÑģÐºÐ°": 2972,
      "ĠÐ¼Ð½Ð¾Ð³Ð¸Ðµ": 2973,
      "ĠÐ¸Ð¼ÐµÑĤÑĮ": 2974,
      "ĠÐ¿Ð¾Ð²ÑĤÐ¾ÑĢ": 2975,
      "ĠÐ¿ÐµÑĢÑģÐ¾Ð½": 2976,
      "ĠÐŃÑĤÐ¾ÑĤ": 2977,
      "ault": 2978,
      "ĠCo": 2979,
      "ĠÑħÐ°ÑĢÐ°ÐºÑĤÐµÑĢ": 2980,
      "ĠÐ¾Ð±Ñģ": 2981,
      "ĠÐ¾ÑĤÑģÑĥÑĤÑģÑĤÐ²": 2982,
      "ÑģÐºÐ¾Ð¼": 2983,
      "ĠÑģÐ°Ð¹ÑĤÐ°": 2984,
      "ĠÑģÐ°Ð¹ÑĤÐµ": 2985,
      "ĠÐ´Ð¾Ð±Ð°Ð²Ð¸ÑĤÑĮ": 2986,
      "ÐµÐ²Ð¾Ð¹": 2987,
      "ence": 2988,
      "Ð¸ÑĤÐµÐ»Ð¸": 2989,
      "ĠÐ¾ÑĤÐºÐ°Ð·": 2990,
      "essage": 2991,
      "dd": 2992,
      "ert": 2993,
      "ĠÑĢÐ°Ð±Ð¾ÑĤÐ°": 2994,
      "ĠÐ¼Ð»": 2995,
      "ÐºÐ¸Ðµ": 2996,
      "ĠÐ¿ÑĢÐ¾Ð±Ð»ÐµÐ¼Ð°": 2997,
      "ĠÐ²Ð»Ð¸Ñı": 2998,
      "ÑıÐ±": 2999,
      "ĠÐ·Ð½Ð°ÑĩÐ¸ÑĤ": 3000,
      "les": 3001,
      "ĠUn": 3002,
      "Ð¸Ð¾Ð´": 3003,
      "IT": 3004,
      "Ð½Ð°ÑĩÐ°Ð»Ð°": 3005,
      "Ð°Ð¶ÐµÑĤÑģÑı": 3006,
      "Ð½Ð¸Ð±ÑĥÐ´ÑĮ": 3007,
      "ome": 3008,
      "Ð»Ð¸ÑĪÐºÐ¾Ð¼": 3009,
      "ĠÐĺÐ¼": 3010,
      "ĠÑģÐ¸Ð»ÑĮÐ½Ð¾": 3011,
      "ĠÑĥÑģÐ»ÑĥÐ³": 3012,
      "ĠÑģÐºÐ°Ð·Ð°ÑĤÑĮ": 3013,
      "Ð°ÑĢÑĥ": 3014,
      "ree": 3015,
      "ĠÐ´Ð¾Ð»Ð¶Ð½Ð¾": 3016,
      "ĠÑģÐ¸Ð»": 3017,
      "Ð¿Ð¾Ð»ÑĮÐ·": 3018,
      "ĠÐ¾Ð±Ð¾ÑĢÑĥÐ´": 3019,
      "ange": 3020,
      "ĠÐ¿ÑĢÐ°ÐºÑĤÐ¸ÑĩÐµÑģÐºÐ¸": 3021,
      "ĠÑĤÐ¾Ð²Ð°ÑĢ": 3022,
      "ĠÑĩÐµÐ»Ð¾Ð²ÐµÐºÐ°": 3023,
      "ÑĢÐ°ÑģÑĤÑĢÑĥÐºÑĤ": 3024,
      "Ġsh": 3025,
      "Ð¾Ð²Ð¾Ð³Ð¾": 3026,
      "Ð¨ÐĲ": 3027,
      "ĠÐ¼Ð¾Ð´ÐµÐ»": 3028,
      "ÐµÐ»ÑĮÐ·Ñı": 3029,
      "ĠÐ½Ð¸Ð¼": 3030,
      "ĠÐ½Ð°ÑħÐ¾Ð´Ð¸ÑĤÑģÑı": 3031,
      "ÑħÑĢÐ¾Ð½": 3032,
      "ĠÐ½ÐµÑģÐºÐ¾Ð»ÑĮÐºÐ¸Ñħ": 3033,
      "ĠÐ²Ð¼ÐµÑģÑĤÐ¾": 3034,
      "ĠÑĢÐ°Ð²": 3035,
      "ĠÐ¿ÑĢÐ¾Ð³ÑĢÐ°Ð¼Ð¼Ð¸ÑģÑĤ": 3036,
      "ear": 3037,
      "ĠÐŁÑĢÐ¸Ð¼ÐµÑĢ": 3038,
      "ĠÐ½Ð°Ð»Ð¸Ñĩ": 3039,
      "ĠÑĢÐ°Ð´Ð¸": 3040,
      "ener": 3041,
      "ĠLinux": 3042,
      "Ð½Ð¾Ð²Ð°Ð½": 3043,
      "ÐµÐ»Ð¾": 3044,
      "Ð°ÑĤÑĭ": 3045,
      "Ð°Ð»Ð»": 3046,
      "ĠÐ´ÑĢ": 3047,
      "ÐµÑĢÐµÐ²": 3048,
      "17": 3049,
      "AL": 3050,
      "Ġ14": 3051,
      "ĠÐºÐ°Ð¶Ð´Ð¾Ð¹": 3052,
      "ĠÐ´Ð¸Ð·Ð°Ð¹Ð½": 3053,
      "Ġ50": 3054,
      "ĠÑĥÐ¿ÑĢÐ°Ð²Ð»Ñı": 3055,
      "ĠÐ¶Ð¸Ð·Ð½Ð¸": 3056,
      "ĠÐ¸ÑģÐ¿Ð¾Ð»ÑĮÐ·Ð¾Ð²Ð°Ð½Ð¸Ðµ": 3057,
      "ĠÑģÐ¾Ð·Ð´Ð°": 3058,
      "Ð¾Ð´Ð°ÑĢÑı": 3059,
      "ÐµÐ½Ð½ÑĥÑİ": 3060,
      "ĠÐ¾ÑĤÐ²ÐµÑĩ": 3061,
      "ĠÐ½Ð°Ð³ÑĢÑĥÐ·": 3062,
      "ĠÑģÑĩÐµÑĤ": 3063,
      "ĠÐ½ÐµÐ¿ÑĢ": 3064,
      "ĠÑħÐ¾ÑĤÐµÐ»": 3065,
      "ĠÑģÐ¸Ð¼Ð²Ð¾Ð»": 3066,
      "ĠÐ´ÐµÐ¹ÑģÑĤÐ²Ð¸ÑĤÐµÐ»ÑĮÐ½Ð¾": 3067,
      "ĠÐ²Ð°Ð¶Ð½Ð¾": 3068,
      "ĠÑĥÑĢÐ¾Ð²Ð½Ñı": 3069,
      "Ð¾ÐºÐ¾Ð»": 3070,
      "ĠÐºÐ¾Ð¼Ð¼ÐµÐ½ÑĤÐ°ÑĢ": 3071,
      "Ð¾Ð³ÑĢÐ°Ð¼Ð¼": 3072,
      "Ð¸Ð³ÑĢ": 3073,
      "ĠÑĤÐ¾ÑĢ": 3074,
      "ĠÐ¿ÑĥÐ±Ð»Ð¸Ðº": 3075,
      "Ð»ÐµÐ½Ñĭ": 3076,
      "ĠÐ·Ð°ÐºÑĢ": 3077,
      "ĠÐ¾ÑĩÐµÑĢÐµÐ´ÑĮ": 3078,
      "ÐµÑĢÑĥ": 3079,
      "Ð°ÑĤÐµÐ»Ñı": 3080,
      "Type": 3081,
      "ĠÐ¿ÐµÑĢÐµÐ´Ð°Ñĩ": 3082,
      "18": 3083,
      "ĠIT": 3084,
      "ĠÑģÐ¼Ð°ÑĢÑĤ": 3085,
      "ĠÑĢÐµÐ·ÑĥÐ»ÑĮÑĤÐ°ÑĤÐµ": 3086,
      "($": 3087,
      "ĠÑĢÐ°Ð·Ð»Ð¸ÑĩÐ½ÑĭÑħ": 3088,
      "ĠÑįÐºÑģÐ¿ÐµÑĢÐ¸Ð¼": 3089,
      "Ð»Ð¸Ð±Ð¾": 3090,
      "ervice": 3091,
      "ĠÐ»Ð¸Ñĩ": 3092,
      "ĠÑĢÐ°ÑģÐ¿ÑĢÐµÐ´ÐµÐ»": 3093,
      "ĠÑģÐ¸ÑģÑĤÐµÐ¼Ðµ": 3094,
      "Ġ!": 3095,
      "ĠÑĦÐ¾ÑĤ": 3096,
      "ÑĢÐ°Ñħ": 3097,
      "ĠÐ¿ÐµÑĢÐµÐº": 3098,
      "Ð¾Ð»ÑĩÐ°Ð½Ð¸Ñİ": 3099,
      "Ð°ÑĤÐ¸": 3100,
      "ÑģÐµÑĢÐ²": 3101,
      "ĠÑģÐ²Ð¾ÐµÐ³Ð¾": 3102,
      "ĠÑģÐ¾Ð³Ð»Ð°Ñģ": 3103,
      "ĠÐ¡Ð¨ÐĲ": 3104,
      "ÐŃ": 3105,
      "ĠÐ¡Ð¾": 3106,
      "Ð³ÑĢÐ¾Ð¼": 3107,
      "ĠÑĥÐ·Ð½": 3108,
      "ĠÐ³Ð¾Ð»": 3109,
      "ĠÐ´Ð¾Ð±Ð°Ð²Ð»Ñı": 3110,
      "];": 3111,
      "Ð¸Ð½ÑĤÐµÑĢ": 3112,
      "Ġ13": 3113,
      "ĠÑģÐ»Ð¸ÑĪÐºÐ¾Ð¼": 3114,
      "ĠOpen": 3115,
      "ĠÑįÐ½ÐµÑĢÐ³": 3116,
      "ĠÑĦÐ°Ð¹Ð»Ð°": 3117,
      "ĠÐ¾ÑĤÐ½Ð¾ÑĪ": 3118,
      "EN": 3119,
      "Ð¸Ð²Ð°ÑİÑĤ": 3120,
      "ĠÐºÐ¾Ð½ÑģÑĤÑĢÑĥÐº": 3121,
      "âĶ": 3122,
      "ong": 3123,
      "ĠÐ¿ÑĢÐ¾Ð¼": 3124,
      "ÑĢÐ¾Ð´Ðµ": 3125,
      "ĠÐ¼Ð°ÑģÑĪÑĤÐ°Ð±": 3126,
      "ĠWeb": 3127,
      "rite": 3128,
      "ĠÐ¶Ð¸Ð²": 3129,
      "user": 3130,
      "ĠÑĢÐ¾ÑģÑģ": 3131,
      "].": 3132,
      "ĠÐ½Ð°Ð·Ð°Ð´": 3133,
      "Ġnot": 3134,
      "nect": 3135,
      "ĠÐ¿ÑĢÐ¾ÑĦÐµÑģÑģ": 3136,
      "org": 3137,
      "Ð¾Ð»Ð¸": 3138,
      "eg": 3139,
      "Ð»ÐµÐ³": 3140,
      "ĠÑĢÐ¾Ð±": 3141,
      "ĠÐ·Ð°Ð¿Ð¸ÑģÐ¸": 3142,
      "ÑĭÑĩ": 3143,
      "ĠÑĢÐ°ÑģÑĤ": 3144,
      "ĠÐ¾Ð±ÑĢÐ°Ñī": 3145,
      "ĠÐ´Ð°Ð»ÑĮÑĪÐµ": 3146,
      "rc": 3147,
      "ĠÐ¾Ð´Ð½Ð¾Ð¼": 3148,
      "Ð¸ÑıÐ¼Ð¸": 3149,
      "ĠÑģÐµÐ¼": 3150,
      "Ð»Ð¾ÑģÑĮ": 3151,
      "ĠÐ¿Ð¾Ð±": 3152,
      "ĠÐ½ÐµÐ´ÐµÐ»": 3153,
      "Ð¾ÑģÑĤÐ°Ð²Ð»ÑıÐµÑĤ": 3154,
      "CT": 3155,
      "type": 3156,
      "ĠÐ´Ð°Ð½Ð½ÑĭÐ¹": 3157,
      "br": 3158,
      "ĠÐ¾ÑĤÐº": 3159,
      "ĠÐ¿ÑĢÐ¾Ð´Ð°Ð¶": 3160,
      "ĠÑģÐ°Ð¼Ð¾Ðµ": 3161,
      "ĠÐ°Ð¿Ð¿Ð°ÑĢ": 3162,
      "ÑĢÐ°ÑģÑĤ": 3163,
      "ĠÑģÐ¾Ð²Ð¼ÐµÑģÑĤ": 3164,
      "val": 3165,
      "rivate": 3166,
      "ĠÐ²ÑĭÐ¿Ð¾Ð»Ð½ÐµÐ½Ð¸Ñı": 3167,
      "heck": 3168,
      "ĠÐ¿Ð¾Ð²ÐµÑĢ": 3169,
      "ĠÐ·Ð°Ð²ÐµÑĢÑĪ": 3170,
      "ton": 3171,
      "ĠÐ¿ÐµÑĢÐµÐ²Ð¾Ð´": 3172,
      "ÐºÐ°Ñĩ": 3173,
      "uth": 3174,
      "Ð²ÐµÑĢÐ¶Ð´": 3175,
      "Ð¾Ð½Ð¾Ð²": 3176,
      "ĠÑĢÐµÐºÐ¾Ð¼ÐµÐ½Ð´": 3177,
      "Ġby": 3178,
      "ĠÐ¿ÑĢÐ¸Ð²Ð¾Ð´": 3179,
      "ÐµÐ½Ð·": 3180,
      "ave": 3181,
      "ĠÐ¿Ð¸ÑģÐ°ÑĤÑĮ": 3182,
      "col": 3183,
      "ĠÐ²Ð¿Ð¾Ð»Ð½Ðµ": 3184,
      "row": 3185,
      "ĠÑģÑĨÐµÐ½": 3186,
      "Ð¾Ð±Ð¾Ð´": 3187,
      "ĠÑĩÐ¸ÑģÐ»Ð¾": 3188,
      "ĠÐ°ÑĤÐ°Ðº": 3189,
      "ĠÐ²ÑģÑı": 3190,
      "Ch": 3191,
      "ĠÐ¿Ð¾ÑģÐ¼Ð¾ÑĤÑĢÐµÑĤÑĮ": 3192,
      "ĠÐ¿Ð°Ð¿": 3193,
      "ĠÑģÐ²ÐµÑĤ": 3194,
      "ĠÑģÑĤÑĢÐ¾": 3195,
      "min": 3196,
      "ĠÐ¿Ð¾Ð¼Ð¾ÑīÐ¸": 3197,
      "ÐµÑĩÐµÐ½Ð¸Ðµ": 3198,
      "ĠÐ·Ð°Ð¼ÐµÐ½": 3199,
      "ĠÐĺÑģÐ¿Ð¾Ð»ÑĮÐ·": 3200,
      "ĠÐ±Ð°Ð·Ðµ": 3201,
      "ĠÑĩÐ¸ÑģÐ»Ðµ": 3202,
      "ĠÐ¿Ð¾Ð´Ð³Ð¾ÑĤÐ¾Ð²": 3203,
      "ug": 3204,
      "Ð²Ð°": 3205,
      "AS": 3206,
      "Ġdo": 3207,
      "ĠÑĢÐµÐ¶Ð¸Ð¼Ðµ": 3208,
      "lient": 3209,
      "ÑįÑĪ": 3210,
      "Ġun": 3211,
      "ĠÐ¸Ð½Ð¶": 3212,
      "ĠÐºÐ»Ð¸ÐµÐ½ÑĤÐ¾Ð²": 3213,
      "ĠÐ²ÑĤÐ¾ÑĢÐ¾Ð¹": 3214,
      "ĠÐ¿ÑĢÐ¸Ð²ÐµÐ´": 3215,
      "\");": 3216,
      "comm": 3217,
      "ĠÐºÐ»Ð°ÑģÑģÐ°": 3218,
      "ÐµÐ½ÑĮÑĪ": 3219,
      "fo": 3220,
      "ÐµÐ¹Ð½": 3221,
      "ĠÐŁÐ¾Ñĩ": 3222,
      "ĠÐ·ÑĢÐµÐ½Ð¸Ñı": 3223,
      "ĠÐĺÑĤÐ°Ðº": 3224,
      "ĠÐºÐ¾Ð½ÑĨÐµ": 3225,
      "ake": 3226,
      "Ð¸Ð±ÑĥÑĤ": 3227,
      "Ġres": 3228,
      "ĠÑģÑĤÐ°Ð²": 3229,
      "ĠÐĹÐ°": 3230,
      "ĠÐĹÐ°Ð¿": 3231,
      "Ġtype": 3232,
      "21": 3233,
      "ĠSp": 3234,
      "Ð¸ÑĩÐµÑģÐºÐ°Ñı": 3235,
      "ĠÐ¿Ð¾Ð´ÑĤ": 3236,
      "iel": 3237,
      "ĠÑģÑĥÑĤ": 3238,
      "ĠÐ°Ð´Ð¼Ð¸Ð½": 3239,
      "ĠÐ²Ð¼ÐµÑģÑĤÐµ": 3240,
      "FF": 3241,
      "ÑĭÐ²Ð°ÑİÑĤÑģÑı": 3242,
      "ÑģÐºÐ°Ð¶": 3243,
      "ĠÐ½Ð°Ð¸Ð±Ð¾Ð»ÐµÐµ": 3244,
      "ĠÑĢÐµÐ³Ð¸ÑģÑĤÑĢ": 3245,
      "âĶĢ": 3246,
      "ĠÐ½Ð¾Ð²Ð¾Ð³Ð¾": 3247,
      "ĠÐ¿Ð¾Ð·Ð¸ÑĨ": 3248,
      "ĠÑĥÐ¼Ð¾Ð»ÑĩÐ°Ð½Ð¸Ñİ": 3249,
      "ĠÑĢÐ¾ÑģÑģÐ¸Ð¹": 3250,
      "Ð¸ÐµÐ½ÑĤ": 3251,
      "ĠÐ¾Ð³ÑĢÐ¾Ð¼": 3252,
      "ĠÐ½ÐµÐ»ÑĮÐ·Ñı": 3253,
      "ĠÑĥÑĢÐ¾Ð²ÐµÐ½ÑĮ": 3254,
      "ĠÐ¼ÐµÑħÐ°Ð½Ð¸Ð·": 3255,
      "Ð½Ñİ": 3256,
      "ĠÑĤÐµÐ¾ÑĢ": 3257,
      "ĠÐºÐ¾Ð¼Ð°Ð½Ð´Ð°": 3258,
      "ĠÐ¼Ð½Ð¾Ð¶ÐµÑģÑĤÐ²Ð¾": 3259,
      "List": 3260,
      "ĠÑģÐµÑĤÑĮ": 3261,
      "ĠÑįÑĤÐ¾Ð¼Ñĥ": 3262,
      "ĠÐ¿ÐµÑĢÐµÐ½": 3263,
      "own": 3264,
      "ĠÑĢÐ°Ð·Ð½ÑĭÐµ": 3265,
      "ĠÐ½ÐµÐºÐ¾ÑĤÐ¾ÑĢÑĭÑħ": 3266,
      "ĠÐ¸Ð¼ÐµÑİÑĤ": 3267,
      "ĠÐºÐ¾Ð¼Ð¿Ð°Ð½Ð¸Ð¹": 3268,
      "ĠÐ²ÑĭÐ±Ð¸ÑĢ": 3269,
      "ÑĢÐµÐ·": 3270,
      "ĠÐ¾ÑĪÐ¸Ð±ÐºÐ¸": 3271,
      "Ġ18": 3272,
      "Ð¸ÑĢÑĥÑİÑī": 3273,
      "ĠÐ¾Ð´Ð½Ñĥ": 3274,
      "ĠÑĩÑĤ": 3275,
      "ĠÐ¿Ð¾Ð²ÐµÐ´": 3276,
      "ĠÐ½Ð°ÑģÑĤÑĢÐ¾Ð¹ÐºÐ¸": 3277,
      "Ð»ÐµÐºÑģ": 3278,
      "####": 3279,
      "Ð¸Ð²Ð°Ð½Ð¸Ñı": 3280,
      "ĠÐ¾Ð±ÑĥÑĩÐµÐ½Ð¸Ñı": 3281,
      "ĠÑĥÐ½Ð¸Ð²ÐµÑĢÑģ": 3282,
      "ĠÑĤÑĢÐ°ÑĦ": 3283,
      "ĠÐ³Ð»ÑĥÐ±": 3284,
      "ĠÑıÐ²Ð»ÑıÑİÑĤÑģÑı": 3285,
      "udio": 3286,
      "Ð·Ð°Ðº": 3287,
      "Ð¿Ð¾Ð»Ð°Ð³": 3288,
      "ĠÐ±Ð¾Ð»ÑĮÑĪÐ¾Ð¹": 3289,
      "PU": 3290,
      "ee": 3291,
      "ĠÐºÐ»Ð°Ð²": 3292,
      "100": 3293,
      "ÑĢÑĥÑĩ": 3294,
      "Ð¾Ð½Ðµ": 3295,
      "ÑĩÐ¸ÐºÐ°": 3296,
      "ĠÑĦÑĥÐ½ÐºÑĨÐ¸Ñİ": 3297,
      "value": 3298,
      "ĠÑĢÐµÐ·ÑĥÐ»ÑĮÑĤÐ°ÑĤÑĭ": 3299,
      "Ð¾ÑģÑĢÐµÐ´": 3300,
      "Ð»Ð°ÑĢ": 3301,
      "ĠÐ°Ñģ": 3302,
      "ĠÐ¸Ð½ÑĦÑĢÐ°ÑģÑĤÑĢÑĥÐºÑĤ": 3303,
      "ĠÐ´ÐµÐ»Ð°ÐµÑĤ": 3304,
      "ĠÐ½Ð°ÑĪÐµÐ¼": 3305,
      "ĠÑĥÐ³": 3306,
      "ÑĥÐ½ÐºÑĤ": 3307,
      "Ð¸Ð¼ÑĥÑīÐµÑģÑĤÐ²": 3308,
      "Ð°Ð»Ð¸Ð·Ð°ÑĨÐ¸Ð¸": 3309,
      "ĠÑĢÐ°Ð±Ð¾ÑĤÐ°ÑİÑĤ": 3310,
      "ÑĭÐ²Ð°Ñı": 3311,
      "Ð½ÐµÐ¹ÑĪ": 3312,
      "ĠÐ¿Ð¸ÑĤ": 3313,
      "ĠÐ¥Ð¾ÑĤ": 3314,
      "urre": 3315,
      "ĠÑĦÐ°Ð¹Ð»Ñĭ": 3316,
      "ĠÐ½Ð°ÑĪÐµÐ³Ð¾": 3317,
      "ĠÐ¿Ð¾Ð¿ÑĢÐ¾Ð±": 3318,
      "ÐµÐºÑĤÐ¸Ð²": 3319,
      "ĠÑĥÑĢÐ¾Ð²Ð½Ðµ": 3320,
      "Ð¾Ð¹ÑĤÐ¸": 3321,
      "ĠÐ¿Ð»Ð¾Ñħ": 3322,
      "ĠÐ¾Ð±ÑĬÐµÐºÑĤÐ¾Ð²": 3323,
      "Ġhe": 3324,
      "ĠÐ¼ÐµÐ½ÐµÐ´Ð¶": 3325,
      "ĠÐ¾ÑģÐ¾Ð±ÐµÐ½": 3326,
      "ield": 3327,
      "Ġtrue": 3328,
      "Ġapp": 3329,
      "ĠÐ±Ð»Ð¾Ð³": 3330,
      "ĠÐ·Ð°Ð´Ð°ÑĩÐ°": 3331,
      "ĠÐ½Ð°Ð¹Ð´": 3332,
      "Ð¸ÑĩÐµÑģÐºÐ¾Ðµ": 3333,
      "ĠÐ²ÑģÐ¿": 3334,
      "local": 3335,
      "ĠÐ¾Ð·Ð½Ð°Ñĩ": 3336,
      "Ð¸ÑĨÑĭ": 3337,
      "ĠÐ¼Ð¾Ð½Ð¸ÑĤÐ¾ÑĢ": 3338,
      "ik": 3339,
      "ĠÐ¿Ð°ÑĤ": 3340,
      "ĠÐºÐ¾ÑĤÐ¾ÑĢÑĭÐ¼": 3341,
      "ĠÐ¿ÑĢÐ¾ÐµÐºÑĤÐ¾Ð²": 3342,
      "ĠÐ¡Ðº": 3343,
      "Ð¾ÑĤÐ¸Ð²": 3344,
      "this": 3345,
      "ĠÑģÐ¾Ð¾Ð±ÑīÐµÐ½Ð¸Ñı": 3346,
      "ĠÐ·Ð½Ð°ÐºÐ¾Ð¼": 3347,
      "ĠÑģÑĦ": 3348,
      "Ġelse": 3349,
      "ĠÑģÐ¾Ðº": 3350,
      "ĠÐ¾Ð±ÑĬÐµÐ¼": 3351,
      "ĠÑĢÐ°Ð²Ð½Ð¾": 3352,
      "ute": 3353,
      "ĠÐ¸Ð·Ð¼ÐµÑĢ": 3354,
      "ÑĨÐµÑģÑģ": 3355,
      "Ð°Ð·Ð´Ð¾": 3356,
      "ĠÐ¥Ð°Ð±": 3357,
      "str": 3358,
      "wit": 3359,
      "Ġ17": 3360,
      "ĠÑĨÐµÐ»ÑĮ": 3361,
      "ĠÐ¾ÑĤÐ¼ÐµÑĤ": 3362,
      "ÑģÑĤÐ°ÑĤÐ¸": 3363,
      "ĠÑĨÐµÐ»Ð¾Ð¼": 3364,
      "ĠÑģÐ»ÐµÐ´ÑĥÐµÑĤ": 3365,
      "ÑĳÐ»": 3366,
      "ĠÐ²ÐµÐ´ÑĮ": 3367,
      "ĠÐ¿ÑĢÐ¸Ð³": 3368,
      "Ġcomp": 3369,
      "ĠÐ´ÐµÐ»Ð¾": 3370,
      "ĠÐ´ÐµÐº": 3371,
      "ĠÑģÑĥÑīÐµÑģÑĤÐ²ÑĥÐµÑĤ": 3372,
      "ĠÐ´ÐµÐ¹ÑģÑĤÐ²Ð¸Ñı": 3373,
      "ĠÑģÐºÐ¾Ð»ÑĮÐºÐ¾": 3374,
      "umber": 3375,
      "Ġid": 3376,
      "ĠUS": 3377,
      "ĠÑģÐ¾Ð·Ð´Ð°Ð²Ð°ÑĤÑĮ": 3378,
      "ĠÐ¿ÑĢÑıÐ¼Ð¾": 3379,
      "ĠÐ·Ð´": 3380,
      "ĠÑģÐ¼Ð°ÑĢÑĤÑĦÐ¾Ð½": 3381,
      "ĠÐ´ÐµÑģÑıÑĤ": 3382,
      "Ġen": 3383,
      "ĠÐ¸Ð´ÐµÐ½ÑĤ": 3384,
      "ĠÑıÐ²": 3385,
      "Ð½Ð¾Ð·": 3386,
      "ĠÑģÐ°Ð¼ÑĭÑħ": 3387,
      "Ð¾Ð´Ñĥ": 3388,
      "roll": 3389,
      "fer": 3390,
      "ÑĥÐ·Ñĭ": 3391,
      "IM": 3392,
      "rame": 3393,
      "text": 3394,
      "Ð¸Ð·Ð°ÑĨÐ¸Ñı": 3395,
      "ld": 3396,
      "ĠÑįÐ»ÐµÐ¼ÐµÐ½ÑĤÐ¾Ð²": 3397,
      "ĠÐºÐ¾ÑĢÑĢ": 3398,
      "Ġadd": 3399,
      "ĠÑģÐ¾ÑĨÐ¸": 3400,
      "Res": 3401,
      "Ġ,": 3402,
      "ÑıÐ·Ð²": 3403,
      "Ð¾ÑģÑĤÑĮÑİ": 3404,
      "ĠÑĦÑĥÐ½ÐºÑĨÐ¸Ð¹": 3405,
      "html": 3406,
      "ĠÐ½Ð°ÑģÑĤÐ¾ÑıÑī": 3407,
      "ÑģÑĤÐ²Ð¾Ð¼": 3408,
      "ream": 3409,
      "ĠÐĲÐ²": 3410,
      "ÑĢÐ°Ñĩ": 3411,
      "lication": 3412,
      "ĠÑģÐ°Ð¼Ð¸": 3413,
      "Ð»Ð¾Ðº": 3414,
      "ĠÐ±ÑĭÐ²": 3415,
      "ÑıÑİÑĤÑģÑı": 3416,
      "ĠÐ¾Ð¿ÐµÑĢÐ°ÑĤÐ¾ÑĢ": 3417,
      "ÑĭÑĪÐ»ÐµÐ½": 3418,
      "ĠÐ¿Ð¾Ð´Ñģ": 3419,
      "ĠÐºÐ¾ÑģÐ¼": 3420,
      "ĠÐ²ÑĢÐ¾Ð´Ðµ": 3421,
      "33": 3422,
      "ĠSc": 3423,
      "PS": 3424,
      "ĠÑĤÐ¾Ð¿": 3425,
      "ĠÐ¿Ð°Ð½": 3426,
      "Ð½Ð°Ð¿ÑĢÐ¸Ð¼ÐµÑĢ": 3427,
      "ĠÑģÑĤÑĥÐ´": 3428,
      "ÐºÐµÑĤ": 3429,
      "ated": 3430,
      "ĠÑĢÐ°Ð¼ÐºÐ°Ñħ": 3431,
      "test": 3432,
      "ĠÐ¿Ð°ÑĢÑĤ": 3433,
      "ĠÐĶÐ°Ð»ÐµÐµ": 3434,
      "ĠAr": 3435,
      "ĠÐ¸Ð½Ð²ÐµÑģÑĤ": 3436,
      "emp": 3437,
      "ĠÐ´Ð¾Ð³": 3438,
      "ĠÑįÐºÐ¾Ð½Ð¾Ð¼": 3439,
      "lement": 3440,
      "ĠÑĢÐ¾Ð´": 3441,
      "Ð»ÐµÑĢ": 3442,
      "ÑĩÐ¸ÑĤÐ°ÑĤÑĮ": 3443,
      "ĠÐ¿ÑĢÐ¾ÑģÑĤÐ¾Ð¹": 3444,
      "ÑĮÑĤÐµ": 3445,
      "ĠÐ´Ð¾ÐºÐ»Ð°Ð´": 3446,
      "ĠÐ³Ð°ÑĢ": 3447,
      "error": 3448,
      "Ð»ÐµÐ½Ð¸ÐµÐ¼": 3449,
      "ĠÐļÐ°Ð¶Ð´": 3450,
      "ument": 3451,
      "ĠÑįÐºÐ·": 3452,
      "Ð½Ð¸ÑĤ": 3453,
      "ĠÐºÑĥÐ¿": 3454,
      "ĠÐºÐ¾Ð½ÑĦÐµÑĢÐµÐ½": 3455,
      "AC": 3456,
      "Ð¿Ð¾Ð´": 3457,
      "ĠÐºÐ¾Ð½ÑĤÐµÐºÑģÑĤ": 3458,
      "ey": 3459,
      "Ġself": 3460,
      "Ġend": 3461,
      "ĠÐ¡ÐµÐ¹ÑĩÐ°Ñģ": 3462,
      "af": 3463,
      "ĠÐ¾ÑģÐ½Ð¾Ð²Ð°Ð½": 3464,
      "ĠÐ¿Ð¾Ð¸ÑģÐºÐ°": 3465,
      "ÑĢÐ¾Ð¿": 3466,
      "86": 3467,
      "ĠIntel": 3468,
      "ĠÐ³Ð¾Ð»Ð¾Ð²": 3469,
      "ĠÐ¿ÑĥÐ½ÐºÑĤ": 3470,
      "ĠÑģÐ¿ÑĢÐ°Ð²": 3471,
      "ĠÐºÐ¾Ð»Ð¸ÑĩÐµÑģÑĤÐ²": 3472,
      "ĠÑĩÐ°ÑģÐ¾Ð²": 3473,
      "ĠÐ´ÐµÐ½ÑĮÐ³Ð¸": 3474,
      "ĠÐ´Ð°Ð½Ð½Ð¾Ð¼": 3475,
      "ÑĮÑĪÐµ": 3476,
      "Ð½ÑĥÐ»": 3477,
      "ÐµÐ¹Ð´": 3478,
      "ĠÐ¿ÐµÑĢÐµÐ¿": 3479,
      "ĠÑĪÑĤ": 3480,
      "url": 3481,
      "ĠÐ¿ÑĢÐ°Ð²Ð¸Ð»ÑĮ": 3482,
      "ĠÐ¼Ð¾Ð¹": 3483,
      "ĠÐ¿Ð¾Ð²ÑĭÑĪ": 3484,
      "ĠÐ¼Ð¾Ð³Ð»Ð¸": 3485,
      "Ð¼Ð¾": 3486,
      "ÐµÐ¼Ð°ÑĤ": 3487,
      "ĠÑĢÐµÑĪÐ¸Ð»": 3488,
      "ĠÐ¸Ð½ÑĦÐ¾ÑĢÐ¼Ð°ÑĨÐ¸Ñı": 3489,
      "ĠÐ³Ð¾ÑĢÐ°Ð·Ð´Ð¾": 3490,
      "ĠÐ²ÐµÑģ": 3491,
      "ĠÐ¾Ð±ÑĢÐ°Ð±Ð¾ÑĤÐºÐ¸": 3492,
      "Ð°Ð½Ð°Ð²Ð»Ð¸Ð²": 3493,
      "ĠÐ¾ÑĦÐ¸Ñģ": 3494,
      "ĠÐ·Ð°Ñĩ": 3495,
      "Ð¾Ð²Ð°Ñı": 3496,
      "HP": 3497,
      "ĠÐºÐ¾ÑĢÐ¿Ð¾ÑĢ": 3498,
      "ĠÑģÐµÑĢÑĮ": 3499,
      "ĠÐ¾ÑģÑĥÑīÐµÑģÑĤÐ²": 3500,
      "ĠÑĥÐ¶": 3501,
      "ĠÐ±ÑĢ": 3502,
      "ĠÐ´Ð°Ð»ÐµÐµ": 3503,
      "ĠÐ¿ÑĢÐ¾ÑĤÐ¾ÐºÐ¾Ð»": 3504,
      "ĠÐ¿Ð¾ÑħÐ¾Ð¶": 3505,
      "ĠÐ³Ð¾Ð²Ð¾ÑĢÐ¸ÑĤ": 3506,
      "Ġ000": 3507,
      "ĠÐ½Ð°Ð±Ð»ÑİÐ´": 3508,
      "ĠÐļÐ¾Ð¼Ð¿": 3509,
      "Ġ40": 3510,
      "ĠÑĢÐ¾ÑģÑĤ": 3511,
      "ĠPython": 3512,
      "Ð±Ñĥ": 3513,
      "ÑĢÐ¸Ñģ": 3514,
      "ĠÐ´Ð¸ÑĢÐµÐºÑĤÐ¾ÑĢ": 3515,
      "ĠÐŀÑģÐ½Ð¾Ð²": 3516,
      "Ð²ÐµÑĢÑĤ": 3517,
      "Ġprivate": 3518,
      "Ð¼Ð¾ÑĤÑĢÑı": 3519,
      "ĠÑĤÑĢÐµÐ±ÑĥÐµÑĤÑģÑı": 3520,
      "ĠÐ¾Ð´Ð½Ð¸Ð¼": 3521,
      "back": 3522,
      "ĠÐ¾ÐºÑĢÑĥÐ¶": 3523,
      "ÑĩÐ°ÑģÑĤ": 3524,
      "ms": 3525,
      "ĠÐ¾Ð´Ð½Ð°ÐºÐ¾": 3526,
      "ĠÐ½Ð¸Ð·": 3527,
      "ĠÑĢÐ°ÑģÐ¿Ð¾Ð»Ð¾Ð¶": 3528,
      "ĠÐºÐ»Ð°ÑģÑĤ": 3529,
      "Ð¾ÑģÑĤÐµÐ¹": 3530,
      "Ġnull": 3531,
      "Ð¼Ðµ": 3532,
      "ĠÐ¾Ð±ÑĬÑıÐ²": 3533,
      "ĠÐ²ÑģÑĤÑĢÐ¾": 3534,
      "ics": 3535,
      "ĠÑĤÐ¾ÑĩÐ½Ð¾": 3536,
      "Ð»Ð¸ÑĤÐµÐ»ÑĮ": 3537,
      "Ð½Ð¾Ñģ": 3538,
      "rd": 3539,
      "ĠÑģÑĤÐ°Ð½Ð¾Ð²Ð¸ÑĤÑģÑı": 3540,
      "string": 3541,
      "ĠÑģÑĤÑĢÐ¾ÐºÐ¸": 3542,
      "ÑĨÐ°": 3543,
      "ĠÐ°Ð²ÑĤÐ¾Ð¼Ð°ÑĤÐ¸ÑĩÐµÑģÐºÐ¸": 3544,
      "ĠÑĤÑĢÐµÐ±Ð¾Ð²Ð°Ð½Ð¸Ñı": 3545,
      "Ð¸Ð²Ð°ÑĤÑĮÑģÑı": 3546,
      "ĠÑģÑĤÐ°Ð»Ð¾": 3547,
      "Ð³ÑĥÐ¼": 3548,
      "Ð¿Ð¾": 3549,
      "odu": 3550,
      "gram": 3551,
      "Ġ00": 3552,
      "SD": 3553,
      "ĠÑĥÑģÑĤÐ°Ð½Ð¾Ð²Ð»ÐµÐ½": 3554,
      "ĠÐ¾Ð½Ð»Ð°Ð¹Ð½": 3555,
      "ĠÐĶÐ¶": 3556,
      "ĠÐ´Ð¸Ð½Ð°Ð¼": 3557,
      "LL": 3558,
      "ĠÑĥÐ¼ÐµÐ½ÑĮÑĪ": 3559,
      "ĠÑģÐ°Ð¼ÑĭÐ¹": 3560,
      "ĠÐ¸Ð¼Ñı": 3561,
      "Ð°Ð»ÑĮÐ½Ð¾ÑģÑĤÐ¸": 3562,
      "********": 3563,
      "ĠÑģÐµÑĢÐ²Ð¸ÑģÐ°": 3564,
      "Ġthat": 3565,
      "ĠÑģÐ±": 3566,
      "ĠÐ¿ÑĢÐ¸Ð·Ð½": 3567,
      "ĠÑĤÐµÑģÑĤÐ¸ÑĢÐ¾Ð²Ð°Ð½Ð¸Ñı": 3568,
      "ader": 3569,
      "ÑģÐ¾": 3570,
      "Ð¸Ð°ÑĤ": 3571,
      "ĠÐ¸ÑģÐ¿Ð¾Ð»ÑĮÐ·Ð¾Ð²Ð°Ð½Ð¸ÐµÐ¼": 3572,
      "ÐµÐ¹Ð¼Ð²Ð¾ÑĢ": 3573,
      "ĠÑĩÐµÑĤÑĭ": 3574,
      "ĠÐĸ": 3575,
      "Ð¸ÑĢÑĥÑİÑĤ": 3576,
      "AD": 3577,
      "ÑĥÑĢÐµ": 3578,
      "ĠÐºÑĢÐ°Ð¹": 3579,
      "ĠÐ¶Ð´": 3580,
      "ÐµÑĢÑĤÐ¸ÑĦÐ¸Ðº": 3581,
      "ĠÐ¼Ð½Ð¾Ð³Ð¸Ñħ": 3582,
      "ĠÐ½Ð¾Ð²Ð¾Ð¹": 3583,
      "ĠÐºÐ°Ñģ": 3584,
      "ĠÑģÑĤÑĢÐ°Ð½Ð¸ÑĨÑĭ": 3585,
      "ĠÐ²Ð»Ð°Ð´": 3586,
      "ĠÑģÐºÐ¾ÑĢÐ¾ÑģÑĤÑĮ": 3587,
      "ĠÐºÑĥÐ´Ð°": 3588,
      "34": 3589,
      "ĠÐ¿Ð¸ÑģÑĮ": 3590,
      "ĠÐ¿ÑĢÐ¾ÑĨÐµÑģÑģÐ¾ÑĢ": 3591,
      "ĠÐ¼Ð¸ÑĢÐµ": 3592,
      "ql": 3593,
      "ĠÐ½Ð°Ð¿Ð¸ÑģÐ°ÑĤÑĮ": 3594,
      "ĠÐ¡Ð¾Ð·Ð´": 3595,
      "[]": 3596,
      "ĠÐ¿ÑĢÐ¸Ðº": 3597,
      "ĠÑģÐ»Ð¾Ð¶Ð½Ð¾": 3598,
      "ĠÑĥÑģÑĤÑĢÐ¾Ð¹ÑģÑĤÐ²Ð¾": 3599,
      "word": 3600,
      "Ar": 3601,
      "ĠÐ´Ð°Ð»": 3602,
      "ĠÑĤÐ°ÐºÐ°Ñı": 3603,
      "ĠÑģÐ²Ð¾Ð±Ð¾Ð´": 3604,
      "ÑĢÐµÑĤ": 3605,
      "ns": 3606,
      "ĠÐ²ÐµÑĢÑģÐ¸Ñı": 3607,
      "Ð±Ñĭ": 3608,
      "ĠÐŁÐ¾ÑĤ": 3609,
      "ÑģÐºÐ¾ÑĢ": 3610,
      "ethod": 3611,
      "ĠÐ°Ð¿Ð¿Ð°ÑĢÐ°ÑĤ": 3612,
      "ĠÐ·Ð°Ñħ": 3613,
      "Ð¸ÑĦÑĢ": 3614,
      "ÑİÑģÑĮ": 3615,
      "ĠÐ¿ÑĢÐ°Ð²Ð¸Ð»Ð¾": 3616,
      "ĠData": 3617,
      "Ð²Ð¸Ð½": 3618,
      "ĠÐ¿ÑĢÐµÐº": 3619,
      "ĠÐ¾Ð±ÑīÐµÐ¼": 3620,
      "ÐµÐ¼Ð¾Ð½ÑģÑĤÑĢ": 3621,
      "ĠÐļÐ¾Ð½ÐµÑĩÐ½Ð¾": 3622,
      "Ð½Ð¾Ð²ÑĢÐµÐ¼": 3623,
      "ĠÐŁÐ¾Ð»ÑĥÑĩ": 3624,
      "ĠNo": 3625,
      "ĠÐ¿ÑĢÐ¾ÑĨÐµÑģÑģÐµ": 3626,
      "utton": 3627,
      "ĠÑĪÐ¸ÑĢÐ¾Ðº": 3628,
      "ÐµÐ³Ð¾ÑĢ": 3629,
      "ĠÐ¿ÑĢÐµÐ¸Ð¼ÑĥÑīÐµÑģÑĤÐ²": 3630,
      "ĠÑģÐºÐ¾ÑĢÐµÐµ": 3631,
      "ĠÐ¿Ð¾ÑıÐ²Ð»Ñı": 3632,
      "ĠÐ²ÑĭÑĢÐ°Ð¶": 3633,
      "ĠÐ°Ð½Ð°Ð»Ð¸ÑĤ": 3634,
      "Ð¸ÐºÐ°ÑĤÐ¾ÑĢ": 3635,
      "ĠÑħÐ¾ÑģÑĤ": 3636,
      "mage": 3637,
      "ÐµÑīÐµÐ½Ð¸Ñı": 3638,
      "clu": 3639,
      "ĠÐºÐ¾Ð¼Ð¿Ð¸Ð»Ñı": 3640,
      "Ð°Ð½ÑģÐ¾Ð²": 3641,
      "ruct": 3642,
      "ĠÑĥÐ¿ÑĢ": 3643,
      "ware": 3644,
      "var": 3645,
      "Ð°Ð²Ð¸Ñģ": 3646,
      "90": 3647,
      "div": 3648,
      "ick": 3649,
      "ĠÐ¿ÑĢÐµÐ¾Ð±ÑĢÐ°Ð·": 3650,
      "ÐµÐ·Ð´": 3651,
      "Ð»Ñĭ": 3652,
      "Ð¾Ð¼Ðµ": 3653,
      "ĠÐºÐ»Ð¸ÐµÐ½ÑĤÐ°": 3654,
      "Ð¾Ð²Ð°Ð½Ð¸Ð¹": 3655,
      "Ð»Ð°Ð½": 3656,
      "igh": 3657,
      "ĠÐ¾Ð±ÑĬÐµÐºÑĤÐ°": 3658,
      "ĠÐ¼Ð¾Ð´ÑĥÐ»ÑĮ": 3659,
      "ĠÑĥÑıÐ·Ð²": 3660,
      "SP": 3661,
      "Ð¯": 3662,
      "ĠÐ½Ð°ÑĪÐ¸": 3663,
      "ÐµÐ²ÑĭÑħ": 3664,
      "ÑĨÐµÐ½ÑĤ": 3665,
      "Ġfile": 3666,
      "ĠÐ¿Ð»Ð°Ð³": 3667,
      "urrent": 3668,
      "ĠÐ¿ÑĢÐµÐ´ÑģÑĤÐ°Ð²Ð»Ñı": 3669,
      "ĠÐ½Ð°ÑĪÐ¸Ñħ": 3670,
      "Ð½ÑıÑı": 3671,
      "ĠÑħÐ²Ð°ÑĤ": 3672,
      "ĠÑģÑĢÐ¾Ðº": 3673,
      "ĠÐ¾ÑĪÐ¸Ð±Ð¾Ðº": 3674,
      "line": 3675,
      "Ð´Ð°Ñĩ": 3676,
      "Ġ*/": 3677,
      "ĠÐºÐ¾Ð½ÐµÑĩ": 3678,
      "idth": 3679,
      "Ð¾Ð·Ð¸ÑĤÐ¾ÑĢ": 3680,
      "ĠÑĢÐµÑĪÐµÐ½Ð¸Ð¹": 3681,
      "ĠÐ¼Ð°Ð³Ð°Ð·": 3682,
      "ĠÐ¿ÑĢÐ¾Ðº": 3683,
      "ĠÐ¿ÑĢÐ¸Ð¼ÐµÑĢÐµ": 3684,
      "Ġat": 3685,
      "ĠÐ¿Ð¾ÑģÐ»ÐµÐ´Ð¾Ð²Ð°ÑĤÐµÐ»ÑĮ": 3686,
      "ĠGit": 3687,
      "ample": 3688,
      "Ġvalue": 3689,
      "To": 3690,
      "ĠÐ±Ð¸ÑĤ": 3691,
      "ĠÐ´ÐµÐ²": 3692,
      "Ð´Ð¸": 3693,
      "ĠÑĢÐ°Ð½ÐµÐµ": 3694,
      "App": 3695,
      "ĠÐ¿Ð¾Ð²ÐµÑĢÑħ": 3696,
      "ĠÑģÐ»ÑĥÑĩÐ°Ñı": 3697,
      "ĠÐ¿ÑĢÐ¾Ð²ÐµÐ´": 3698,
      "ĠÐ´Ð²Ð¸Ð³": 3699,
      "ĠÑĤÐ¾Ðº": 3700,
      "ĠÐ¿Ð¾Ð»Ñı": 3701,
      "ĠÐ¢ÐµÐ¼": 3702,
      "ĠÐ³Ð¾Ñģ": 3703,
      "ound": 3704,
      "Ð¾Ð¼ÐµÑĤ": 3705,
      "Object": 3706,
      "ĠÐ²ÑĭÑĪ": 3707,
      "ĠÐ¿Ð¾ÑģÑĤÐ¾ÑıÐ½Ð½Ð¾": 3708,
      "ĠÐ¾ÑģÐ¾Ð±ÐµÐ½Ð½Ð¾": 3709,
      "loud": 3710,
      "new": 3711,
      "ĠÑģÑĤÐ°Ð»Ð¸": 3712,
      "ĠÑģÐ¾Ð´ÐµÑĢÐ¶Ð¸ÑĤ": 3713,
      "ĠÐ¸Ð½ÑĦÐ¾ÑĢÐ¼Ð°ÑĨÐ¸Ð¾Ð½": 3714,
      "ĠÐ¾ÑĦÐ¸ÑĨÐ¸": 3715,
      "pos": 3716,
      "ĠÐ¸Ð½ÑģÑĤÑĢÑĥÐº": 3717,
      "size": 3718,
      "script": 3719,
      "Ð¸Ð²Ð°ÑİÑĤÑģÑı": 3720,
      "ĠÑģÑĤÐ°ÑĤÐ¸ÑģÑĤ": 3721,
      "ĠÐ³ÑĢÐ°Ð½": 3722,
      "ÐµÑħÐ½": 3723,
      "ĠÐ¿Ð¾Ð»Ðµ": 3724,
      "ÑĥÑİÑīÐ¸Ñħ": 3725,
      "ÑīÐ¸Ðº": 3726,
      "ĠÐ¼ÐµÑĢ": 3727,
      "ech": 3728,
      "Ġfalse": 3729,
      "ync": 3730,
      "ĠÐĳÐ¾Ð»ÑĮÑĪ": 3731,
      "ÑĤÐ¾ÑĤ": 3732,
      "ĠÑĢÐ°ÑģÑģÐ¼Ð°ÑĤÑĢ": 3733,
      "Ð²Ð°ÑĢ": 3734,
      "ĠÐ¸Ð·Ð¾Ð±ÑĢÐ°Ð¶ÐµÐ½Ð¸Ñı": 3735,
      "ÑĥÑĢÐ½": 3736,
      "ĠTr": 3737,
      "Ġprint": 3738,
      "ĠÐ¿Ð¾ÑĤÐµÐ½ÑĨÐ¸": 3739,
      "ÑĪÐµÐ³Ð¾": 3740,
      "ĠÐ·Ð°ÑģÑĤ": 3741,
      "ĠÐ°ÑĢÐ³ÑĥÐ¼": 3742,
      "ĠÑģÐ¾ÑĤÑĢÑĥÐ´Ð½Ð¸ÐºÐ¾Ð²": 3743,
      "ĠÑĨÐ¸ÑĦÑĢÐ¾Ð²": 3744,
      "oot": 3745,
      "ĠÐ¿Ð°ÑĢÑĥ": 3746,
      "AP": 3747,
      "old": 3748,
      "Ġu": 3749,
      "ĠÐ¿ÐµÑĢÐ¸Ð¾Ð´": 3750,
      "ĠÐŀÑĩ": 3751,
      "70": 3752,
      "mo": 3753,
      "Ð»Ñĥ": 3754,
      "ĠÐ²Ð¸Ð·Ñĥ": 3755,
      "Ð½Ð¾Ð²Ð°": 3756,
      "ĠÐ¿Ð¾Ð»ÑĥÑĩÐµÐ½Ð¸Ñı": 3757,
      "ĠÐ±ÑĥÐº": 3758,
      "Ð¸ÑĢÐ¾Ð²ÐºÐ¸": 3759,
      "Ð¾Ð½ÑĤ": 3760,
      "ÐµÐ»Ñı": 3761,
      "ĠÐ¿ÑĢÐµÐ´Ð¿ÑĢ": 3762,
      "ĠÐ¼Ð°ÑĢÑĪ": 3763,
      "ĠÑĤÐµÑħÐ½Ð¾Ð»Ð¾Ð³Ð¸Ð¹": 3764,
      "ĠÐ¼ÑĭÑĪ": 3765,
      "ĠÐ¿ÑĢÐ¾Ð³ÑĢÐ°Ð¼Ð¼Ð¸ÑĢÐ¾Ð²Ð°Ð½Ð¸Ñı": 3766,
      "Ð¸ÑģÑĤÑĢÐ°": 3767,
      "comp": 3768,
      "ĠÑĦÐ¾ÑĤÐ¾Ð³ÑĢÐ°ÑĦ": 3769,
      "ĠÐ±Ð°Ð¹ÑĤ": 3770,
      "ĠÐ²ÑĭÐ´": 3771,
      "ĠÐ´ÐµÐ½": 3772,
      "ĠÐ¼Ð°Ð»Ð¾": 3773,
      "ÑģÑıÑĤ": 3774,
      "Ð¾ÑģÑĤÐ¾ÑıÑĤÐµÐ»ÑĮ": 3775,
      "Ð¸Ð½Ð¸Ð¼": 3776,
      "ĠÐ¾ÑĤÐºÐ»ÑİÑĩ": 3777,
      "ĠÐ¾Ð·Ð½Ð°ÑĩÐ°ÐµÑĤ": 3778,
      "late": 3779,
      "ĠÑĤÐµÑģÑĤÐ¾Ð²": 3780,
      "ĠÑĥÑĩÐ¸ÑĤ": 3781,
      "ĠÑģÐ°Ð¼Ð¾Ð³Ð¾": 3782,
      "ĠÑģÑĤÐµÐº": 3783,
      "ÑīÐ°Ð´": 3784,
      "ĠÑĢÑĥÑģ": 3785,
      "ÑĥÐ»ÑıÑĤÐ¾ÑĢ": 3786,
      "ĠÐłÐ°Ñģ": 3787,
      "ernet": 3788,
      "py": 3789,
      "ĠÐ½Ð°Ð¿ÑĢ": 3790,
      "ĠÐ±ÑĭÑģÑĤÑĢÐµÐµ": 3791,
      "ĠÑĤÐµÑĢÐ¼Ð¸Ð½": 3792,
      "map": 3793,
      "ĠÐ¿ÑĢÐ¾ÑīÐµ": 3794,
      "ĠÐ¿Ð»Ñİ": 3795,
      "ÑĢÐ°Ð±Ð¾ÑĤÑĩÐ¸Ðº": 3796,
      "\";": 3797,
      "ĠÐŃÑĤÐ°": 3798,
      "Ġstring": 3799,
      "ĠÐ½ÑĥÐ¶ÐµÐ½": 3800,
      "Ġstatic": 3801,
      "ĠÐ¸Ð³ÑĢÐ¾Ðº": 3802,
      "Tr": 3803,
      "ĠJS": 3804,
      "ĠÐ³Ð¾ÑĢÐ¾Ð´": 3805,
      "Ð²Ð¾Ð´Ð°": 3806,
      "ĠÐ¾Ð±ÑĬÐµÐ´Ð¸Ð½": 3807,
      "ĠÐ¾ÑĢÐ³Ð°Ð½Ð¸Ð·Ð°ÑĨÐ¸Ð¸": 3808,
      "ĠÐŀÐ¡": 3809,
      "ÑģÐ»ÑĥÐ¶": 3810,
      "35": 3811,
      "use": 3812,
      "ĠÐ¿ÑĢÐ¾ÑĨÐµÑģÑģÐ°": 3813,
      "ĠÑģÐ¿ÐµÑĨÐ¸ÑĦ": 3814,
      "Ġ;": 3815,
      "ocker": 3816,
      "ĠÐ¾Ð´Ð½Ð¾Ð²ÑĢÐµÐ¼": 3817,
      "ĠÑģÐ¾ÑģÑĤÐ¾ÑıÐ½Ð¸Ðµ": 3818,
      "ĠÐŀÐ½Ð°": 3819,
      "Ġor": 3820,
      "ĠÑĢÐ°ÑģÑģÐºÐ°Ð¶": 3821,
      "Ð»ÑıÑĤÑĮ": 3822,
      "ĠÐ¾ÑĤÐ´ÐµÐ»": 3823,
      "ĠÑĢÐ°Ð·ÑĢÐ°Ð±Ð¾ÑĤÑĩÐ¸ÐºÐ¸": 3824,
      "irst": 3825,
      "ĠÐ¼ÐµÑģÑĤÐµ": 3826,
      "lib": 3827,
      "ĠÑģÑĢÐµÐ´ÑģÑĤÐ²": 3828,
      "ĠÐ´Ð°Ð½Ð½Ð¾Ð¹": 3829,
      "ĠÐ¸Ð½Ð¾Ð³Ð´Ð°": 3830,
      "ĠÑĢÑĥÐ±Ð»ÐµÐ¹": 3831,
      "ĠÑģÐ¾Ð¿": 3832,
      "ĠÐ°Ð½Ð°Ð»Ð¸Ð·Ð°": 3833,
      "ĠÑĢÐµÑģÑĥÑĢÑģÐ¾Ð²": 3834,
      "Ġup": 3835,
      "ĠÐ¸ÑģÐ¿Ð¾Ð»ÑĮÐ·ÑĥÑı": 3836,
      "ĠÐ¿ÑĥÑĤÐ¸": 3837,
      "US": 3838,
      "ĠÐ½ÐµÐ¾Ð±ÑħÐ¾Ð´Ð¸Ð¼Ð¾ÑģÑĤÐ¸": 3839,
      "ÐµÐ½Ð½ÑĭÐ¼Ð¸": 3840,
      "Ð¸Ð¼ÑģÑı": 3841,
      "ĠÐ¼Ð¾Ð»": 3842,
      "ĠÐ´Ð¾Ð»Ð³": 3843,
      "ĠÐ³Ð¾Ð»Ð¾Ñģ": 3844,
      "ĠÐºÐ¾Ð»Ð»ÐµÐ³": 3845,
      "ĠÐ½Ð¸Ð¼Ð¸": 3846,
      "ĠÐ±Ð¸Ð±Ð»Ð¸Ð¾ÑĤÐµÐºÐ¸": 3847,
      "uff": 3848,
      "Ð¸ÑĩÐµÑģÐºÐ¸Ð¼": 3849,
      "ĠÐ¿Ð¾Ð»ÑĮÐ·Ð¾Ð²Ð°ÑĤÐµÐ»Ð¸": 3850,
      "ĠÐ¿ÐµÑĢÐ²Ð¾Ð¹": 3851,
      "ĠÑıÐ·ÑĭÐºÐ°": 3852,
      "ĠÐ¸ÑģÐ¿ÑĢÐ°Ð²": 3853,
      "Ġhttps": 3854,
      "ÑĨÑĭ": 3855,
      "\".": 3856,
      "ĠÐ¼ÐµÑĢÐµ": 3857,
      "ĠÑģÐ°Ð¼Ð¾ÑģÑĤÐ¾ÑıÑĤÐµÐ»ÑĮ": 3858,
      "ĠÐ¸Ð½ÑĤÐµÑĢÐµÑģÐ½Ð¾": 3859,
      "ĠÐ²Ð½ÐµÐ´ÑĢ": 3860,
      "Ð´Ð¶": 3861,
      "De": 3862,
      "========": 3863,
      "ĠÐ°Ð»ÑĮ": 3864,
      "ÐµÑģÑĤÑĮ": 3865,
      "ĠÐ½Ð°ÑĩÐ°Ð»Ðµ": 3866,
      "hone": 3867,
      "ÑĢÐ°ÑĪ": 3868,
      "ĠÐ´Ð½Ñı": 3869,
      "ĠÐ¼ÐµÑĤÐ¾Ð´Ñĭ": 3870,
      "bin": 3871,
      "ĠÐ¿ÑĢÐµÐ´Ð¾ÑģÑĤÐ°Ð²": 3872,
      "ĠÐºÐ¾Ð¼Ð¿Ð¾Ð½ÐµÐ½ÑĤ": 3873,
      "Ġinst": 3874,
      "ĠÐĿÐ°Ñĩ": 3875,
      "Ð¸ÑĢÐ¾Ð²Ð°Ð»Ð¸": 3876,
      "Ð°ÐµÐ¼ÑģÑı": 3877,
      "ĠÐ´Ð°Ð½Ð½ÑĭÐ¼Ð¸": 3878,
      "Ġsc": 3879,
      "ĠÐ¿ÑĢÐ¾Ð¸Ð·Ð²Ð¾Ð´Ð¸ÑĤÐµÐ»ÑĮÐ½Ð¾ÑģÑĤÐ¸": 3880,
      "Ð¾ÑĢÐ¾ÑĤ": 3881,
      "config": 3882,
      "ĠÐ²ÑĭÑģÑĤÑĥÐ¿": 3883,
      "ĠÐ¿Ð°ÑĢÐ°Ð¼ÐµÑĤÑĢÑĭ": 3884,
      "ĠÑģÐµÑĢÑĤÐ¸ÑĦÐ¸Ðº": 3885,
      "ĠÐ·Ð°Ð¿ÑĢÐ¾ÑģÐ¾Ð²": 3886,
      "ĠÐ¼ÐµÑģÑĤÐ°": 3887,
      "ĠJavaScript": 3888,
      "ĠÐŀÐ¿": 3889,
      "ĠÑĩÐµÑĤ": 3890,
      "ĠÐ¿Ð¾Ð»Ð½Ð¾": 3891,
      "loat": 3892,
      "ĠÐ·Ð°Ð³ÑĢÑĥÐ¶": 3893,
      "ebook": 3894,
      "clude": 3895,
      "ĠÐ²ÑĭÐ±ÑĢÐ°ÑĤÑĮ": 3896,
      "Ð¸Ð½Ð¾Ð²": 3897,
      "ÐºÐ¾Ð»": 3898,
      "RL": 3899,
      "ĠÑĥÐ´Ð°Ð»Ð¾ÑģÑĮ": 3900,
      "ĠÐ¸ÑģÐ¿Ð¾Ð»ÑĮÐ·ÑĥÑİÑĤÑģÑı": 3901,
      "ĠÐĺÐ¢": 3902,
      "ĠÑıÐ·ÑĭÐº": 3903,
      "Ð½Ð¾Ð³": 3904,
      "ĠÐ±ÑĥÐ´Ñĥ": 3905,
      "Ġ80": 3906,
      "ÑĤÐµÑĢÐ½": 3907,
      "ĠÐĹÐ°Ðº": 3908,
      "ĠÐ²ÐºÐ»Ð°Ð´": 3909,
      "Ð°Ð»ÑĮÐ½Ð¾ÑģÑĤÑĮ": 3910,
      "ĠÐ¿ÑĢÐ¾Ð´ÑĥÐºÑĤÐ°": 3911,
      "ĠÐŁÐµÑĢ": 3912,
      "Ġval": 3913,
      "dev": 3914,
      "ĠÐ¿ÐµÑĢÐ²ÑĥÑİ": 3915,
      "ĠÑģÑĥÐ´": 3916,
      "ĠÐ¿ÐµÑĢÐµÑģ": 3917,
      "ĠÐ±Ð°Ð·Ñĭ": 3918,
      "ĠÑĢÐµÐ±": 3919,
      "ĠÐ¸Ð¼Ð¿": 3920,
      "Ð¸Ð³Ð¸Ð½": 3921,
      "ĠÑĢÐ°Ð·Ð²Ð¸ÑĤÐ¸Ñı": 3922,
      "ann": 3923,
      "200": 3924,
      "ĠPHP": 3925,
      "['": 3926,
      "ĠÑĥÑģÐ¸Ð»": 3927,
      "etc": 3928,
      "ĠÐ¿ÑĢÐ¾Ð²ÐµÑĢÐºÐ¸": 3929,
      "ĠÐ¼Ð°Ð»ÐµÐ½ÑĮ": 3930,
      "Ð¸ÑĢÐ¾Ð²Ð°ÑĤÑĮÑģÑı": 3931,
      "ĠÐ¿Ð¾Ð¿Ð°Ð´": 3932,
      "be": 3933,
      "ÑĥÐ²ÑģÑĤÐ²": 3934,
      "ler": 3935,
      "atus": 3936,
      "count": 3937,
      "SQL": 3938,
      "Ġuser": 3939,
      "ĠÐ´ÐµÑĢÐµÐ²": 3940,
      "ĠÐ²Ð·Ð³Ð»ÑıÐ´": 3941,
      "ĠÐ¾ÑĩÐµÐ²Ð¸Ð´": 3942,
      "ĠÐĶÐ°Ð²Ð°Ð¹ÑĤÐµ": 3943,
      "Ð¾ÑĢÐ´Ð¸Ð½": 3944,
      "ÑģÑĤÐ¾": 3945,
      "ÐµÐ»Ð°": 3946,
      "ĠÑģÐ¾Ð¶Ð°Ð»": 3947,
      "ĠÐ·Ð°Ð´Ð°ÑĩÑĥ": 3948,
      "Ġtest": 3949,
      "Ð·Ð¾ÑĢ": 3950,
      "ĠÐ¿ÐµÑĢÐ²Ð¾Ð³Ð¾": 3951,
      "Col": 3952,
      "âĶĢâĶĢ": 3953,
      "ĠÐ³Ð»Ð°Ð·": 3954,
      "ĠÐłÐµÐ·": 3955,
      "ĠÐ¿Ð¾Ð¸ÑģÐº": 3956,
      "ĠÐŁÐ¾ÑĩÐµÐ¼Ñĥ": 3957,
      "ĠÐ²ÑģÑİ": 3958,
      "ĠÑĢÐµÑĪÐ¸Ð»Ð¸": 3959,
      "ale": 3960,
      "ĠÑĢÐ°Ð·Ð³": 3961,
      "ĠÑģÐ»Ð¾Ð²Ð°": 3962,
      "ĠÐ³ÑĢÑĥÐ¿Ð¿Ñĭ": 3963,
      "ĠÐ´Ð¾Ð»Ð»Ð°ÑĢ": 3964,
      "ĠÐ¿ÑĥÑĤÑĮ": 3965,
      "ĠÐºÐ¾Ð»Ð¸ÑĩÐµÑģÑĤÐ²Ð°": 3966,
      "IP": 3967,
      "Ð°ÑīÐµ": 3968,
      "ĠÐ³Ð¸Ð±": 3969,
      "Ð¸ÑĦÐ¸ÐºÐ°ÑĨÐ¸Ð¸": 3970,
      "tern": 3971,
      "Ð¸Ð·Ð¸ÑĢÐ¾Ð²Ð°Ð½": 3972,
      "ĠÑĩÑĥÑĤÑĮ": 3973,
      "abel": 3974,
      "ĠÑĤÐµÑĩÐµÐ½Ð¸Ðµ": 3975,
      "26": 3976,
      "ĠÐķÑīÐµ": 3977,
      "ĠÐ¾Ð¿ÐµÑĢÐ°ÑĨÐ¸Ð¾Ð½": 3978,
      "Ð¸ÑĨÐ¸Ð¾Ð½": 3979,
      "Ġ},": 3980,
      "ĠÐ±ÐµÑĢ": 3981,
      "ĠÑĦÑĢÐµÐ¹Ð¼Ð²Ð¾ÑĢ": 3982,
      "view": 3983,
      "Comp": 3984,
      "ĠÐ¸Ð½Ð¸ÑĨÐ¸": 3985,
      "anager": 3986,
      "ĠÑĥÐ½Ð¸Ðº": 3987,
      "Ġ24": 3988,
      "ÑĢÑıÐ´": 3989,
      "ĠÐ´Ð¾ÑĢÐ¾Ð³": 3990,
      "no": 3991,
      "pr": 3992,
      "Ð±Ð¸ÑĤ": 3993,
      "Ð¸ÑĦÐ¸ÑĨ": 3994,
      "ÑĪÐµÐ¹": 3995,
      "ĠÑĢÐ°Ð·ÑĢÐ°Ð±Ð¾ÑĤÐºÐµ": 3996,
      "ÑĥÑİÑīÐ¸Ðµ": 3997,
      "list": 3998,
      "ĠÐ²Ð¾Ð»": 3999,
      "ĠÑħÑĢÐ°Ð½ÐµÐ½Ð¸Ñı": 4000,
      "Ð¸ÑĢÐ¾Ð²Ð°Ð½Ð¸Ð¸": 4001,
      "onent": 4002,
      "ĠÑħÐ¾ÑĤÐ¸ÑĤÐµ": 4003,
      "ĠÑģÐ¾Ð¶Ð°Ð»ÐµÐ½Ð¸Ñİ": 4004,
      "ĠÑģÐ¾ÑģÑĤÐ¾Ð¸ÑĤ": 4005,
      "ĠÑĢÐµÐ»Ð¸Ð·": 4006,
      "ÑģÑĤÐµÑģÑĤÐ²": 4007,
      "ĠÐ²Ð¾Ð´": 4008,
      "ĠÐ¸Ð¼ÐµÐ½": 4009,
      "Ð»ÐµÐ½Ð°": 4010,
      "mb": 4011,
      "ĠÐĶÐ¾Ð±": 4012,
      "ĠÐ²Ð¸Ð´Ð¸Ð¼": 4013,
      "Ð½Ð°ÑĩÐµ": 4014,
      "Ð¾Ð·Ð³": 4015,
      "Ð¾Ð½Ñĭ": 4016,
      "ĠÑģÐµÑĢÐ²Ð¸ÑģÐ¾Ð²": 4017,
      "ĠÐ¿Ð°Ð¼ÑıÑĤÑĮ": 4018,
      "ĠÐ¿Ð»Ð¾ÑīÐ°Ð´": 4019,
      "ames": 4020,
      "Ð°Ð»ÑĮÐ½ÑĭÐ¼Ð¸": 4021,
      "ĠÐ¿ÑĢÐµÐ¿": 4022,
      "rap": 4023,
      "ĠÐ½Ð¸ÐºÐ¾Ð³Ð´Ð°": 4024,
      "Ð¿ÐµÑĢÐ²": 4025,
      "ÑģÐºÐ°Ñı": 4026,
      "Ð¾Ð½ÐµÑĨ": 4027,
      "ĠÑĥÑģÑĤÐ°Ð½Ð¾Ð²ÐºÐ¸": 4028,
      "ĠÐ±Ð»Ð°Ð³Ð¾Ð´Ð°ÑĢÑı": 4029,
      "Ð¥": 4030,
      "RO": 4031,
      "Ġ};": 4032,
      "ĠÐºÐ°Ð¶ÐµÑĤÑģÑı": 4033,
      "Ð¿ÑĥÑģ": 4034,
      "ÑĢÐ°ÑĤÐµÐ³": 4035,
      "Value": 4036,
      "ĠÐ¿ÑĢÐ¾ÑħÐ¾Ð´": 4037,
      "ĠÑģÐ¸ÑĤÑĥÐ°ÑĨÐ¸Ð¸": 4038,
      "ĠÑģÑĤÐ°ÑĢÑĤÐ°Ð¿": 4039,
      "of": 4040,
      "omm": 4041,
      "ÑĥÐ¹": 4042,
      "Ð¸ÑģÑģ": 4043,
      "ĠÐ¸Ð½ÑĤÐµÑĢÐ½": 4044,
      "ĠÐ´Ð½ÐµÐ¹": 4045,
      "ĠÐ´Ð°Ð²": 4046,
      "ings": 4047,
      "ÑĢÑĥÐ±": 4048,
      "ĠSQL": 4049,
      "ĠÐ¼Ð¸Ð½Ð¸Ð¼ÑĥÐ¼": 4050,
      "Ð»ÐµÑĩ": 4051,
      "ĠÐºÐ°ÑĤÐµÐ³Ð¾ÑĢ": 4052,
      "ĠÐ¡Ð»ÐµÐ´": 4053,
      "ĠComp": 4054,
      "ĠÐ¾ÑĤÐ¿ÑĢÐ°Ð²Ð»Ñı": 4055,
      "ait": 4056,
      "ĠString": 4057,
      "ĠÐ¸Ð³ÑĢÐ¾Ð²": 4058,
      "ĠÐ¼ÑĥÐ·Ñĭ": 4059,
      "().": 4060,
      "ĠÐŁÑĢÐ°Ð²": 4061,
      "ÐµÐ½Ð½Ð¾Ð¼": 4062,
      "ĠÐµÐ´Ð¸Ð½ÑģÑĤÐ²ÐµÐ½": 4063,
      "ception": 4064,
      "01": 4065,
      "ages": 4066,
      "ĠÑģÐ¾Ð·Ð´Ð°Ð½Ð¸Ðµ": 4067,
      "ĠÐ¸Ð´ÐµÑĤ": 4068,
      "ĠÐ¾Ð±Ð¼ÐµÐ½": 4069,
      "ĠÑģÐ»ÐµÐ´ÑĥÑİÑīÐ¸Ðµ": 4070,
      "Ġyou": 4071,
      "ĠÐ·Ð°Ð¼ÐµÑĩ": 4072,
      "MS": 4073,
      "ĠÐ¾Ð±ÑĢÐ°Ð±Ð°ÑĤ": 4074,
      "Ð°Ð½ÐµÐµ": 4075,
      "Ð½Ð°Ð·": 4076,
      "ĠÐ¾Ð±Ð»Ð°Ñĩ": 4077,
      "ĠÐ¼Ð»Ð½": 4078,
      "ĠÑģÐ²Ð¾Ðµ": 4079,
      "ĠÐ°ÐºÑĤÑĥ": 4080,
      "ÐµÐ³Ð¸ÑģÑĤÑĢ": 4081,
      "Ð¿ÐµÑĢÐ°ÑĤ": 4082,
      "ĠÑħÑĢÐ°Ð½Ð¸Ð»Ð¸": 4083,
      "ube": 4084,
      "));": 4085,
      "Ð¿Ð¾Ñĩ": 4086,
      "ĠÐ¿ÑĢÐ¾Ð±Ð»ÐµÐ¼Ñĥ": 4087,
      "ĠÑĤÑĢÐµÐ±ÑĥÐµÑĤ": 4088,
      "ĠÐ¿Ð°ÑĢÐ°Ð¼ÐµÑĤÑĢ": 4089,
      "ĠÐ·Ð°Ð²Ð¸ÑģÐ¸ÑĤ": 4090,
      "ĠÐĹÐ°ÑĤ": 4091,
      "ĠSh": 4092,
      "ĠÑģÐ¾Ð²ÐµÑĢÑĪÐµÐ½Ð½Ð¾": 4093,
      "ĠÐ¸Ð½ÑĤÐµÑĢÐ²": 4094,
      "ĠÑĤÐ¾Ð¹": 4095,
      "ÑĭÐ²Ð°Ð½Ð¸Ñı": 4096,
      "ÑĥÑİÑĤÑģÑı": 4097,
      "ĠÐ²Ð²Ð¾Ð´": 4098,
      "ĠÑĥÑĩÐµÑĤ": 4099,
      "ĠÐ½Ð°ÑģÐº": 4100,
      "ÐµÐ¹ÑĤ": 4101,
      "Ð³Ð»Ð¸Ð¹": 4102,
      "ĠÑģÐ½Ð¾Ð²Ð°": 4103,
      "ĠÑĩÐ¸ÑģÐ»Ð°": 4104,
      "ÐµÐºÐ¾Ð¼": 4105,
      "ĠÐ¯Ð½": 4106,
      "param": 4107,
      "face": 4108,
      "ĠÑĢÐµÐ¿Ð¾Ð·Ð¸ÑĤÐ¾ÑĢ": 4109,
      "db": 4110,
      "ĠÐºÑĢÐ¾Ð¼Ðµ": 4111,
      "ĠÐºÐ°Ð´": 4112,
      "ĠÐ¾Ð¿ÑĥÐ±Ð»Ð¸Ðº": 4113,
      "Ġ32": 4114,
      "irect": 4115,
      "ÐºÐ¸Ð¼": 4116,
      "ĠÐ¿ÑĢÐ°Ð²Ð¸Ð»ÑĮÐ½Ð¾": 4117,
      "ĠÐºÐ°ÐºÐ¸Ñħ": 4118,
      "gs": 4119,
      "ĠÐ½Ð°ÑĩÐ°Ð»": 4120,
      "ĠÑĥÐ²Ð¸Ð´ÐµÑĤÑĮ": 4121,
      "ÑĢÐµÑģÑģ": 4122,
      "px": 4123,
      "ÐµÑĢÐ±": 4124,
      "unc": 4125,
      "ĠÑĥÑģÑĤÐ°Ð½Ð¾Ð²Ð¸ÑĤÑĮ": 4126,
      "ĠÑĢÐ°Ð½ÑĮÑĪÐµ": 4127,
      "ĠÐ¸ÑģÑģÐ»ÐµÐ´Ð¾Ð²Ð°Ð½Ð¸Ñı": 4128,
      "ĠÑģÑĢÐµÐ´Ð¸": 4129,
      "ĠÐºÐ¾Ð¼Ð°Ð½Ð´Ñĥ": 4130,
      "ĠÐ¿ÑĢÐ°Ð²Ð¸Ð»": 4131,
      "ĠÐĴÑĤÐ¾ÑĢ": 4132,
      "ĠÑĤÐ°Ð¹": 4133,
      "Get": 4134,
      "ĠÐ»Ð¸ÑĨÐµÐ½Ð·": 4135,
      "ĠÐ¾Ð±Ð»Ð°Ð´": 4136,
      "Ð°ÑİÑīÐµÐ¹": 4137,
      "ĠÑģÐµÐºÑĥÐ½Ð´": 4138,
      "ĠÐ²ÑģÐµÐ¹": 4139,
      "ĠÑģÐ»ÐµÐ´ÑĥÑİÑīÐ¸Ð¹": 4140,
      "ĠÐºÐ¾Ð½ÑĨÐµÐ¿": 4141,
      "ions": 4142,
      "55": 4143,
      "ĠÐ´Ð²ÑĥÐ¼": 4144,
      "ĠSystem": 4145,
      "ĠÐ¿ÑĢÐ¾ÑĦÐµÑģÑģÐ¸Ð¾Ð½": 4146,
      "ÐµÐ¼Ð¿": 4147,
      "ref": 4148,
      "ĠÐ²ÐµÑĢÑģÐ¸Ñİ": 4149,
      "ÐºÐ°ÑĥÐ½": 4150,
      "ÑĭÑĤÑĮ": 4151,
      "ĠÐ¿Ð°ÐºÐµÑĤ": 4152,
      "Ġout": 4153,
      "ĠÐ·Ð°Ð¿Ð¾Ð»Ð½": 4154,
      "ie": 4155,
      "ĠÐ¾ÑģÑĤÐ°Ð½Ð¾Ð²": 4156,
      "ĠÐ¸ÑģÐ¿Ð¾Ð»ÑĮÐ·Ð¾Ð²Ð°Ð½Ð¸Ð¸": 4157,
      "ĠÐ°Ð²ÑĤ": 4158,
      "ĠÐ¿Ð¾Ð´ÐµÐ»": 4159,
      "ĠÐ¼Ð¾Ð³Ñĥ": 4160,
      "ĠÐ½Ð¾Ð¼ÐµÑĢ": 4161,
      "php": 4162,
      "ĠÐ´Ð°Ð²Ð½Ð¾": 4163,
      "Ġz": 4164,
      "ĠÐ´ÑĢÑĥÐ³Ð¸Ð¼Ð¸": 4165,
      "ĠÐ¿ÑĢÐ¸ÑħÐ¾Ð´Ð¸ÑĤÑģÑı": 4166,
      "box": 4167,
      "ÑĩÐµÐ¹": 4168,
      "ĠÐ¿ÑĢÐ¾Ð³ÑĢÐ°Ð¼Ð¼Ð°": 4169,
      "IC": 4170,
      "Ð°Ð»Ð¸Ð·Ð°ÑĨÐ¸Ñı": 4171,
      "ĠÐ¾Ð±ÑĬÑıÑģÐ½": 4172,
      "Ð¸Ð·Ð¸ÑĢÐ¾Ð²Ð°ÑĤÑĮ": 4173,
      "ĠÑįÑĤÐ°Ð¿Ðµ": 4174,
      "ĠÑģÐºÐ°Ñĩ": 4175,
      "Ð½ÑĥÑĤ": 4176,
      "me": 4177,
      "ĠÑģÑĤÐ°ÑĤÑĮÑı": 4178,
      "ÑĥÐ¿ÑĢ": 4179,
      "ĠÐ±Ð¸Ð·Ð½ÐµÑģÐ°": 4180,
      "ĠÐ¼ÐµÐ½Ñİ": 4181,
      "Ġtime": 4182,
      "ĠÐ¿Ð»Ð°ÑĤÑĦÐ¾ÑĢÐ¼Ñĭ": 4183,
      "acebook": 4184,
      "ES": 4185,
      "ĠÐ¿Ð¾ÑģÑĤÑĥÐ¿": 4186,
      "ĠÑĢÐµÐ°Ð»Ð¸Ð·Ð¾Ð²Ð°Ð½": 4187,
      "ÐµÐ¶Ð´Ðµ": 4188,
      "ĠÐ¼ÐµÑĤÐ¾Ð´Ð°": 4189,
      "ĠÑĢÐ°Ð·Ð»Ð¸ÑĩÐ½ÑĭÐµ": 4190,
      "ĠÑįÐ»ÐµÐ¼ÐµÐ½ÑĤÑĭ": 4191,
      "ĠÐ²Ð¾ÑģÐ¿Ð¾Ð»ÑĮÐ·": 4192,
      "ÑıÐ±ÑĢÑı": 4193,
      "Ð²Ð¸Ð¶": 4194,
      "23": 4195,
      "Ġare": 4196,
      "Ð»Ð°ÑģÑģ": 4197,
      "ise": 4198,
      "ĠÑĩÐ¸ÑģÑĤ": 4199,
      "ĠÐ´Ð°Ð»ÑĮÐ½ÐµÐ¹ÑĪ": 4200,
      "ĠEn": 4201,
      "ĠÐ²ÑĭÐ·Ð²": 4202,
      "imp": 4203,
      "ĠÐ½Ð°ÑģÐºÐ¾Ð»ÑĮÐºÐ¾": 4204,
      "ĠiP": 4205,
      "ĠÐ¥Ð¾ÑĤÑı": 4206,
      "arget": 4207,
      "ĠÑĤÐµÐ±": 4208,
      "ĠÐ¾Ð¿ÐµÑĢÐ°ÑĨÐ¸Ð¸": 4209,
      "ĠÐ²ÑĭÐ³": 4210,
      "ĠÑĢÑĭÐ½ÐºÐµ": 4211,
      "ĠÐ³Ð°ÑĢÐ°Ð½ÑĤ": 4212,
      "ĠÐ½Ð°ÑĢÑĥÑĪ": 4213,
      "ĠÐ°Ð´Ð°Ð¿": 4214,
      "ĠÐ¿Ð¾Ð´Ð´ÐµÑĢÐ¶ÐºÐ¸": 4215,
      "ĠÐ¼Ð°ÑĤÐµÐ¼Ð°ÑĤ": 4216,
      "ĠÐ¿Ð°ÑĢÐ°Ð¼ÐµÑĤÑĢÐ¾Ð²": 4217,
      "itle": 4218,
      "ĠÑĢÐ°Ð·Ð°": 4219,
      "ĠÐ¿ÑĢÐ¸ÑĪÐ»Ð¾ÑģÑĮ": 4220,
      "Ð¾Ð¹Ð´ÐµÑĤ": 4221,
      "Ð²Ð¸Ð´": 4222,
      "ĠÑģÐ²Ð¾Ð¸Ð¼": 4223,
      "ĠÐ²Ð°ÑĪÐµÐ³Ð¾": 4224,
      "Ð°ÐºÑĤÐ¸Ð²": 4225,
      "ĠÐ¿ÑĢÐµÐ´ÑģÑĤÐ°Ð²Ð»ÑıÐµÑĤ": 4226,
      "']": 4227,
      "press": 4228,
      "Ð²ÐµÑģÑĤÐ¸": 4229,
      "ĠÐ½ÑĥÐ¶Ð½Ñĭ": 4230,
      "File": 4231,
      "NS": 4232,
      "ĠÐ¿Ð¾Ð»ÑĥÑĩÐ°ÐµÐ¼": 4233,
      "ĠÐ²Ð°Ð»": 4234,
      "vers": 4235,
      "ĠÑħÐ¾ÑĩÑĥ": 4236,
      "ĠÐ¾ÐºÐ¾Ð½": 4237,
      "ĠÐºÐ¾Ð½ÑĤÐ°ÐºÑĤ": 4238,
      "ĠÐ¿Ð¾Ð»Ð¸ÑĤ": 4239,
      "ĠÑģÐ½Ð°ÑĩÐ°Ð»Ð°": 4240,
      "ÑĤÑĢÐ¸Ð±ÑĥÑĤ": 4241,
      "ĠÑĥÐ·Ð½Ð°ÑĤÑĮ": 4242,
      "ush": 4243,
      "aw": 4244,
      "ĠÐ¢ÑĥÑĤ": 4245,
      "ĠÐ¿ÐµÑĢÐµÐºÐ»ÑİÑĩ": 4246,
      "ĠAd": 4247,
      "Ð¾Ð´Ð½Ð¾": 4248,
      "ÐµÐ´Ð¾Ð¼": 4249,
      "host": 4250,
      "Ġ&&": 4251,
      "ÑĩÐ¸ÐºÐ¾Ð²": 4252,
      "ĠÐ½Ð¾Ð²ÑĥÑİ": 4253,
      "Ð¸ÑĩÐµÑģÐºÑĥÑİ": 4254,
      "ĠÑģÐ¸ÑĤÑĥÐ°ÑĨÐ¸Ñı": 4255,
      "Ġcan": 4256,
      "ÑĢÐ¸ÑĨ": 4257,
      "odule": 4258,
      "ĠÐĿÐ°Ð´": 4259,
      "ĠÐ¾Ð±ÑģÑĥÐ¶Ð´": 4260,
      "play": 4261,
      "ĠÐ¸Ð·Ð¼ÐµÐ½ÐµÐ½Ð¸Ð¹": 4262,
      "____": 4263,
      "Text": 4264,
      "ÑĥÐ´Ð°ÑĢ": 4265,
      "Set": 4266,
      "ĠÐ¾Ð±ÐµÑģÐ¿ÐµÑĩÐµÐ½Ð¸Ñı": 4267,
      "Ð°ÑģÑĤÐ²": 4268,
      "Ð§": 4269,
      "ĠÐ¸Ð½Ð´": 4270,
      "ĠÐ²ÐµÐ»": 4271,
      "ĠÑģÑĤÑĢÐ°ÑĤÐµÐ³": 4272,
      "ĨĴ": 4273,
      "velo": 4274,
      "ĠÐ¶Ð¸Ð·Ð½ÑĮ": 4275,
      "ĠÐ°ÑĥÐ´Ð¸ÑĤÐ¾ÑĢ": 4276,
      "Ð¸ÑĤÐµÑģÑĮ": 4277,
      "En": 4278,
      "ĠÐºÐ°ÑĢÑĤÑĭ": 4279,
      "ĠÐ½Ð°ÑĩÐ°ÑĤÑĮ": 4280,
      "Ð½Ð¸Ñĩ": 4281,
      "onse": 4282,
      "ĠÐ·Ð²Ñĥ": 4283,
      "ĠÑģÑĥÑĤÐ¸": 4284,
      "ĠÐ´Ð¸Ð°Ð³": 4285,
      "ĠÐ¾ÑĤÐ½Ð¾ÑģÐ¸ÑĤÐµÐ»ÑĮÐ½Ð¾": 4286,
      "Ð°ÑĤÐ¾Ð²": 4287,
      "ĠÐ±Ð°Ð³": 4288,
      "ĠÐĶÑĢÑĥÐ³": 4289,
      "ĠÐ¼Ð¾Ð´ÑĥÐ»Ñı": 4290,
      "ĠÐ¿ÑĢÐ¾ÑĪÐ»": 4291,
      "ĠUSB": 4292,
      "ĠÑĢÐ°Ð·ÑĢÐ°Ð±Ð°ÑĤ": 4293,
      "ĠÐłÐ¸Ñģ": 4294,
      "ĠÑĨÐµÐ½ÑĤÑĢ": 4295,
      "ĠÐ²ÐµÑĤ": 4296,
      "ĠÑģÐ»ÑĥÑĩÐ°ÑıÑħ": 4297,
      "ĠÑģÐ²ÐµÑĢ": 4298,
      "ĠÑģÑĤÐ°Ð±": 4299,
      "ĠÐĹÐ°ÑĤÐµÐ¼": 4300,
      "ĠCont": 4301,
      "Ð»Ð¾Ñħ": 4302,
      "State": 4303,
      "ĠÑģÑĤÐµÐ¿": 4304,
      "red": 4305,
      "ĠÐ²ÐºÐ»ÑİÑĩÐ°Ñı": 4306,
      "ÑģÐ»ÐµÐ¶": 4307,
      "':": 4308,
      "ĠÐ½Ð°Ð·Ð½Ð°Ñĩ": 4309,
      "ĠÐ²Ð´": 4310,
      "Ð»Ð¸Ð½": 4311,
      "ĠiOS": 4312,
      "ĠÐ¿ÐµÑĢÐµÑģÑĤ": 4313,
      "Ð¸ÑıÐ¼": 4314,
      "ĠÐ±Ð°Ð»": 4315,
      "ĠÐĽÑİ": 4316,
      "='": 4317,
      "ĠÑĤÑĢÐµÑĤÑĮ": 4318,
      "Ð¾Ð±ÑĢÐµÑĤ": 4319,
      "ÑĮÑı": 4320,
      "ÐŁÑĢ": 4321,
      "ilter": 4322,
      "ĠÐ¼Ð¾Ð·Ð³": 4323,
      "ÐµÐ»Ð»ÐµÐºÑĤ": 4324,
      "ĠÑĤÐµÐ¼Ð¿ÐµÑĢÐ°ÑĤ": 4325,
      "ĠÐŃÑĤÐ¸": 4326,
      "ĠÐ¸Ð¼ÐµÑİÑī": 4327,
      "ĠÐºÐ¾Ð½ÑĤÐµÐ½ÑĤ": 4328,
      "ÐµÐ²ÑĭÐµ": 4329,
      "Ð¿Ð°Ð´": 4330,
      "ĠÑĢÐµÑĪÐ¸ÑĤÑĮ": 4331,
      "ĠÐ½Ð¸ÐºÑĤÐ¾": 4332,
      "ĠÐ²ÐµÑģÑĮÐ¼Ð°": 4333,
      "36": 4334,
      "Ð°ÑģÐ¸Ð±Ð¾": 4335,
      "ĠÐ»ÐµÐ¶": 4336,
      "Ð¿ÑĢÐ¸Ð»Ð¾Ð¶": 4337,
      "Ġcode": 4338,
      "ĠÐ¾Ð±ÑıÐ·Ð°ÑĤÐµÐ»ÑĮÐ½Ð¾": 4339,
      "ĠHTTP": 4340,
      "ĠÐ¿ÑĢÐ¸Ð·": 4341,
      "ĠÐ¾ÑģÐ²": 4342,
      "ĠÐ½ÐµÐ¿Ð¾ÑģÑĢÐµÐ´": 4343,
      "ÑĭÐ²Ð°ÑĤÑĮÑģÑı": 4344,
      "ĠÐ¿Ð¾ÑĤÐµÑĢ": 4345,
      "ĠÑģÐºÐ¾ÑĢÐ¾ÑģÑĤÐ¸": 4346,
      "ĠÐ½Ð°Ð²ÐµÑĢ": 4347,
      "roller": 4348,
      "elect": 4349,
      "ĠÑĤÐ¸Ð¿Ð¾Ð²": 4350,
      "ÑģÐ¾Ð»": 4351,
      "ĠÐ½Ð°Ð·Ð²Ð°Ð½Ð¸Ðµ": 4352,
      "ĠÑģÐ½Ð¸Ð¶": 4353,
      "28": 4354,
      "ĠÑĤÑĢÐ°Ð½Ð·Ð°Ðº": 4355,
      "ĠÐ¼Ð¸ÐºÑĢÐ¾Ñģ": 4356,
      "Ð»Ð¸ÑģÑĮ": 4357,
      "ĠÐ¿ÑĢÐ¾ÐµÐºÑĤÐµ": 4358,
      "path": 4359,
      "Ð¿Ð»Ð°ÑĤ": 4360,
      "ĠÐ±ÐµÑģ": 4361,
      "ĠÐ½Ð¾ÑĥÑĤ": 4362,
      "ĠHTML": 4363,
      "ĠÑĥÐ³Ð»": 4364,
      "ĠÐ¾Ð´Ð½Ð¾Ð²ÑĢÐµÐ¼ÐµÐ½Ð½Ð¾": 4365,
      "ĠÑģÐ°Ð¼Ð¾Ð¹": 4366,
      "ĠÑģÐºÐ°Ð¶": 4367,
      "ĠÐ¿ÑĥÑģÑĤ": 4368,
      "ĠÐºÐ¾Ð¾ÑĢÐ´Ð¸Ð½": 4369,
      "Ð¸ÑĢÐ¾Ð²Ð°Ð½Ð½ÑĭÑħ": 4370,
      "Ġwe": 4371,
      "ĠÑĢÐµÑģÑĥÑĢÑģ": 4372,
      "ĠÑģÑĨÐµÐ½Ð°ÑĢ": 4373,
      "ĠÑĥÐ¼Ðµ": 4374,
      "ĠÑĤÐ¾Ð½": 4375,
      "ĠÑħÐ°ÑĢÐ°ÐºÑĤÐµÑĢÐ¸ÑģÑĤ": 4376,
      "ĠÐ·Ð°Ð³Ð¾Ð»Ð¾Ð²": 4377,
      "ĠÑĥÑģÐºÐ¾ÑĢ": 4378,
      "ĠÐ¼ÐµÑĤÑĢ": 4379,
      "RM": 4380,
      "self": 4381,
      "Ġstd": 4382,
      "uto": 4383,
      "ĠÐ¾Ð¿ÑĢÐµÐ´ÐµÐ»Ð¸ÑĤÑĮ": 4384,
      "ĠÐ°Ð½ÑĤ": 4385,
      "ĠÐ²ÑĭÐ¿ÑĥÑģÐº": 4386,
      "ĠÐ¿ÑĢÐ¸ÑģÑĥÑĤÑģÑĤÐ²": 4387,
      "ĠÑģÐ¾Ð±ÑĭÑĤÐ¸Ð¹": 4388,
      "let": 4389,
      "Ġlet": 4390,
      "ĠÑĦÐ¾ÑĤÐ¾": 4391,
      "ÑıÐ³": 4392,
      "ĠÐ¿ÑĢÐ¸Ð´ÑĥÐ¼": 4393,
      "TE": 4394,
      "ĠÐ´ÐµÑıÑĤÐµÐ»ÑĮ": 4395,
      "ĠÐ¿ÑĢÐ¾Ð²ÐµÑĢÐ¸ÑĤÑĮ": 4396,
      "ÐµÐ³Ð¼ÐµÐ½ÑĤ": 4397,
      "ĠÐ¿ÑĢÐ¸Ð¼ÐµÑĢÑĥ": 4398,
      "Ġlog": 4399,
      "ĠÐ¿ÑĢÐµÐ´Ð¾ÑģÑĤÐ°Ð²Ð»Ñı": 4400,
      "time": 4401,
      "Ð¸Ð²Ð°Ñı": 4402,
      "ÑĢÐ¸Ð´": 4403,
      "ĠÐºÐ¾Ð¼Ð¼": 4404,
      "ĠÑĢÐ°Ð·Ð¼ÐµÑī": 4405,
      "ĠÑĩÐ°ÑģÑĤÐ¾ÑĤ": 4406,
      "Ð¾Ð¿Ð¾Ð»": 4407,
      "ĠÐłÐ°Ð±Ð¾ÑĤ": 4408,
      "ĠÐ°Ð³": 4409,
      "ÑĢÑıÐ¶": 4410,
      "ĠÐ¸Ð½ÑģÑĤÑĢÑĥÐ¼ÐµÐ½ÑĤÑĭ": 4411,
      "tem": 4412,
      "Ð¸Ð²Ð°Ð½Ð¸Ðµ": 4413,
      "ĠÐ¶ÑĥÑĢÐ½": 4414,
      "ĠÐ°Ð½Ð³Ð»Ð¸Ð¹": 4415,
      "ĠÐºÐ¾Ð¼Ñĥ": 4416,
      "ÑĢÐµÐ²": 4417,
      "Ð¸ÑĢÐ¾Ð²Ð°Ð»": 4418,
      "ÑģÑĤÐ¾ÑıÐ½": 4419,
      "ĠÐºÐ¾ÑĢÑĢÐµÐºÑĤ": 4420,
      "ĠÐ¸Ð´ÐµÑı": 4421,
      "Ð°Ð´Ð¾Ð±": 4422,
      "ĠÐ¸Ð½ÑĤÐµÑĢÑĦÐµÐ¹ÑģÐ°": 4423,
      "aaaa": 4424,
      "vel": 4425,
      "ĠÐ´Ð°ÐµÑĤ": 4426,
      "ÐµÐ½Ð¸ÑıÐ¼Ð¸": 4427,
      "ĠÐ½ÐµÐ¸Ð·": 4428,
      "Time": 4429,
      "lat": 4430,
      "Ð°ÑĤÐ°ÑĢ": 4431,
      "ĠÑĢÐµÑĩÑĮ": 4432,
      "ĠÐ¸Ð½ÑģÑĤ": 4433,
      "by": 4434,
      "ĠÐ¿ÐµÑĢÐµÐ´Ð°ÑĩÐ¸": 4435,
      "37": 4436,
      "ĠÐ·Ð²Ð¾Ð½": 4437,
      "ĠÑģÐ¾Ð¾Ð±ÑīÐµÐ½Ð¸Ðµ": 4438,
      "ices": 4439,
      "rol": 4440,
      "ĠÐĵÐ»Ð°Ð²": 4441,
      "ĠÑĤÐµÐºÑģÑĤÐ°": 4442,
      "ÐºÐ¾Ð¼Ð¿": 4443,
      "ĠÐ·Ð½Ð°ÑĤÑĮ": 4444,
      "ĠÐ´Ð¾Ð»Ð»Ð°ÑĢÐ¾Ð²": 4445,
      "ĠÐ±Ð¾Ð»ÑĮÑĪÐ¸Ð½ÑģÑĤÐ²Ð¾": 4446,
      "ĠÐ´Ð°Ð»ÐµÐº": 4447,
      "Ð¸Ð½Ð¾": 4448,
      "48": 4449,
      "Ð¾Ð½Ð´": 4450,
      "ĠÑĥÐ´Ð¸Ð²": 4451,
      "ĠÐ¼ÐµÑħÐ°Ð½Ð¸Ð·Ð¼": 4452,
      "ĠÑĤÐ°ÐºÐ¾Ð¼": 4453,
      "ĠÐ³ÐµÐ½": 4454,
      "ĠAn": 4455,
      "ÑĬÐµÐ¼": 4456,
      "inter": 4457,
      "ift": 4458,
      "la": 4459,
      "DB": 4460,
      "Ġcol": 4461,
      "ĠÐºÐ°Ð±": 4462,
      "ĠÑıÐ·ÑĭÐºÐµ": 4463,
      "ĠÑħÐ¾ÑĤÐ¸Ð¼": 4464,
      "ĠÐ·Ð°Ð¿Ð¸ÑģÑĮ": 4465,
      "ote": 4466,
      "ĠÑįÐºÑģÐ¿ÐµÑĢÑĤ": 4467,
      "ĠÑĢÐ°Ð·Ð¾Ð±ÑĢ": 4468,
      "ĠÐ¸ÑģÑĤÐ¾ÑĢÐ¸Ð¸": 4469,
      "ody": 4470,
      "ĠÐĲÑĢ": 4471,
      "rib": 4472,
      "ĠÐ¿ÑĢÐµÐ·": 4473,
      "ĠÐ·Ð°ÑīÐ¸ÑĤÑĭ": 4474,
      "ÑģÐ¾Ð»ÑİÑĤ": 4475,
      "ĠÐ³Ð»Ð¾Ð±": 4476,
      "duct": 4477,
      "ĠÐ¿ÑĢÐ¸Ð´ÐµÑĤÑģÑı": 4478,
      "ĠÐºÐ°Ð¶Ð´Ð¾Ð¼": 4479,
      "ĠÐ¿ÑĢÐ¾Ð¸ÑģÑħÐ¾Ð´": 4480,
      "ĠÑģÐºÑĢÐ¸Ð¿ÑĤ": 4481,
      "ĠÐ¿ÐµÑĢÐµÑĩ": 4482,
      "ÑĦÐ°Ð¹": 4483,
      "ĠÑģÐ¾ÑģÑĤÐ¾ÑıÐ½Ð¸Ñı": 4484,
      "ĠÐ¼Ð°ÑĢÐºÐµÑĤ": 4485,
      "Ġap": 4486,
      "Sh": 4487,
      "ĠÐ²Ð¾ÑģÑģÑĤÐ°Ð½Ð¾Ð²": 4488,
      "ÑĢÐ°Ð»": 4489,
      "');": 4490,
      "rror": 4491,
      "ĠÐĳÐ¾Ð»ÐµÐµ": 4492,
      "ÑĢÐ¾Ð¹": 4493,
      "Ð°Ð½Ð½Ð°Ñı": 4494,
      "cy": 4495,
      "Ð»ÐµÐ½Ð½ÑĭÐµ": 4496,
      "ĠÐ¸ÑģÐ¿ÑĭÑĤ": 4497,
      "ĠÑĤÑĢÐ°Ð½Ñģ": 4498,
      "ĠÐ¾ÑģÐ½Ð¾Ð²Ð½Ð¾Ð¼": 4499,
      "Ð¸ÑĤÐ°Ð¹": 4500,
      "ĠÐºÐ¾Ð³Ð¾": 4501,
      "38": 4502,
      "ĠÐ´ÑĢÑĥÐ³Ð¸Ð¼": 4503,
      "ĠÐ´Ð°Ð½Ð½ÑĭÐ¼": 4504,
      "ĠÐ¸Ð½ÑģÑĤÑĢÑĥÐ¼ÐµÐ½ÑĤÐ¾Ð²": 4505,
      "ĠÐºÑĥÑĢÑģ": 4506,
      "IS": 4507,
      "lect": 4508,
      "ĠÐ¾ÑĢÐ¸Ð³Ð¸Ð½": 4509,
      "ĠÑģÐ¸Ð½ÑħÑĢÐ¾Ð½": 4510,
      "ĠÐ°ÐºÐºÐ°ÑĥÐ½": 4511,
      "Ð°Ð¿Ð°Ð·": 4512,
      "/>": 4513,
      "ĠÑĥÑģÐ¿ÐµÑħ": 4514,
      "ĠÑģÐ¸Ð»ÑĮ": 4515,
      "ĠÐ²ÑĭÐ±ÑĢÐ°Ð½": 4516,
      "class": 4517,
      "Ġ/*": 4518,
      "ĠÐ¾Ð±Ð½Ð¾Ð²Ð»ÐµÐ½Ð¸Ñı": 4519,
      "ian": 4520,
      "Ġac": 4521,
      "ĠÐºÑĢÐ°ÑĤ": 4522,
      "ÐºÐ°Ðº": 4523,
      "ĠÐ·Ð½Ð°ÑĩÐ¸ÑĤÐµÐ»ÑĮÐ½Ð¾": 4524,
      "ĠÐºÐ¾ÑĢÐ¿ÑĥÑģ": 4525,
      "Ð¾ÑĩÑĮ": 4526,
      "Ð¸ÑĤÐµÐ»ÑĮÐ½ÑĭÐµ": 4527,
      "ĠÐ¿Ð¾Ð·Ð²Ð¾Ð»Ð¸ÑĤ": 4528,
      "ĠÑģÐ°Ð¼ÑĭÐ¼": 4529,
      "ĠÐ½Ð°Ð²Ñĭ": 4530,
      "ĠÐ±Ð»Ð¸Ð¶": 4531,
      "ĠÐ¿Ð¾Ð½ÑıÑĤÐ½Ð¾": 4532,
      "Ð°Ð½Ð½Ð¾Ð¹": 4533,
      "ĠMy": 4534,
      "ĠÐ´Ð¾ÑģÑĤÐ¸Ð³": 4535,
      "ĠÐ°ÑĤÑĢÐ¸Ð±ÑĥÑĤ": 4536,
      "ĠÐĴÐ¾Ð·Ð¼Ð¾Ð¶Ð½Ð¾": 4537,
      "ĠÐºÑĥÑĩ": 4538,
      "ÑĪÐµÐµ": 4539,
      "27": 4540,
      "Ð¾Ð²Ð¾Ð´": 4541,
      "ĠÑĢÐµÐ°Ð»Ð¸Ð·Ð¾Ð²Ð°ÑĤÑĮ": 4542,
      "Ð¼ÑĥÐ½Ð¸Ðº": 4543,
      "ĠÑĥÐ´Ð¾Ð±Ð½Ð¾": 4544,
      "ĠÑģÐ°Ð¼ÑĭÐµ": 4545,
      "ĠÑģÐ¾Ð±ÑĭÑĤÐ¸Ñı": 4546,
      "AB": 4547,
      "ĠÑģÐ¾ÑģÑĤÐ°Ð²Ð»Ñı": 4548,
      "ĠÐ¿ÑĢÐ¾ÑĨÐµÐ´": 4549,
      "ĠÐ¾Ð±ÑĬÐµÐºÑĤÑĭ": 4550,
      "ĠÐ²Ð°ÑĪÐµÐ¹": 4551,
      "ĠÐ¿ÑĢÐ¸ÐµÐ¼": 4552,
      "Ð°ÑİÑģÑĮ": 4553,
      "ĠÐ²Ð¸Ð´Ð½Ð¾": 4554,
      "ĠÐ¿Ð¾Ð½Ð°Ð´Ð¾Ð±": 4555,
      "ĠÐ²Ð¾Ð²": 4556,
      "Ð¾Ð¶Ð´ÐµÐ½Ð¸Ñı": 4557,
      "Ð²Ð¸Ð³": 4558,
      "Ð½Ð°Ð·Ð½Ð°Ñĩ": 4559,
      "Ð½Ð¾Ð¶": 4560,
      "';": 4561,
      "ĠÐ´Ð¾ÑģÑĤÐ°Ð²": 4562,
      "ĠÐ´ÑĢÑĥÐ³Ð¾Ð¼": 4563,
      "ĠÐºÑĢÐ¸Ð¿": 4564,
      "ĠÐ¾ÑĤÑģÐ»ÐµÐ¶": 4565,
      "ĠÐ·Ð°Ð³ÑĢÑĥÐ·ÐºÐ¸": 4566,
      "ĠServer": 4567,
      "ÑĩÐµÑģÐº": 4568,
      "ĠÐŁÑĢÐ¸Ñĩ": 4569,
      "Ġuse": 4570,
      "ĠÐĿÐ°ÑģÑĤ": 4571,
      "ĠÐĿÐ°ÑĪ": 4572,
      "Ð»ÐµÐ½Ð¸Ñİ": 4573,
      "ĠÐľÐ°ÑĢ": 4574,
      "ĠÐ³Ð¸Ð¿": 4575,
      "ĠÐ¿ÑĢÐ¸Ð¼": 4576,
      "Ð¾Ð¿ÑĢÐ¸ÑıÑĤ": 4577,
      "ĠÐ¼Ð°Ð½": 4578,
      "ĠÐ·Ð°Ð¿ÑĥÑģÑĤÐ¸ÑĤÑĮ": 4579,
      "ĠFacebook": 4580,
      "ĠÑģÑģÑĭÐ»ÐºÐ¸": 4581,
      "ector": 4582,
      "Ð¾ÑĩÐºÐ¸": 4583,
      "ĠÑĦÐ¸Ð»ÑĮÑĤÑĢ": 4584,
      "ning": 4585,
      "ĠÐ²ÐµÑīÐ¸": 4586,
      "ĠÐ°ÐºÐºÑĥ": 4587,
      "Ġresult": 4588,
      "ĠÑĢÐ°ÑģÐ¿Ð¾Ð·Ð½": 4589,
      "ĠÐ¸Ñİ": 4590,
      "Ð¸ÐºÐ¾Ð¹": 4591,
      "ĠÐ¿Ð¾Ð´Ð´ÐµÑĢÐ¶Ð¸Ð²Ð°ÐµÑĤ": 4592,
      "Ð¸ÑĤÑĢ": 4593,
      "ĠÐ½ÐµÐ²Ð¾Ð·Ð¼Ð¾Ð¶Ð½Ð¾": 4594,
      "Ð¾Ñı": 4595,
      "ĠÐ¾Ð±Ð»Ð°Ðº": 4596,
      "ĠÐ¿Ð°ÑĢÐ°Ð»Ð»": 4597,
      "ĠÐ¿Ð¾Ð»ÑĥÑĩÐ°ÐµÑĤÑģÑı": 4598,
      "%,": 4599,
      "ĠÐ¸Ð½ÑĤÐµÐ»Ð»ÐµÐºÑĤ": 4600,
      "Ð²Ðµ": 4601,
      "Ð°Ð½Ð½Ð¾Ð³Ð¾": 4602,
      "ÑĨÐ¸ÐµÐ¹": 4603,
      "Ð¸ÑĦÐ¸ÐºÐ°ÑĤÐ¾ÑĢ": 4604,
      "Ġlo": 4605,
      "ĠÐºÐ°Ð¿": 4606,
      "Ð»ÐµÐ½Ð½ÑĭÑħ": 4607,
      "ower": 4608,
      "ĠÐ²ÐµÑĢÑħ": 4609,
      "bo": 4610,
      "ĠÑģÐ»ÐµÐ´ÑĥÑİÑīÐ¸Ð¼": 4611,
      "ĠÑĥÑĤÐ¸Ð»": 4612,
      "ĠÑĤÐ°Ð±Ð»Ð¸ÑĨÑĭ": 4613,
      "ĠÑģÐ¼Ð¾Ð¶ÐµÑĤ": 4614,
      "44": 4615,
      "ĠÑĦÐ¸Ð½Ð°Ð½ÑģÐ¾Ð²": 4616,
      "ĠÐ¼Ð¾Ð±Ð¸Ð»ÑĮÐ½ÑĭÑħ": 4617,
      "ÐµÐ¼Ð¿Ð»Ñı": 4618,
      "lick": 4619,
      "Ð¸ÑĢÑĥÑİÑĤÑģÑı": 4620,
      "ĠÐ¿Ð¾Ð¸ÑģÐºÐ¾Ð²": 4621,
      "ĠÑĢÐ°ÑģÑģÑĤÐ¾ÑıÐ½": 4622,
      "Ġkey": 4623,
      "ĠÐ¾ÑģÐ½Ð¾Ð²Ð½Ð¾Ð¹": 4624,
      "ded": 4625,
      "ÑģÐ¸": 4626,
      "ific": 4627,
      "ĠÑĨÐµÐ¿": 4628,
      "ÑģÑĤÐ²Ñĥ": 4629,
      "ĠÑĦÐ°ÐºÑĤÐ¾ÑĢ": 4630,
      "ĠÐ°Ð½Ð¸Ð¼": 4631,
      "ÑĨÐµÐ²": 4632,
      "ger": 4633,
      "ĠÐºÐ¾ÑĢÐ¿Ð¾ÑĢÐ°ÑĤÐ¸Ð²": 4634,
      "ĠÐ·Ð½Ð°Ð½Ð¸Ñı": 4635,
      "ÑĢÐ°ÑĤÐ¸ÑĤÑĮ": 4636,
      "Ð¾ÑĤÐ¾ÑĢÑĭÐµ": 4637,
      "Ð¸ÐºÐ¾Ð¼": 4638,
      "ĠÐ¿Ð¾Ð¼Ð¾Ð¶": 4639,
      "Ð¸Ð½Ð°ÑĢ": 4640,
      "ĠSE": 4641,
      "Ð¼ÐµÑĢÐ¸Ðº": 4642,
      "ĠÑıÑĢ": 4643,
      "ĠÐ¸Ð½Ð°ÑĩÐµ": 4644,
      "ÑĤÐµÑĢÐ½Ð°ÑĤÐ¸Ð²": 4645,
      "ĠÐ¾Ñħ": 4646,
      "Ġweb": 4647,
      "ĠÐ¿ÑĢÐ°Ð²Ð¸Ð»Ð°": 4648,
      "ĠÐ½ÐµÑĥÐ´": 4649,
      "ĠÑĤÑĢÐµÑħ": 4650,
      "ĠÑģÐµÑĢÑĮÐµÐ·": 4651,
      "ĠÐĿÐµÑĤ": 4652,
      "ĠAl": 4653,
      "ĠÐºÐ¾Ð´Ðµ": 4654,
      "Ð¾ÑĢÑĭ": 4655,
      "ĠÐ·Ð°Ð¿ÑĢÐ¾ÑģÑĭ": 4656,
      "By": 4657,
      "my": 4658,
      "ĠÐŁÑĢÐ¾Ð±": 4659,
      "ĠÐ½ÐµÐ´Ð¾ÑģÑĤÐ°ÑĤ": 4660,
      "ĠÐ¸Ð´ÐµÐ¸": 4661,
      "ÑĥÑĦ": 4662,
      "ÑĥÑģÑĤÐ¸Ð¼": 4663,
      "ner": 4664,
      "ĠÐ·Ð½Ð°ÑĩÐµÐ½Ð¸Ð¹": 4665,
      "ÑĩÑĤÐ¾": 4666,
      "Ġ60": 4667,
      "ĠÐĿÐµÐº": 4668,
      "ĠÐ¿Ð¾ÐºÐ°Ð·ÑĭÐ²Ð°ÐµÑĤ": 4669,
      "NET": 4670,
      "ĠÑģÐ½Ð¸Ð¼": 4671,
      "ĠCSS": 4672,
      "ĠÐ¸Ð³ÑĢÐ°": 4673,
      "ĠÐ±ÑĥÐ´ÑĥÑīÐµÐ¼": 4674,
      "ĠÑģÑĤÐ¾Ð¸Ð¼Ð¾ÑģÑĤÑĮ": 4675,
      "index": 4676,
      "56": 4677,
      "ĠUI": 4678,
      "ĠÐ¼Ð°ÐºÑģÐ¸Ð¼Ð°Ð»ÑĮÐ½Ð¾": 4679,
      "ĠÐ´Ð¸ÑģÐ¿": 4680,
      "yle": 4681,
      "ĠÐ·Ð°ÐºÐ»ÑİÑĩÐ°ÐµÑĤÑģÑı": 4682,
      "ĠÐĴÐ¸Ð´": 4683,
      "ĠÑĩÐ°ÑīÐµ": 4684,
      "Ð¾Ð¼Ð¿": 4685,
      "sole": 4686,
      "ĠÐĺÐ»Ð¸": 4687,
      "ĠÐ´ÐµÐ½ÐµÐ³": 4688,
      "ĠÐ¾Ð±ÑģÐ»ÑĥÐ¶": 4689,
      "ĠÑģÐ°Ð¼Ð¾ÑģÑĤÐ¾ÑıÑĤÐµÐ»ÑĮÐ½Ð¾": 4690,
      "ĠÐ¿ÑĢÐµÐ´Ð½Ð°Ð·Ð½Ð°Ñĩ": 4691,
      "%.": 4692,
      "ĠÐ¿Ð¾Ð·Ð²Ð¾Ð»ÑıÑİÑī": 4693,
      "ĠÐ·Ð°Ð¿ÑĢÐ¾ÑģÐ°": 4694,
      "ATE": 4695,
      "ithub": 4696,
      "ĠÐ¾ÑĤÐ¼ÐµÑĤÐ¸ÑĤÑĮ": 4697,
      "ĠAS": 4698,
      "ÐµÑģÐ»Ð¸": 4699,
      "ĠÐºÐ¾Ð½ÑĦÐ¸Ð³ÑĥÑĢÐ°ÑĨÐ¸Ð¸": 4700,
      "ĠÑĢÑĭÐ½ÐºÐ°": 4701,
      "ations": 4702,
      "ÑĢÐµÐ¼Ñı": 4703,
      "ĠÐ½ÐµÐ·Ð°Ð²Ð¸Ñģ": 4704,
      "ĠÐºÐ°ÑĤÐ°Ð»Ð¾Ð³": 4705,
      "ĠÐ½ÑĢÐ°Ð²": 4706,
      "ÐºÐ¾ÑģÑĤÑĮ": 4707,
      "ÑĩÐµÑĢ": 4708,
      "ĠÐļÑģÑĤÐ°ÑĤÐ¸": 4709,
      "Ð½Ð°ÑĩÐ°Ð»ÑĮÐ½Ð¾": 4710,
      "ĠÐºÐ°ÐºÐ¸Ð¼": 4711,
      "ĠÐ¼ÐµÐ»": 4712,
      "Ð¸ÑĤÐ¸Ð²": 4713,
      "perty": 4714,
      "ĠÐĹÐ°Ð´": 4715,
      "ĠÑĤÐµÐ¼Ñĥ": 4716,
      ".,": 4717,
      "Ð¾Ð»Ð¾Ð³Ð¸Ð¸": 4718,
      "ĠÐľÐ½Ðµ": 4719,
      "ÑĭÑģ": 4720,
      "ĠÐºÑĢÑĥÐ³": 4721,
      "ĠÑĦÐ¸Ñĩ": 4722,
      "ĠÐ¼Ð¾Ð´ÑĥÐ»": 4723,
      "ĠÐ¿Ð¾Ð·Ð²Ð¾Ð»ÑıÑİÑĤ": 4724,
      "ÑıÑı": 4725,
      "ĠÐºÐ°ÑĩÐµÑģÑĤÐ²Ð¾": 4726,
      "Ð¸ÑĢÐ¾Ð²Ð°Ð½Ð½ÑĭÐµ": 4727,
      "Ð¼ÐµÑĩ": 4728,
      "ĠÐ¿Ð°Ð´": 4729,
      "ĠÐ¿ÐµÑĩÐ°ÑĤ": 4730,
      "ĠSD": 4731,
      "Ð¸Ð½ÑĤÐµÑĢÐµÑģ": 4732,
      "ĠÑģÐµÐ³Ð¼ÐµÐ½ÑĤ": 4733,
      "ĠÐºÐ¾ÑĢÐ¾ÑĤ": 4734,
      "ĠÑģÐ±Ð¾ÑĢÐºÐ¸": 4735,
      "ĠÐ¿Ð¾Ð´ÑĢÐ°Ð·": 4736,
      "ĠÑģÐ¿Ð¸ÑģÐºÐ°": 4737,
      "ĠÑģÐ³": 4738,
      "Ġ);": 4739,
      "ĠÐłÐµÐ·ÑĥÐ»ÑĮÑĤÐ°ÑĤ": 4740,
      "ĠÑĥÐ¿ÑĢÐ°Ð²Ð»ÐµÐ½Ð¸Ðµ": 4741,
      "29": 4742,
      "ĠÐ¢Ð¾Ð³Ð´Ð°": 4743,
      "ĠÑĢÐµÐ³Ð¸Ð¾Ð½": 4744,
      "ĠÐ¾Ð¿ÑĢ": 4745,
      "ĠÐ´Ð¾Ð³Ð¾Ð²Ð¾ÑĢ": 4746,
      "ĠÐ³Ð¾Ð²Ð¾ÑĢÑı": 4747,
      "ÑĭÐ²Ð°Ð»": 4748,
      "ÑĢÐ¸": 4749,
      "ĠÐ°Ð±ÑģÐ¾Ð»ÑİÑĤ": 4750,
      "ĠÐ²ÑģÑĤ": 4751,
      "ĠÐ¿Ð¾Ð»ÑĥÑĩÐ°ÑĤÑĮ": 4752,
      "ĠÐ¾Ð¿Ð¸ÑģÐ°Ð½Ð¸Ðµ": 4753,
      "ĠÐ±ÑįÐº": 4754,
      "Ġmy": 4755,
      "ĠÐĳÐĶ": 4756,
      "ĠÐ³Ð¾Ð²Ð¾ÑĢÐ¸ÑĤÑĮ": 4757,
      "ĠÑģÐ¼Ð¾ÑĤÑĢ": 4758,
      "ne": 4759,
      "ĠÐĺÐ¼ÐµÐ½Ð½Ð¾": 4760,
      "ĠÐ¿ÐµÑĢÐµÐ·": 4761,
      "])": 4762,
      "ĠÐ¿ÑĢÐ¾Ð´ÑĥÐºÑĤÐ¾Ð²": 4763,
      "print": 4764,
      "ĠÑįÐºÐ·ÐµÐ¼Ð¿Ð»Ñı": 4765,
      "Ð°ÑģÐº": 4766,
      "ĠÐŁÐ¾Ð¼": 4767,
      "ĠÑĥÑģÐ»Ð¾Ð²Ð¸ÑıÑħ": 4768,
      "ĠÐ¿ÑĢÐµÐ´ÐµÐ»": 4769,
      "ĠNet": 4770,
      "ĠÐ±Ð»Ð¸Ð¶Ð°Ð¹": 4771,
      "ĠÐ³Ð¾ÑģÑĥÐ´Ð°ÑĢ": 4772,
      "ĠÐķÐ²": 4773,
      "ĠÐ¼Ð°ÑĪÐ¸Ð½Ñĭ": 4774,
      "ĠÑģÑĤÐ°Ð½ÐµÑĤ": 4775,
      "ĠÐ¾ÑĤÐ²ÐµÑĤÑģÑĤÐ²ÐµÐ½": 4776,
      "Ð¸Ð·Ð²Ð¾Ð´": 4777,
      "ical": 4778,
      "Ð½Ð¸ÐºÐ¾Ð¼": 4779,
      "ÑĤÐ¾ÑĤÐ¸Ð¿": 4780,
      "ĠÐ´ÐµÑĪ": 4781,
      "Add": 4782,
      "ĠÐ½ÐµÐ¹ÑĢÐ¾Ð½": 4783,
      "ostg": 4784,
      "ĠÐ¿Ð¾Ð´ÐºÐ»ÑİÑĩÐµÐ½Ð¸Ñı": 4785,
      "ÑģÐ»Ð¾Ð²": 4786,
      "ĠÐ¾Ñī": 4787,
      "Ð¸ÑĢÐ¾Ð²Ð°Ð½Ð½ÑĭÐ¹": 4788,
      "ĠÐĶÐ°Ð¶Ðµ": 4789,
      "ĠÐ¼Ð¸ÑĢÐ°": 4790,
      "ĠÐºÐ°ÑĩÐµÑģÑĤÐ²Ð°": 4791,
      "ÐµÐ»ÑĮÐ½Ð¾": 4792,
      "CP": 4793,
      "ĠÐ»ÑİÐ±Ð¾Ð¼": 4794,
      "ĠÐ¿Ð¾Ð¼Ð¾Ð¶ÐµÑĤ": 4795,
      "Ð¸ÑĨÐ¸Ð¸": 4796,
      "orld": 4797,
      "cond": 4798,
      "ÑĭÐ²Ð°Ð»Ð¸": 4799,
      "ĠÑĩÐµÐ»Ð¾Ð²ÐµÑĩ": 4800,
      "ÐºÐ¸Ð¼Ð¸": 4801,
      "Ð¾ÑĦ": 4802,
      "ĠÐ³Ðµ": 4803,
      "Event": 4804,
      "ocument": 4805,
      "ĠÑįÐ»ÐµÐºÑĤÑĢ": 4806,
      "Ġ~": 4807,
      "ĠÐ´ÐµÐ¹ÑģÑĤÐ²Ð¸Ð¹": 4808,
      "ÐµÑĢÐ²Ð¸Ñģ": 4809,
      "ÐµÐ¼ÑģÑı": 4810,
      "start": 4811,
      "ĠÐ±ÑĢÐ°ÑĥÐ·ÐµÑĢ": 4812,
      "Ð¸ÑĩÐ½ÑĭÐ¹": 4813,
      "Ð¾Ð½ÑıÑĤ": 4814,
      "ĠÐ¿Ð¾Ð¼Ð¾Ð³Ð°ÐµÑĤ": 4815,
      "Ð¼Ð°Ð½": 4816,
      "ĠÐºÐ¾Ð¼Ð¿Ð¾Ð½ÐµÐ½ÑĤÐ¾Ð²": 4817,
      "ĠÐ±Ñİ": 4818,
      "aster": 4819,
      "ĠÐ¿Ñģ": 4820,
      "ĠÐ²ÐµÐºÑĤÐ¾ÑĢ": 4821,
      "ĠÑĩÐ°ÑģÑĤÐ½Ð¾ÑģÑĤÐ¸": 4822,
      "Ġ64": 4823,
      "ĠÑĢÐ°ÑģÑħÐ¾Ð´": 4824,
      "ĠÐ¼ÐµÑĤÐ¾Ð´Ð¾Ð²": 4825,
      "ĠÐ²Ð¾ÑģÐ¿ÑĢ": 4826,
      "enter": 4827,
      "erial": 4828,
      "Ð¾Ð»Ñı": 4829,
      "ÐºÐ¾ÑģÑĤÐ¸": 4830,
      "ĠÑĦÑĥÐ½ÐºÑĨÐ¸Ð¾Ð½Ð°Ð»": 4831,
      "Ð¾Ð½Ð¸Ð¼": 4832,
      "Ð¿ÐµÑĢÐ²ÑĭÑħ": 4833,
      "ĠÐĶÐ¾Ð¿": 4834,
      "son": 4835,
      "ĠÐ¿ÑĢÐ¾ÐµÐºÑĤÑĭ": 4836,
      "Ġ!=": 4837,
      "Ð°ÐµÑĪÑĮ": 4838,
      "ĠÐļÐ°Ð¶Ð´ÑĭÐ¹": 4839,
      "ĠÐ°Ð²ÑĤÐ¾Ð¼Ð¾Ð±": 4840,
      "Ġdis": 4841,
      "ÑĥÐ¼Ðµ": 4842,
      "ĠÐ¿ÑĢÐµÐ´Ð¿Ð¾Ð»Ð°Ð³": 4843,
      "Ġcase": 4844,
      "ĠÐ·Ð°Ð´ÐµÑĢÐ¶": 4845,
      "ĠÐ¾ÑĤÐ»Ð¸ÑĩÐ¸Ðµ": 4846,
      "ĠID": 4847,
      "ĠÐ²Ð¾Ðº": 4848,
      "ÐºÐ¾Ð³Ð¾": 4849,
      "Ð°ÑĢÐ´": 4850,
      "ĠÐºÐ½Ð¾Ð¿ÐºÑĥ": 4851,
      "ĠÐ´Ð¸Ð°Ð¿Ð°Ð·": 4852,
      "ĠÑģÐ¾Ð²ÐµÑĤ": 4853,
      "ĠÐ·Ð°ÐºÑĢÑĭÑĤ": 4854,
      "sign": 4855,
      "ĠÑįÐºÑģÐ¿ÐµÑĢÐ¸Ð¼ÐµÐ½ÑĤ": 4856,
      "ĠÐľÐ¾ÑģÐº": 4857,
      "ĠÐ¿ÑĢÐ¾Ð³ÑĢÐ°Ð¼Ð¼Ñĥ": 4858,
      "ĠÐ²ÑĢÐµÐ´": 4859,
      "ÑģÐºÐ¸Ð¼": 4860,
      "ĠÐ¿Ð¸ÐºÑģ": 4861,
      "reen": 4862,
      "ÑĤÐ¾ÑĢÑĭ": 4863,
      "Ġ:)": 4864,
      "ĠÑģÐ¾ÑģÑĤÐ°Ð²Ð»ÑıÐµÑĤ": 4865,
      "ĠÑģÐ¿ÑĢÐ¾Ñģ": 4866,
      "ĠÐľÐ¸Ð½": 4867,
      "ĠÐ¾Ð±Ð¾Ð·": 4868,
      "Ð°Ð³Ð¼ÐµÐ½ÑĤ": 4869,
      "ĠÑģÐ´ÐµÐ»Ð°Ð»Ð¸": 4870,
      "Ġ?": 4871,
      "ĠÐ²Ð·ÑıÑĤÑĮ": 4872,
      "ĠÐ¶ÐµÐ»ÐµÐ·": 4873,
      "LO": 4874,
      "ĠÐĺÑģ": 4875,
      "ĠÐ¿Ð¾Ð´Ð´ÐµÑĢÐ¶ÐºÐ°": 4876,
      "ĠÑĤÐµÑģÑĤÑĭ": 4877,
      "ĠÑģÐµÑĢÐ²Ð¸ÑģÑĭ": 4878,
      "for": 4879,
      "ÐµÑĢÑĭÐ²": 4880,
      "Ð¸Ð½Ð¾Ð¹": 4881,
      "ĠÑģÐ¾Ð¾Ð±ÑīÐµÐ½Ð¸Ð¹": 4882,
      "ĠÐ²Ð¾Ð·Ð¼Ð¾Ð¶Ð½Ð¾ÑģÑĤÐµÐ¹": 4883,
      "ĠÐ¿ÑĢÐ¾Ð¸Ð·Ð²Ð¾Ð´Ð¸ÑĤÐµÐ»ÑĮÐ½Ð¾ÑģÑĤÑĮ": 4884,
      "Fi": 4885,
      "ĠÐºÑįÑĪ": 4886,
      "Ð¼Ð°ÑĢ": 4887,
      "ĠÐ½Ð°Ð´ÐµÐ¶": 4888,
      "ĠÐ·Ð°ÐºÐ¾Ð½Ñĩ": 4889,
      "Ġinter": 4890,
      "Ð»ÐµÐ¶": 4891,
      "ĠÐ´ÐµÐ¼Ð¾Ð½ÑģÑĤÑĢ": 4892,
      "ĠÑģÐ°Ð¹ÑĤÐ¾Ð²": 4893,
      "ĠÐ·Ð°ÑīÐ¸Ñī": 4894,
      "ÑĥÑİÑīÐ¸Ð¹": 4895,
      "ĠÑħÐ¾ÑĤÑĮ": 4896,
      "ĠÑĢÐµÐ³ÑĥÐ»ÑıÑĢ": 4897,
      "ish": 4898,
      "pec": 4899,
      "ccess": 4900,
      "Ð»ÑıÐµÑĤÑģÑı": 4901,
      "ÑĳÐ·": 4902,
      "ĠÐ»Ð¸Ð½ÐµÐ¹": 4903,
      "ĠÐ¶ÐµÑģÑĤ": 4904,
      "ĠÑĤÐ°ÐºÑĥÑİ": 4905,
      "ION": 4906,
      "Ð°Ð´ÑĢÐµÑģ": 4907,
      "ĠÐ±Ð»Ð¸Ð·": 4908,
      "ĠÑģÑĤÐ°Ð»Ð°": 4909,
      "den": 4910,
      "Ð¦": 4911,
      "action": 4912,
      "ĠÑĢÐµÑģÑĥÑĢÑģÑĭ": 4913,
      "77": 4914,
      "UT": 4915,
      "ĠÐ¿Ð¾Ð»ÑĮÐ·Ð¾Ð²Ð°ÑĤÐµÐ»ÑıÐ¼": 4916,
      "Sc": 4917,
      "ÐµÐ½Ð½Ð¾ÑģÑĤÐ¸": 4918,
      "ĠÐ·Ð°Ñģ": 4919,
      "ngth": 4920,
      "ĠÑĥÐ½Ð¸Ð²ÐµÑĢÑģÐ¸ÑĤ": 4921,
      "ĠÑģÐ¾Ð´ÐµÑĢÐ¶Ð¸Ð¼": 4922,
      "quire": 4923,
      "ĠÐ±Ð¾ÑĢ": 4924,
      "ĠÐ¸Ð·Ð²": 4925,
      "ĠÐ´Ð¾ÑħÐ¾Ð´": 4926,
      "Ð½ÑİÑİ": 4927,
      "cho": 4928,
      "mail": 4929,
      "ÑĤÐ°ÐºÐ¸": 4930,
      "Ġstart": 4931,
      "ĠÑĥÐ±ÐµÐ´": 4932,
      "ĠÐ±ÐµÐ»": 4933,
      "ĠÐ¡ÑĤÐ¾": 4934,
      "ustom": 4935,
      "ĠÑģÐ°Ð¼Ð¾": 4936,
      "ĠÐ¸ÑģÐºÑĥÑģ": 4937,
      "Ð°ÑıÑģÑĮ": 4938,
      "ĠReact": 4939,
      "ĠÐ·Ð½Ð°ÐµÑĤ": 4940,
      "ĠÐ½ÐµÐ±Ð¾Ð»ÑĮÑĪÐ¾Ð¹": 4941,
      "AA": 4942,
      "PD": 4943,
      "ĠÑģÐ¼ÐµÐ½": 4944,
      "ron": 4945,
      "Ð·Ð°Ð¿": 4946,
      "edia": 4947,
      "ĠÐ½ÐµÐµ": 4948,
      "ÑĥÑĤÑģÑı": 4949,
      "ĠÑģÑĤÐ°ÑĤÑĮÑİ": 4950,
      "ĠÐ¿Ð¾Ð»ÑĮÐ·Ð¾Ð²Ð°ÑĤÑĮÑģÑı": 4951,
      "04": 4952,
      "ĠÐ¾Ð¿Ð»Ð°ÑĤ": 4953,
      "ĠÑĢÐµÐ·ÐµÑĢÐ²": 4954,
      "ĠRes": 4955,
      "ĠÑĢÑĭÐ½Ð¾Ðº": 4956,
      "ĠÐ½Ð°ÑĩÐ°Ð»Ð¸": 4957,
      "ĠÐ½Ð¸ÐºÐ°ÐºÐ¸Ñħ": 4958,
      "Ð½Ð¸ÐºÐ°Ð¼Ð¸": 4959,
      "ĠÐºÐ¾ÑĤÐ¾ÑĢÑĭÐ¼Ð¸": 4960,
      "âĢĿ.": 4961,
      "ĠÐ§Ð°ÑģÑĤÑĮ": 4962,
      "ĠÐ°ÑĥÑĤ": 4963,
      "ÑĢÐ¾Ð²Ð°ÑĤÑĮ": 4964,
      "ĠÐĴÑģÑĳ": 4965,
      "User": 4966,
      "(),": 4967,
      "ÐµÑĢÐ³": 4968,
      "Ġopen": 4969,
      "Item": 4970,
      "ĠÑĨÐµÐ»Ð¸": 4971,
      "ĠÐ´Ð¾Ð»Ð³Ð¾": 4972,
      "ĠÐŁÐ¾ÑģÐºÐ¾Ð»ÑĮÐºÑĥ": 4973,
      "server": 4974,
      "ĠÑįÐºÑĢÐ°Ð½Ð°": 4975,
      "ED": 4976,
      "ĠÑģÐ¾ÑĦ": 4977,
      "ĠÑĦÐ¾ÑĢ": 4978,
      "ĠÐ¸ÑģÐºÐ°ÑĤÑĮ": 4979,
      "ĠWi": 4980,
      "ÑĩÐµ": 4981,
      "ĠÐ¾ÐºÐ°Ð·Ð°Ð»Ð¾ÑģÑĮ": 4982,
      "ĠÑģÐ¾Ð·Ð´Ð°Ð²": 4983,
      "ĠÐ¼ÐµÑģÑıÑĨÐµÐ²": 4984,
      "ĠÑģÐµÑĢÐ²ÐµÑĢÐ¾Ð²": 4985,
      "ÑĢÐ°Ð´": 4986,
      "ĠÐ¿Ð¾ÑģÐ»ÐµÐ´Ð½Ð¸Ðµ": 4987,
      "ĠÐ¿Ð¾Ð»ÑĥÑĩÐ¸Ð»Ð¸": 4988,
      "96": 4989,
      "ĠÑĩÐ¸Ð¿": 4990,
      "Qu": 4991,
      "ĠâĶ": 4992,
      "ĠÐºÐ¾Ð½ÑĤÑĢÐ¾Ð»Ð»": 4993,
      "ĠÐ´ÑĢÑĥÐ³Ð¾Ðµ": 4994,
      "ider": 4995,
      "inal": 4996,
      "ĠÐºÐ°Ð½Ð°Ð»": 4997,
      "ĠÐ»ÑİÐ±Ð¾Ð³Ð¾": 4998,
      "ÐµÐ²Ð°": 4999,
      "ĠÐĿÐ¸Ðº": 5000,
      "ĠÐ´Ð¾ÐºÑĥÐ¼ÐµÐ½ÑĤÐ°ÑĨÐ¸Ð¸": 5001,
      "ULL": 5002,
      "FI": 5003,
      "ĠÐĴÐ¼ÐµÑģÑĤ": 5004,
      "ĠÐ¸ÑģÐ¿Ð¾Ð»ÑĮÐ·Ð¾Ð²": 5005,
      "cl": 5006,
      "Ð¼Ð¾Ð´": 5007,
      "ĠÐ¼Ð¾Ð´ÐµÐ»ÐµÐ¹": 5008,
      "ifi": 5009,
      "ĠÑĢÐ°Ð·Ð½Ð¸ÑĨ": 5010,
      "ĠIN": 5011,
      "95": 5012,
      "ĠÐ¸Ð½Ð¶ÐµÐ½ÐµÑĢ": 5013,
      "oft": 5014,
      "Ð°Ð´Ð¸Ð¼": 5015,
      "ĠÐ»Ð¸Ð´": 5016,
      "ĠÐ¾Ð¿ÑĢÐµÐ´ÐµÐ»ÑĳÐ½": 5017,
      "ĠÐ¸Ð·Ð´": 5018,
      "Ð°Ð½Ð½Ð¾Ðµ": 5019,
      "ĠÐ½Ð°Ð¿ÑĢÑıÐ¶": 5020,
      "SE": 5021,
      "ĠÑĥÑģÐ¿ÐµÑĪÐ½Ð¾": 5022,
      "md": 5023,
      "ĠÐµÐ¶": 5024,
      "ĠÑĤÐ¾ÑĢÐ³": 5025,
      ".)": 5026,
      "ĠÐ¾ÐºÐ¾Ð½Ñĩ": 5027,
      "ĠÐ¿Ð¾Ð»ÑĥÑĩÐ¸Ð»Ð¾ÑģÑĮ": 5028,
      "Ð¾Ð²Ð¾Ðµ": 5029,
      "ĠÑĤÑĢÐ°Ð´": 5030,
      "ĠÐ¿ÑĢÐ¸ÑıÑĤ": 5031,
      "ÑĭÐ»Ð¸": 5032,
      "ĠÑģÐ»ÑĥÑĩÐ°ÐµÐ²": 5033,
      "Ð°ÑİÑīÐµÐ³Ð¾": 5034,
      "Ġ2020": 5035,
      "ĠÐłÐµÑĪ": 5036,
      "ĠÐ¾ÑĢÐ¸ÐµÐ½ÑĤ": 5037,
      "ĠÑĥÐ¿ÑĢÐ¾Ñī": 5038,
      "ĠÑģÑĤÑĢÑĥÐºÑĤÑĥÑĢ": 5039,
      "ĠÐŃÐº": 5040,
      "ĠÑģÐºÐ°Ð·Ð°Ð»": 5041,
      "ĠÑģÑĤÐ¾Ð»Ðº": 5042,
      "OT": 5043,
      "ÑĢÐ¾Ñĩ": 5044,
      "ĠÐºÐ¾Ð¼Ð¼ÐµÑĢ": 5045,
      "Ġ});": 5046,
      "ĠÐ²ÑĭÐ¿Ð¾Ð»Ð½ÑıÑĤÑĮ": 5047,
      "Ð¾ÑĢÐ°ÑĤÐ¾ÑĢ": 5048,
      "ĠÐ²Ð·Ð°Ð¸Ð¼Ð¾Ð´ÐµÐ¹ÑģÑĤÐ²Ð¸Ñı": 5049,
      "ĠÐ¿Ð¾Ð»Ð¾Ð²": 5050,
      "ĠÐ±Ð¾Ð»ÑĮÑĪÐ¸Ñħ": 5051,
      "ĠÐ¾Ð±Ð¾ÑĢÑĥÐ´Ð¾Ð²Ð°Ð½Ð¸Ñı": 5052,
      "item": 5053,
      "MA": 5054,
      "Ð°ÑĢÑĮ": 5055,
      "ĠÐ½ÑĥÐ¶Ð½Ð°": 5056,
      "ĠÐºÐ»Ð°Ð²Ð¸Ð°ÑĤ": 5057,
      "Ð¸Ð²Ð°Ð»": 5058,
      "ĠÐ·Ð½Ð°Ñİ": 5059,
      "ĠÑħÐ°Ð±": 5060,
      "ÑıÑīÐ¸Ñħ": 5061,
      "assword": 5062,
      "ĠÐ¿ÑĢÐ¸ÑģÑĤ": 5063,
      "ĠÐ´Ð°Ð²Ð°Ð¹ÑĤÐµ": 5064,
      "ĠÐ½Ð°Ð·ÑĭÐ²Ð°ÐµÑĤÑģÑı": 5065,
      "ĠÑģÐ²ÑıÐ·ÑĮ": 5066,
      "ĠÐĺÑģÑĤ": 5067,
      "ersion": 5068,
      "ĠÐ±ÑĥÐ¼": 5069,
      "ĠÑĤÑıÐ¶": 5070,
      "ĠÐ²Ð°ÑĪÐ¸": 5071,
      "Ð±Ð¸Ð½": 5072,
      "ÑģÐ¿ÐµÐºÑĤÐ¸Ð²": 5073,
      "Ð¼Ð¾ÑĤ": 5074,
      "err": 5075,
      "ĠÐ±ÑĥÐºÐ²": 5076,
      "uffer": 5077,
      "ĠÑģÑĤÑĢÐ°Ð½Ð¸ÑĨÐµ": 5078,
      "ĠÐ¸Ð·Ð¼ÐµÐ½Ð¸ÑĤÑĮ": 5079,
      "ĠÐ¿Ð¾ÑĪ": 5080,
      "Ð°Ð¼Ð¿": 5081,
      "ĠÑħÐ¾ÑĤÐµÐ»Ð¾ÑģÑĮ": 5082,
      "ĠÐ®": 5083,
      "dis": 5084,
      "ĠÐ¿Ð»Ð°ÑĤÐµÐ¶": 5085,
      "ÑĪÐ¸ÑģÑĮ": 5086,
      "ĠÐĿÐ°Ð¿": 5087,
      "ĠÐŁÐ°ÑĢ": 5088,
      "ĠÑģÐ¾Ð¾ÑĤÐ²ÐµÑĤÑģÑĤÐ²ÐµÐ½Ð½Ð¾": 5089,
      "Ð¸ÑģÐº": 5090,
      "ĠÑĢÐ°Ð·Ð±Ð¸ÑĢ": 5091,
      "ĠÐ²ÑĭÐ¿Ð¾Ð»Ð½Ð¸ÑĤÑĮ": 5092,
      "ÑıÐ¼ÑĥÑİ": 5093,
      "ĠÐ¿Ð¾Ð¼Ð¾ÑĩÑĮ": 5094,
      "ĠÐ¾ÑĤÐ»Ð°Ð´": 5095,
      "ĠÐ·Ð°Ð¿ÑĢ": 5096,
      "ĠÑĢÐ°ÑģÑģÐ¼Ð¾ÑĤÑĢ": 5097,
      "ĠÑħÐ°Ðº": 5098,
      "ĠÐ´Ð°ÑĤÐ°": 5099,
      "ĠÑĩÑĥÐ²ÑģÑĤÐ²": 5100,
      "Ð»ÑĥÑĪ": 5101,
      "Key": 5102,
      "Ð°ÑİÑīÐ°Ñı": 5103,
      "order": 5104,
      "ĠÐºÐ¾Ð½ÑĤÐµÐ¹Ð½": 5105,
      "ĠÑģÑĤÐ°ÑĤÑĥÑģ": 5106,
      "ĠÐľÐ°Ðº": 5107,
      "ubernet": 5108,
      "ÐºÐ¾Ð´": 5109,
      "raw": 5110,
      "ĠÐ¿Ð¸ÑĤÐ°Ð½Ð¸Ñı": 5111,
      "ĠÐ´Ð¾ÐºÐ°Ð·": 5112,
      "ubernetes": 5113,
      "ĠÐºÐ½Ð¾Ð¿ÐºÐ¸": 5114,
      "UI": 5115,
      "ĠÐºÐ¾Ð½ÑĦÐµÑĢÐµÐ½ÑĨÐ¸Ð¸": 5116,
      "ĠÐ·Ð°ÑĤÑĢÐ°ÑĤ": 5117,
      "Service": 5118,
      "Ġmain": 5119,
      "Ð°Ð²Ð»ÑıÑĤÑĮ": 5120,
      "Ð²ÐµÑĢÑģ": 5121,
      "ĠÐºÐ°ÐºÐ¾Ðµ": 5122,
      "ĠÑħÐ¾ÑĩÐµÑĤÑģÑı": 5123,
      "ÐµÑģÐµÐ´": 5124,
      "ĠÐ´Ð°Ð»ÐµÐºÐ¾": 5125,
      "ĠÐ¿Ð¾Ð´Ð´ÐµÑĢÐ¶ÐºÑĥ": 5126,
      "tt": 5127,
      "ĠÑģÐ»Ð¾Ð²Ð¾": 5128,
      "ĠÐ²ÑĭÑıÑģÐ½": 5129,
      "ĠÐ¿Ð¾Ð½Ð¸Ð¼Ð°ÑĤÑĮ": 5130,
      "ĠÐ°Ð¼ÐµÑĢÐ¸Ðº": 5131,
      "ĠÐ¿ÑĢÐ¾Ð¸Ð·Ð¾ÑĪ": 5132,
      "gist": 5133,
      "ĠÐľÐ¾Ð´": 5134,
      ">>": 5135,
      "ĠÑĥÐ²ÐµÐ´Ð¾Ð¼": 5136,
      "ible": 5137,
      "Class": 5138,
      "ĠÐ¿ÑĢÐ¸Ð½ÑıÑĤ": 5139,
      "ĠÐ¿ÑĢÐ°ÐºÑĤÐ¸ÐºÐµ": 5140,
      "ĠÐļÐ¾Ð»": 5141,
      "ÐµÐ½Ð¸ÑıÑħ": 5142,
      "ium": 5143,
      "ĠÐ´Ð°Ð½Ð½Ð¾Ð³Ð¾": 5144,
      "ĠÑģÐ²Ð¾ÐµÐ¼": 5145,
      "ĠÐ·Ð°Ð´ÑĥÐ¼": 5146,
      "ĠÑģÐ¾Ñģ": 5147,
      "ĠÑħÐ¾ÑĩÐµÑĤ": 5148,
      "ĠÐ¼Ð°ÑĢÑĪÑĢÑĥÑĤ": 5149,
      "ĠÐ¸Ð½Ð´ÐµÐºÑģ": 5150,
      "ĠÐĶÐ¾Ð±Ð°Ð²": 5151,
      "ÑĥÑĢÑģ": 5152,
      "ĠÐ¾Ð¿ÐµÑĢÐ°ÑĤÐ¸Ð²": 5153,
      "init": 5154,
      "Ġchar": 5155,
      "ĠÐ²Ð¾Ð·Ð´Ñĥ": 5156,
      "Ð°Ð½Ð°Ð²Ð»": 5157,
      "ĠÐ²ÑĢÑĥÑĩ": 5158,
      "ĠÐ¿Ð¾Ð´ÑĥÐ¼": 5159,
      "Ð²ÑıÐ·": 5160,
      "ĠÐ¿ÑĢÐ¾ÑĤÐ¾ÑĤÐ¸Ð¿": 5161,
      "ĠÐ´Ð¸Ð·Ð°Ð¹": 5162,
      "Ġtext": 5163,
      "ĠÑĤÑĥ": 5164,
      "ĠÐ±Ð¾Ð»ÑĮÑĪÐ¾Ðµ": 5165,
      "ĠÐ´Ð²ÑĥÐ¼Ñı": 5166,
      "88": 5167,
      "ĠÐ°Ð»ÑĮÑĤÐµÑĢÐ½Ð°ÑĤÐ¸Ð²": 5168,
      "ĠÐ½Ð°Ð¿ÑĢÑıÐ¼ÑĥÑİ": 5169,
      "ĠÐ´Ð¾ÑģÑĤÐ¸Ð¶": 5170,
      "ative": 5171,
      "Ġse": 5172,
      "ces": 5173,
      "ĠÐ½Ð°Ð»Ð¸ÑĩÐ¸Ðµ": 5174,
      "Ð¸ÑģÑĤÐµÐ¼Ð°": 5175,
      "www": 5176,
      "zon": 5177,
      "ĠÐ¿ÑĢÐ¸Ð²ÑıÐ·": 5178,
      "sour": 5179,
      "ĠÐºÐ¾Ð½ÑĤÐµÐ½ÑĤÐ°": 5180,
      "ĠÐ½ÐµÐ¿Ð¾ÑģÑĢÐµÐ´ÑģÑĤÐ²ÐµÐ½Ð½Ð¾": 5181,
      "ĠÑģÐ²Ð¾Ð¹ÑģÑĤÐ²Ð°": 5182,
      "Ð¸ÑĢÐ¾Ð²Ð°Ð½Ñĭ": 5183,
      "ĠÑĤÑĢÐ°ÑĤ": 5184,
      "Ð½Ð¸ÐºÐ°Ð¼": 5185,
      "ĠÐ¿Ð¾Ð»ÑĥÑĩÐ°ÐµÑĤ": 5186,
      "ular": 5187,
      "ÐµÑĤÐ¸": 5188,
      "ĠÐ¿Ð¾Ð»ÑĥÑĩÐ¸Ð»": 5189,
      "ĠÑĢÐ°ÑģÑģÐºÐ°Ð·Ð°ÑĤÑĮ": 5190,
      "ĠRE": 5191,
      "ĠÑĪÑĤÑĥ": 5192,
      "ÑĥÐ±Ð»Ð¸Ñĩ": 5193,
      "Ð²ÑĤÐ¾ÑĢ": 5194,
      "ĠÐŁÐ¾Ð´ÑĢÐ¾Ð±": 5195,
      "ĠÐ´Ð°ÑĤÑĮ": 5196,
      "ĠÐ¼Ð°ÑĤÐµÑĢÐ¸Ð°Ð»": 5197,
      "DR": 5198,
      "ĠÐ·Ð°Ð»": 5199,
      "irt": 5200,
      "Ð¾Ð¶Ð°Ð»ÑĥÐ¹": 5201,
      "ĠÑĢÐµÐ·ÑĥÐ»ÑĮÑĤÐ°ÑĤÐ¾Ð²": 5202,
      "ĠÐĴÐ½": 5203,
      "ĠÐ¿Ð¾Ð»ÑĮÐ·Ð¾Ð²Ð°ÑĤÐµÐ»Ñİ": 5204,
      "ĠÐºÐ°ÐºÑĥÑİ": 5205,
      "Ð¸ÑĩÐµÑģÐºÐ¾Ð¼": 5206,
      "ĠÐ´ÐµÑĢÐ¶": 5207,
      "ĠÑģÐ´ÐµÐ»Ð°Ð»": 5208,
      "ĠÐĲÐ»ÐµÐºÑģ": 5209,
      "ĠÐ°ÐºÑĤÐ¸Ð²Ð½Ð¾": 5210,
      "Ð½Ð¾Ð³Ð¸Ðµ": 5211,
      "ĠÐ½Ð°Ð½": 5212,
      "ĠÐ³Ð»Ð°Ð²Ð½Ð¾Ðµ": 5213,
      "ĠÑĢÐ°ÑģÑģÐ¼Ð¾ÑĤÑĢÐ¸Ð¼": 5214,
      "Ġsize": 5215,
      "pace": 5216,
      "Ð¸ÑĤÐµÐ»ÑĮÐ½ÑĭÐ¹": 5217,
      "ĠRed": 5218,
      "ĠÐºÐ¾Ð¼Ð°Ð½Ð´Ðµ": 5219,
      "andler": 5220,
      "ĠÐ¾ÑĦÐ¾ÑĢÐ¼": 5221,
      "ĠÐ½Ð¾Ð²Ð¾Ðµ": 5222,
      "ĠÐ²Ð°Ðº": 5223,
      "ĠÑģÑĤÐ°ÑĤÐµÐ¹": 5224,
      "Ð»ÑĥÐ°ÑĤ": 5225,
      "ĠÐ±Ð°ÑĤÐ°ÑĢ": 5226,
      "ĠÐµÑģÑĤÐµÑģÑĤÐ²": 5227,
      "ĠÐ²ÑģÐµÐ¼Ð¸": 5228,
      "ĠÐ¼ÐµÑĢÐ¾Ð¿ÑĢÐ¸ÑıÑĤ": 5229,
      "ĠÑģÑĥÑī": 5230,
      "Ð¾ÑĤÐ½Ð¾": 5231,
      "ĠÑĤÑĢÐ°Ð½ÑģÐ¿": 5232,
      "ĠÐŁÑĢÐ¾Ð±Ð»ÐµÐ¼": 5233,
      "xy": 5234,
      "ĠÐ¾Ð¿Ð°Ñģ": 5235,
      "ĠÐ²Ð¾ÐºÑĢÑĥÐ³": 5236,
      "VM": 5237,
      "ĠÑĥÑĩÐµÐ½": 5238,
      "ĠÑģÑĤÑĢÑĥÐºÑĤÑĥÑĢÑĭ": 5239,
      "ĠÑĥÐºÐ°Ð·Ð°ÑĤÑĮ": 5240,
      "ĠÐ½Ð°ÑģÑĤÑĢÐ¾Ð¸ÑĤÑĮ": 5241,
      "ĠÐ±Ð¸": 5242,
      "Ð»ÐµÐ½Ð¾": 5243,
      "ĠVis": 5244,
      "ĠÐ²ÑģÐµÐ¼Ñĥ": 5245,
      "ĠÑĦÐ¾ÑĢÐ¼Ð°ÑĤÐµ": 5246,
      "ĠÐ¿Ð¾Ð·Ð¶Ðµ": 5247,
      "ĠÑĤÐ¾Ð»": 5248,
      "round": 5249,
      "ĠÑĥÐ¿ÑĢÐ°Ð²Ð»ÑıÑĤÑĮ": 5250,
      "ĠÐ¾ÑģÐ½Ð¾Ð²Ð½ÑĭÐµ": 5251,
      "Int": 5252,
      "Ġ90": 5253,
      "ĠÐĿÑĥÐ¶": 5254,
      "eam": 5255,
      "ĠÐ¿ÐµÑĢÐ²Ð¾Ð¼": 5256,
      "ÑĳÑħ": 5257,
      "ÐµÑİÑģÑĮ": 5258,
      "Ð·ÑĭÐ²": 5259,
      "Ġ:=": 5260,
      "ĠÐ´ÐµÐ»Ð°ÑİÑĤ": 5261,
      "ĠFire": 5262,
      "ession": 5263,
      "ĠÑĢÐ°Ðº": 5264,
      "lex": 5265,
      "ÑĪÐ¸Ð¼": 5266,
      "ility": 5267,
      "ĠÐ½Ð°Ð¶Ð°ÑĤ": 5268,
      "ĠÑĥÑĤÐ²ÐµÑĢÐ¶Ð´": 5269,
      "rit": 5270,
      "ĠÐ½Ð°Ð·ÑĭÐ²Ð°ÐµÐ¼": 5271,
      "ĠÑĥÑĩÐ°ÑģÑĤÐ½Ð¸ÐºÐ¾Ð²": 5272,
      "ĠÐ¡ÐµÐ³Ð¾Ð´Ð½Ñı": 5273,
      "ĠÐĳÐµÐ·": 5274,
      "76": 5275,
      "ĠÑĢÐ°ÑģÑģÑĩÐ¸ÑĤ": 5276,
      "ĠÐ´Ð¾Ð²ÐµÑĢ": 5277,
      "Ġ2019": 5278,
      "ĠÐ²ÑĢÐµÐ¼ÐµÐ½ÐµÐ¼": 5279,
      "Model": 5280,
      "cc": 5281,
      "Ð½ÐµÐ¼Ñĥ": 5282,
      "ĠÑģÐºÐ°Ð½": 5283,
      "ĠÐ´Ð¾Ð¼Ð°": 5284,
      "Ġ~~": 5285,
      "ĠÐ´ÑĢÐ°Ð¹": 5286,
      "dent": 5287,
      "lob": 5288,
      "ĠÑģÑĢÐ°Ð²Ð½ÐµÐ½Ð¸Ñİ": 5289,
      "ÐµÐ¶Ð°ÑĤÑĮ": 5290,
      "Ġ<<": 5291,
      "ĠÐ¾ÑĤÐ¼ÐµÑĩ": 5292,
      "ĠÑĢÐ¾Ð»ÑĮ": 5293,
      "Ð¸ÑĪÑĮ": 5294,
      "reak": 5295,
      "ĠÐ¿ÑĢÐ¸Ð¼ÐµÐ½ÐµÐ½Ð¸Ñı": 5296,
      "PE": 5297,
      "CH": 5298,
      "ĠÐ¾ÑģÐ½Ð¾Ð²Ð½ÑĭÑħ": 5299,
      "ĠÐ¿Ð»ÑİÑģ": 5300,
      "Path": 5301,
      "ÑıÑīÐ¸Ðµ": 5302,
      "ÐĵÑĨ": 5303,
      "ÐµÐ»ÐµÐ¹": 5304,
      "Ð½Ð¾ÑģÑĤÑıÐ¼Ð¸": 5305,
      "urity": 5306,
      "ĠÑģÐ´": 5307,
      "ĠÐ½Ñĥ": 5308,
      "45": 5309,
      "Ð»ÑıÐ´": 5310,
      "ĠÑĦÑĢÐ°Ð³Ð¼ÐµÐ½ÑĤ": 5311,
      "ĠÐ²Ð¾Ð·ÑĢÐ°ÑģÑĤ": 5312,
      "ĠFl": 5313,
      "ĠÑģÑĤÑĢÐ°Ð½Ð¸ÑĨÑĥ": 5314,
      "ĠÐ¿ÐµÑĢÐ²ÑĭÑħ": 5315,
      "ÑĭÐº": 5316,
      "xx": 5317,
      "ÑħÐµÐ¼": 5318,
      "ĠÐ²ÑĭÐ½": 5319,
      "uration": 5320,
      "ĠÐ·Ð°ÑĩÐµÐ¼": 5321,
      "Ġlist": 5322,
      "Ð°Ð¼ÐµÐ½": 5323,
      "ĠÐ´ÑĢÑĥÐ³Ð°": 5324,
      "Ð¸ÑĩÐ½ÑĭÐµ": 5325,
      "ĠÑģÑĤÐ¾ÑĢÐ¾Ð½Ñĥ": 5326,
      "ĠÐ¿Ð»Ð°ÑģÑĤ": 5327,
      "ĠÐ¿ÐµÑĢÑģÐ¿ÐµÐºÑĤÐ¸Ð²": 5328,
      "ĠÐ²Ð¸Ð´ÐµÑĤÑĮ": 5329,
      "ĠÑģÑĦÐ¾ÑĢÐ¼": 5330,
      "Ġab": 5331,
      "ĠÐłÐµ": 5332,
      "arch": 5333,
      "ĠÐ½Ð°ÐºÐ¾Ð¿": 5334,
      "ĠÑģÐµÑĢÐ²ÐµÑĢÐµ": 5335,
      "ĠÐ¾Ð±Ð¾Ð·Ð½Ð°Ñĩ": 5336,
      "include": 5337,
      "ĠÐ¿ÑĢÐ¾ÑĨÐµÑģÑģÐ¾Ð²": 5338,
      "ĠÐĿÐµÐºÐ¾ÑĤÐ¾ÑĢÑĭÐµ": 5339,
      "ify": 5340,
      "ĠÑģÐ¾Ð·Ð´Ð°Ð½Ð¸Ð¸": 5341,
      "ĠÐºÐ¾Ð¼Ð¿Ð¾Ð½ÐµÐ½ÑĤÑĭ": 5342,
      "ĠPlay": 5343,
      "Ð°ÑĤÐ¾Ñĩ": 5344,
      "ÑĢÐ¸ÑĦ": 5345,
      "75": 5346,
      "ĠÑģÑĥÐ±": 5347,
      "ĠÐ²Ð¾Ð¿ÑĢÐ¾ÑģÐ¾Ð²": 5348,
      "ĠÐ´ÑĥÐ¼Ð°Ñİ": 5349,
      "Ð°Ð³ÑĢÑĥÐ·": 5350,
      "ĠÑģÑĢÐµÐ´ÑģÑĤÐ²Ð°": 5351,
      "ĠÑĦÐ¸ÐºÑģ": 5352,
      "ĠÐ¿ÑĢÐ¾Ð²Ð°Ð¹Ð´": 5353,
      "ĠÐ½ÐµÐ¾Ð±ÑħÐ¾Ð´Ð¸Ð¼ÑĭÐµ": 5354,
      "ĠÑĥÐ²ÐµÑĢÐµÐ½": 5355,
      "ĠÐ¿ÐµÑĢÐ²ÑĭÐµ": 5356,
      "},": 5357,
      "ĠÐ½Ð¾Ñģ": 5358,
      "Ð¾Ð²Ð°Ð½Ð¸Ð¸": 5359,
      "uble": 5360,
      "ÑĢÑĭÑĤ": 5361,
      "ĠÐºÐ¾Ð´Ð¾Ð¼": 5362,
      "ĠÐ¸Ñī": 5363,
      "ÐµÐ²Ð¾Ð³Ð¾": 5364,
      "query": 5365,
      "uld": 5366,
      "ĠÐ½ÐµÐ¿Ð»Ð¾Ñħ": 5367,
      "Ð¾Ð¹ÑĩÐ¸Ð²": 5368,
      "Ð°ÑĢÐ¾Ð´": 5369,
      "eat": 5370,
      "pi": 5371,
      "ues": 5372,
      "ÐµÐ½Ð´Ñĥ": 5373,
      "ĠÐŁÐ¾Ð¿": 5374,
      "ĠÐºÑĢÐ°ÑģÐ¸Ð²": 5375,
      "ĠÑģÑĤÑĢÐ¾ÐºÑĥ": 5376,
      "ĠÐ²ÐµÐº": 5377,
      "ĠÐ´Ð¾Ð¿Ð¾Ð»Ð½Ð¸ÑĤÐµÐ»ÑĮÐ½ÑĭÐµ": 5378,
      "ĠÑģÑĤÑĢÐµÐ¼": 5379,
      "ĠÐ¿ÑĢÐµÐ´Ð¿Ð¾Ð»Ð¾Ð¶": 5380,
      "ÐºÐ¾ÑĢ": 5381,
      "ĠÐŁÐ¾Ð»ÑĮÐ·": 5382,
      "Ð°Ð½Ð´Ð¸Ð´": 5383,
      "Ġper": 5384,
      "Ð°Ð¹ÑĤÐµÑģÑĮ": 5385,
      "ĠÐ¿ÑĢÐµÐºÑĢÐ°Ñģ": 5386,
      "ĠÐ¿ÑĢÐ¸Ð¾ÑĢÐ¸ÑĤ": 5387,
      "Ġusing": 5388,
      "âĢĵ": 5389,
      "ĠÐ²ÑĢÑĥÑĩÐ½ÑĥÑİ": 5390,
      "ĠÐ¡Ð¾Ð²": 5391,
      "Ġ500": 5392,
      "////": 5393,
      "Th": 5394,
      "ĠÐ¾Ð¿ÐµÑĢÐ°ÑĨÐ¸Ð¹": 5395,
      "ĠÐ°Ð´Ð°Ð¿ÑĤ": 5396,
      "Ġerror": 5397,
      "ĠÐ¿Ð¾ÑģÐ²": 5398,
      "ĠÐ¿ÑĢÐµÐ´Ð¿Ð¾Ñĩ": 5399,
      "sec": 5400,
      "ĠÐ¿ÑĢÐ¸ÑĢ": 5401,
      "Ð¸ÑĢÐ¾Ð²Ð°Ð½Ð¸Ñİ": 5402,
      "ĠÐĴÐ°ÑĪ": 5403,
      "CC": 5404,
      "ĠÐłÐ¤": 5405,
      "((": 5406,
      "ĠÐ¡Ð¾Ð±": 5407,
      "ĠÐ²Ð»Ð°Ð´ÐµÐ»ÑĮ": 5408,
      "ĠÐ½Ð°ÑħÐ¾Ð´ÑıÑĤÑģÑı": 5409,
      "Ð¾Ð²ÑĭÐ¼": 5410,
      "ÑĥÑı": 5411,
      "ĠÐºÐ¾Ð½ÑĤÑĢÐ¾Ð»ÑĮ": 5412,
      "ĠÐ¿ÑıÑĤ": 5413,
      "ÑĩÐ¸ÐºÐ¸": 5414,
      "ĠÑĤÑĥÐ´Ð°": 5415,
      "ĠÐłÐ°ÑģÑģ": 5416,
      "ÑĥÐ¹ÑĤÐµ": 5417,
      "'s": 5418,
      "Ð¸Ð¼Ð¾ÑģÑĤÐµÐ¹": 5419,
      "39": 5420,
      "ĠÐŁÐµÑĢÐ²ÑĭÐ¹": 5421,
      "ĠÐ°Ð´Ð¼Ð¸Ð½Ð¸ÑģÑĤÑĢÐ°": 5422,
      "Ġall": 5423,
      "ĠÑĪÐ¸ÑĦÑĢ": 5424,
      "Ð²Ð¾Ð»ÑĮ": 5425,
      "ĠÐĳÑĥÐ´": 5426,
      "ĠÑįÐºÑģÐ¿Ð»ÑĥÐ°ÑĤ": 5427,
      "ĠAs": 5428,
      "ĠÐ¿Ð»Ð¾ÑħÐ¾": 5429,
      "Ġ]": 5430,
      "UN": 5431,
      "ĠÐľÐµÑĤ": 5432,
      "Ð¾Ð¼ÑıÐ½": 5433,
      "its": 5434,
      "ĠGo": 5435,
      "Ð°ÑĦ": 5436,
      "ÑİÐ´Ð°": 5437,
      "ĠÐ±ÑĥÑĦ": 5438,
      "ĠÐ¼ÐµÐ´Ð»ÐµÐ½": 5439,
      "ĠÐ¸Ð³ÑĢÑĥ": 5440,
      "ĠÐ¡ÑĢÐµÐ´": 5441,
      "Context": 5442,
      "MP": 5443,
      "Ð¸Ð½ÑħÑĢÐ¾Ð½": 5444,
      "Ġread": 5445,
      "ĠÐ¼Ð¾ÑĢ": 5446,
      "ĠÐ¿ÑĢÐ¾Ð³Ð½Ð¾Ð·": 5447,
      "ĠÐ¸Ð¼ÐµÐ½Ð¸": 5448,
      "cord": 5449,
      "ĠÐ´ÑĢÑĥÐ·": 5450,
      "ĠÐ¿Ð¾Ð´ÑħÐ¾Ð´Ð¸ÑĤ": 5451,
      "ĠÑģÐ¾Ð±ÐµÑģÐµÐ´": 5452,
      "ĠÐºÐ½Ð¸Ð³Ð¸": 5453,
      "ĠÐ²Ð»Ð¾Ð¶": 5454,
      "Ġext": 5455,
      "ĠÐ´Ð¾ÑģÑĤÑĥÐ¿Ð½Ñĭ": 5456,
      "Ġecho": 5457,
      "ĠÐ½Ð°ÑģÑĤÑĢÐ°": 5458,
      "ĠÑģÐ»Ð°Ð±": 5459,
      "ĠÐŀÑģÑĤ": 5460,
      "ĠÐºÐ°ÑģÐ°ÐµÑĤÑģÑı": 5461,
      "ÑĥÑģÑĤÑĮ": 5462,
      "âĢĿ,": 5463,
      "ĠÑģÐ²Ð¾Ð¸Ð¼Ð¸": 5464,
      "Ġ1000": 5465,
      "Ð¼ÑĥÐ»ÑıÑĤÐ¾ÑĢ": 5466,
      "ĠÐ¿ÑĢÐ¸Ð²Ð¾Ð´Ð¸ÑĤ": 5467,
      "ÑİÑīÐ¸Ðµ": 5468,
      "ĠÐ²Ð²ÐµÐ´": 5469,
      "erv": 5470,
      "ĠÐ¿Ð¾ÐºÐ¾Ð»": 5471,
      "Ð±Ð°": 5472,
      "ĠÑĥÑģÑĤÐ°Ð½Ð°Ð²Ð»Ð¸Ð²": 5473,
      "ĠÐ´ÑĢÑĥÐ³Ð¾Ð³Ð¾": 5474,
      "ĠÐ¿ÑĢÐµÐ´ÑģÐºÐ°Ð·": 5475,
      "ĠÐ¿Ð¾Ð»ÑĥÑĩÐ¸ÑĤÑģÑı": 5476,
      "ĠÐ½Ð°Ð¼Ð¸": 5477,
      "ĠÑıÐ´ÑĢÐ°": 5478,
      "ĠÐºÑĢÐ°Ð¹Ð½Ðµ": 5479,
      "ĠÐ·Ð°Ð½ÑıÑĤ": 5480,
      "ĠÑģÑĩÐ¸ÑĤÐ°ÑĤÑĮ": 5481,
      "ĠÐĶÐ¾": 5482,
      "Ġsource": 5483,
      "ĠÐ¿ÑĢÐ¸Ð¼ÐµÑĢÐ°": 5484,
      "ĠÐ²Ð°ÑĢÐ¸Ð°Ð½ÑĤÐ¾Ð²": 5485,
      "ĠÐķÐ³Ð¾": 5486,
      "emory": 5487,
      "ĠÑģÐ¸Ð³Ð½Ð°Ð»": 5488,
      "Hub": 5489,
      "ÑıÑīÐ¸Ð¹": 5490,
      "ÐµÑīÐµÐ½Ð¸Ðµ": 5491,
      "ĠÐ·Ð°ÑĢÐ°Ð±Ð¾ÑĤ": 5492,
      "ĠOr": 5493,
      "ĠÑģÐµÑĤÐµÐ¹": 5494,
      "ĠÐŀÑĩÐµÐ½ÑĮ": 5495,
      "Ġtrans": 5496,
      "ĠÑĢÐ°Ð·Ð¼ÐµÑĢÐ°": 5497,
      "witch": 5498,
      "AG": 5499,
      "rome": 5500,
      "ĠÑıÐ·ÑĭÐºÐ¾Ð²": 5501,
      "Ð°Ð±Ð¾ÑĢÐ°ÑĤÐ¾ÑĢ": 5502,
      "66": 5503,
      "Ġfloat": 5504,
      "ĠÐ¿Ð¾Ð´ÑĢÐ¾Ð±Ð½Ð¾": 5505,
      "Ð¸ÑĤÐµÐ»ÑĮÐ½ÑĭÑħ": 5506,
      "Ð¸ÑĩÐµÑģÐºÐ¸Ð¼Ð¸": 5507,
      "ĠInter": 5508,
      "ĠÐ¿ÑĥÐ±Ð»Ð¸Ñĩ": 5509,
      "ĠÐ±Ð¾Ð»ÑĮÑĪÐ°Ñı": 5510,
      "earch": 5511,
      "ĠÐ½Ð°Ð·Ð²Ð°Ð½Ð¸ÐµÐ¼": 5512,
      "json": 5513,
      "ĠÑĥÑģÐ»Ð¾Ð²Ð¸Ñı": 5514,
      "ĠÐ¿Ð¾Ð´ÑĤÐ²ÐµÑĢÐ¶Ð´": 5515,
      "Ð´ÑĥÑģÑĤÑĢ": 5516,
      "ĠÐŀÐ´Ð¸Ð½": 5517,
      "ĠÐ¸Ð·Ð¾Ð±ÑĢÐ°Ð¶ÐµÐ½Ð¸Ðµ": 5518,
      "plo": 5519,
      "ĠÑģÐ¸Ñħ": 5520,
      "ĠÐŁÐ¾ÐºÐ°": 5521,
      "ÑĩÐµÑĤÐ°": 5522,
      "ĠÑĤÐµÑģÑĤÐ¸ÑĢÐ¾Ð²Ð°Ð½Ð¸Ðµ": 5523,
      "Ġwas": 5524,
      "ĠÑģÐ¾ÑģÑĤÐ¾ÑıÐ½Ð¸Ð¸": 5525,
      "ĠOS": 5526,
      "ĠÐ¿ÑĢÐ¸Ð²ÑĭÑĩ": 5527,
      "ĠHD": 5528,
      "Ð°ÑĢÑĤÐ°": 5529,
      "ĠÐ»ÐµÐº": 5530,
      "itor": 5531,
      "ÑįÐ½": 5532,
      "ĠÐ±Ð°Ð·Ñĥ": 5533,
      "ĠÑģÑĤÐ¸Ð»": 5534,
      "ÑħÑĥ": 5535,
      "ĠÑĢÐµÐ´Ð°ÐºÑĤÐ¾ÑĢ": 5536,
      "ĠÐ´Ð»Ð¸Ð½": 5537,
      "ĠÐĴÐ°Ð¶": 5538,
      "ĠÐ¿Ð¾Ð¿ÑĢÐ¾Ð±Ð¾Ð²Ð°ÑĤÑĮ": 5539,
      "ĠÐºÐ»ÐµÑĤ": 5540,
      "Ġ2016": 5541,
      "78": 5542,
      "ĠÑĥÑĩÐ°ÑģÑĤÐ²": 5543,
      "ĠÐºÐ¾Ð¼Ð¼ÑĥÐ½Ð¸Ðº": 5544,
      "ĠÐ¾ÑĨÐµÐ½ÐºÐ¸": 5545,
      "ĠÐļÐ¾Ð´": 5546,
      "ĠDev": 5547,
      "ĠÐ·Ð°ÑĢÐµÐ³Ð¸ÑģÑĤÑĢ": 5548,
      "Ð²ÐµÑĢÐ´": 5549,
      "ĠÐ²Ð²Ð¾Ð´Ð°": 5550,
      "ĠÐ¾ÑĤÑĩÐµÑĤ": 5551,
      "ÑĤÐ°ÐºÑģ": 5552,
      "ĠYou": 5553,
      "ĠÐºÐ¾Ð¼Ð¿Ð»ÐµÐºÑĤ": 5554,
      "Ġwww": 5555,
      "ĠÐ¼Ð¾Ð¼ÐµÐ½ÑĤÐ°": 5556,
      "ĠÐŁÑĢÐ¾Ð²ÐµÑĢ": 5557,
      "ts": 5558,
      "Ġback": 5559,
      "ĠÑģÐ¿ÑĥÑĤ": 5560,
      "ĠÐ·Ð´Ð¾ÑĢÐ¾Ð²": 5561,
      "ĠÐ´Ð¾Ð¼ÐµÐ½": 5562,
      "ponse": 5563,
      "ĠÐļÐ¾ÑĢ": 5564,
      "ĠÑįÐ»ÐµÐ¼ÐµÐ½ÑĤÐ°": 5565,
      "ĠÐ½ÐµÐ¼Ñĥ": 5566,
      "ĠÑĤÑĢÐ°ÑĦÐ¸ÐºÐ°": 5567,
      "ĠÐĿÐµÑģ": 5568,
      "orage": 5569,
      "ĠÐ¿ÑĢÐ¸Ð½ÑĨÐ¸Ð¿Ðµ": 5570,
      "ĠÐ¿ÑĢÐµÐ´Ð¾ÑģÑĤÐ°Ð²Ð»ÑıÐµÑĤ": 5571,
      "Ġcomm": 5572,
      "ĠÐĳÐ»Ð°Ð³": 5573,
      "ĠÐ¸Ð·Ð²ÐµÑģÑĤÐ½Ð¾": 5574,
      "ĠMac": 5575,
      "ĠÐ¸Ð·Ð¾Ð±ÑĢÐ°Ð¶ÐµÐ½Ð¸Ð¹": 5576,
      "ĠÑĦÐ°Ð¹Ð»Ðµ": 5577,
      "ĠÐ½Ð°ÐºÐ¾Ð½ÐµÑĨ": 5578,
      "ĠÐ±ÑĭÐ²Ð°ÐµÑĤ": 5579,
      "ĠÐ¿Ð¾Ð¶": 5580,
      "ĠÐ½Ð°ÑģÑĤÐ¾Ð»ÑĮÐºÐ¾": 5581,
      "Ġ21": 5582,
      "ĠÑĤÐµÐ³": 5583,
      "tx": 5584,
      "ĠÐŁÑĢÐ¾Ð³ÑĢÐ°Ð¼Ð¼": 5585,
      "ÑĪÐ°Ñı": 5586,
      "udo": 5587,
      "ĠÐ¾Ð±Ð·Ð¾ÑĢ": 5588,
      "Error": 5589,
      "ainer": 5590,
      "ĠÐ²ÑģÑĤÐ°Ð²": 5591,
      "Ð¿ÑĢÐ¾ÐµÐºÑĤ": 5592,
      "arent": 5593,
      "Ġcall": 5594,
      "ĠÐ½ÐµÐ½": 5595,
      "Ð¾Ð²ÑĥÑİ": 5596,
      "ĠÐºÐ¾Ð½ÑĨÐ°": 5597,
      "ĠÑģÐ¶": 5598,
      "Ð°Ð½Ðº": 5599,
      "ĠÐ±Ð¾": 5600,
      "Ġ__": 5601,
      "ĠÐ²Ð°ÑĢÐ¸Ð°Ð½ÑĤÑĭ": 5602,
      "Ġpl": 5603,
      "ĠÑģÑĩÑĳÑĤ": 5604,
      "Ð´Ñĭ": 5605,
      "ĠÐºÐ¾ÑĢÐ¾Ð±": 5606,
      "PN": 5607,
      "Ð°ÐµÐ¼ÑĭÑħ": 5608,
      "ĠÐ·Ð»Ð¾": 5609,
      "ĠÑģÐ²Ð¾Ð¹ÑģÑĤÐ²": 5610,
      "Ġinstall": 5611,
      "ĠÐ±Ð¾Ð»ÑĮÑĪÐ¸Ð¼": 5612,
      "ÐµÐ½Ð´ÐµÑĢ": 5613,
      "ÑĤÑĢÐ¾Ð»": 5614,
      "ĠÐ¿ÑĢÐ¾Ð³ÑĢÐ°Ð¼Ð¼Ð½Ð¾Ð³Ð¾": 5615,
      "ĠÑĢÑĥÑĩ": 5616,
      "Ð¾Ð²Ð°ÑĤÐµÐ»Ð¸": 5617,
      "ĠÐĴÐ°Ð¼": 5618,
      "ĠÐ²Ð¿ÐµÑĩÐ°ÑĤ": 5619,
      "ÑĤÐ¾ÑĢÐ¾Ð²": 5620,
      "ĠÐ¿Ð¾Ð³Ð¾Ð²Ð¾ÑĢ": 5621,
      "Ð¾Ð½Ð¾Ñģ": 5622,
      "ĠÐ¤ÑĥÐ½Ðº": 5623,
      "ÐµÑĢÐ°ÑĤÐ¾ÑĢÐ°": 5624,
      "ÐºÐ°Ð½": 5625,
      "ĠÐ¿ÑĢÐ¸Ð²Ð»ÐµÐº": 5626,
      "ĠÐ·Ð°ÑĢÐ°Ð½ÐµÐµ": 5627,
      "ĠÐºÐ¾ÑĤÐ¾ÑĢÐ¾Ð¼Ñĥ": 5628,
      "ĠÐ³Ð»ÑĥÐ±Ð¾Ðº": 5629,
      "ĠÑģÐ¼Ð¾Ð¶ÐµÑĤÐµ": 5630,
      "Ð»Ð¾Ð³": 5631,
      "Ð¸Ð¿ÐµÐ´": 5632,
      "ĠÐ·Ð°Ð¸Ð½ÑĤÐµÑĢÐµÑģ": 5633,
      "--------------------------------": 5634,
      "ÐºÑĥÑģ": 5635,
      "ĠCode": 5636,
      "ĠÐ¾ÑĤÑĢÐ°Ð¶": 5637,
      "ĠÐ¯Ð½Ð´ÐµÐºÑģ": 5638,
      "eng": 5639,
      "sub": 5640,
      "ĠÐ¾ÑĤÐ·ÑĭÐ²": 5641,
      "ĠÐ²Ð¸Ð´Ð°": 5642,
      "Ð°Ð²Ð»ÑıÐµÐ¼": 5643,
      "ĠâĨĴ": 5644,
      "ĠÐ±ÑİÐ´Ð¶": 5645,
      "ĠÑģÐ¾Ð±ÑĢÐ°ÑĤÑĮ": 5646,
      "ĠÐ¿ÑĢÐ¸Ð¼ÐµÑĢÑĭ": 5647,
      "ĠÐ¿ÑĢÐ¸Ð±Ð»": 5648,
      "ĠÐ¿Ð¾ÐºÐ°Ð·Ð°ÑĤÑĮ": 5649,
      "ĠÐ¾Ð³ÑĢÐ°Ð½Ð¸ÑĩÐµÐ½Ð¸Ñı": 5650,
      "ĠÑĪÐºÐ¾Ð»": 5651,
      "conf": 5652,
      "ĠÐĿÐ°Ð¼": 5653,
      "ĠÐ¿Ð¾Ð»Ð½Ð¾ÑĨÐµÐ½": 5654,
      "ĠÐ¼Ð¸Ð½ÑĥÑģ": 5655,
      "zure": 5656,
      "ÑĤÐµÑģÑĤ": 5657,
      "Ġ/>": 5658,
      "ĠÐ¼Ð¸Ð»Ð»Ð¸Ð¾Ð½Ð¾Ð²": 5659,
      "rep": 5660,
      "ĠÐ¾Ð±Ð¾": 5661,
      "ĠÐ²Ð°Ð¼Ð¸": 5662,
      "ĠÐ¿Ð¾Ð²ÐµÐ´ÐµÐ½Ð¸Ðµ": 5663,
      "ĠÑģÐ¾Ð²Ð¿Ð°Ð´": 5664,
      "Un": 5665,
      "Ġwork": 5666,
      "Ġ2015": 5667,
      "Ð¾Ð±Ð¾ÑĢÐ¾ÑĤ": 5668,
      "ital": 5669,
      "ĠÐ¿ÐµÑĢÐµÐ½Ð¾Ñģ": 5670,
      "Ð¾Ð¿ÑĢÐµÐ´": 5671,
      "Ð¾Ð»ÐµÐ·": 5672,
      "ĠSS": 5673,
      "ĠÑĤÑĢÐµÐ½": 5674,
      "][": 5675,
      "ĠÐºÐ¾Ð»Ð¾Ð½": 5676,
      "Ð°ÑģÑĤÐµÑĢ": 5677,
      "ĠÐŁÐ¾ÑģÐ»ÐµÐ´": 5678,
      "ptions": 5679,
      "Ð¾ÑĤÐ¾Ñĩ": 5680,
      "df": 5681,
      "Ð»Ð°Ñĩ": 5682,
      "ĠÐ½ÑĳÐ¼": 5683,
      "GB": 5684,
      "Ð¾ÐºÑĥÑģ": 5685,
      "ĠÐ²ÑĭÐ³Ð»ÑıÐ´ÐµÑĤÑĮ": 5686,
      "pack": 5687,
      "ÑĭÑĩÐ½Ð¾": 5688,
      "ĠÑĩÐµÑĤÑĭÑĢÐµ": 5689,
      "lin": 5690,
      "ĠÐ´Ð²Ð¸Ð¶ÐµÐ½Ð¸Ñı": 5691,
      "ĠÐ¿ÑĢÐ¾ÑĨÐµÑģÑģÑĭ": 5692,
      "ĠÐ³Ð¾Ð²Ð¾ÑĢÑıÑĤ": 5693,
      "witter": 5694,
      "ĠÐºÐ°Ð½Ð´Ð¸Ð´": 5695,
      "ĠÑĦÐ»": 5696,
      "())": 5697,
      "Ġtemp": 5698,
      "ĠÐ¼Ð¾ÐµÐ¹": 5699,
      "ĠST": 5700,
      "ROM": 5701,
      "ĠÐ¿ÑĢÐµÐ·ÐµÐ½ÑĤ": 5702,
      "ĠÑģÐ¾Ð±ÑĢÐ°Ð½": 5703,
      "Test": 5704,
      "ĠÐĴÐµÑĢ": 5705,
      "ĠÐ³Ð°Ð·": 5706,
      "ĠÐ¿ÑĢÐ¸Ð»Ð¾Ð¶ÐµÐ½Ð¸Ð¸": 5707,
      "ĠÐ¿ÑĢÐµÐ´Ð¼ÐµÑĤ": 5708,
      "sum": 5709,
      "ĠCloud": 5710,
      "Ġrun": 5711,
      "ĠÐ¾Ð´Ð¸Ð½Ð°ÐºÐ¾Ð²": 5712,
      "max": 5713,
      "ĠÐ¼Ð¾ÑĤÐ¸Ð²": 5714,
      "Ġmin": 5715,
      "rid": 5716,
      "Ġph": 5717,
      "ĠÐºÐ¾Ð½ÑĤÑĢÐ¾Ð»Ñı": 5718,
      "Ġ\\-": 5719,
      "ĠÐ¿ÐµÑĢÐµÐ³": 5720,
      "ĠÐ½Ð°Ð¼Ð½Ð¾Ð³Ð¾": 5721,
      "Ġwill": 5722,
      "Ð¾Ð½Ñģ": 5723,
      "ÐµÐ½ÑĤÑĢ": 5724,
      "ĠÐ¸ÑģÑĤÐ¾ÑĢÐ¸Ñı": 5725,
      "ĠGet": 5726,
      "ĠÐ¼ÐµÑģÑıÑĨÐ°": 5727,
      "ĠÑģÐ¾Ð´ÐµÑĢÐ¶Ð°Ñī": 5728,
      "any": 5729,
      "ĠÐ½ÐµÐ´ÐµÐ»Ñİ": 5730,
      "ÐµÐ¹Ð½ÐµÑĢ": 5731,
      "cp": 5732,
      "ĠÑģÑĥÐ¿": 5733,
      "Ġroot": 5734,
      "ĠÐºÐ¾Ð¼Ð±Ð¸Ð½": 5735,
      "ĠÐ¼ÑĥÐ»ÑĮÑĤ": 5736,
      "Ð¸Ð¼ÑĭÑħ": 5737,
      "ich": 5738,
      "ĠKubernetes": 5739,
      "Ð¾Ð²Ð°ÑĤÐµÐ»ÑĮÐ½Ð¾": 5740,
      "ĠÑĢÐ°Ð·ÑĢÐ°Ð±Ð¾ÑĤÐºÑĥ": 5741,
      "ĠÐ¿ÑĢÐµÐ´ÑĥÐ¿ÑĢ": 5742,
      "Ð¸ÑĢÐ¾Ð²ÐºÐ°": 5743,
      "ĠÐ¿ÐµÑĢÐµÑĩÐ¸Ñģ": 5744,
      "ĠÐ¸ÑĤÐµÑĢ": 5745,
      "ĠÐºÐ²Ð°Ð´": 5746,
      "CD": 5747,
      "ĠiPhone": 5748,
      "ÑİÑīÐ¸Ñħ": 5749,
      "Ð¾Ð¿ÑĢÐµÐ´ÐµÐ»": 5750,
      "ĠÑģÐ¸ÑģÑĤÐµÐ¼Ð¾Ð¹": 5751,
      "As": 5752,
      "65": 5753,
      "Ġ22": 5754,
      "ĠÑĩÐ¸ÑĤÐ°ÑĤÑĮ": 5755,
      "ĠÐ·Ð°Ð¿ÑĥÑī": 5756,
      "usr": 5757,
      "Ð°ÑĢÑħ": 5758,
      "ĠPC": 5759,
      "ÑıÑģÐ½Ñı": 5760,
      "ĠÑģÐ¿ÐµÑĨÐ¸Ð°Ð»Ð¸ÑģÑĤÐ¾Ð²": 5761,
      "ĠÐ¾Ð¿ÑĢÐµÐ´ÐµÐ»ÐµÐ½Ð¸Ñı": 5762,
      "ution": 5763,
      "ĠÐºÐ¸ÑĤÐ°Ð¹": 5764,
      "ĠÐ»Ð¸ÑģÑĤ": 5765,
      "ĠÐºÐ°ÐºÐ°Ñı": 5766,
      "ĠÐ½ÐµÐ´Ð°Ð²Ð½Ð¾": 5767,
      "ĠÐ°Ð±ÑģÑĤÑĢ": 5768,
      "ĠÑĢÑĥÐº": 5769,
      "Ð±Ð¸ÑĢ": 5770,
      "ĠÐ´Ð¾Ð¼Ð°ÑĪ": 5771,
      "ÐµÐ´ÑĮ": 5772,
      "ĠÐ°ÑĥÐ´Ð¸": 5773,
      "ÑĥÐ³Ð¾Ð»ÑĮ": 5774,
      "iss": 5775,
      "temp": 5776,
      "Ð°ÑİÑīÐ¸Ð¼": 5777,
      "point": 5778,
      "Exception": 5779,
      "ĠÑģÐ»Ð¾Ð¶Ð½Ð¾ÑģÑĤÐ¸": 5780,
      "ĠÐĳÑĭ": 5781,
      "ĠÐĹÐµÐ¼": 5782,
      "ĠÐ¿Ð¾ÑģÐµÑĤ": 5783,
      "tect": 5784,
      "ĠÐ¾Ð¿ÑĤÐ¸Ð¼Ð¸Ð·Ð°ÑĨÐ¸Ð¸": 5785,
      "lack": 5786,
      "ĠÐŀÑģÐ¾Ð±": 5787,
      "rag": 5788,
      "Ð¾ÑģÑĤÑĥÐ¿": 5789,
      "ĠÑĪÑĢÐ¸ÑĦ": 5790,
      "ĠÐ²Ð¾Ð·Ð²ÑĢÐ°ÑīÐ°ÐµÑĤ": 5791,
      "ĠÑĤÐ¾ÑĩÐµÐº": 5792,
      "ĠÑĥÐ³ÑĢ": 5793,
      "ĠÑĢÐ°ÑģÐºÑĢ": 5794,
      "Ġad": 5795,
      "Ð¸ÑĤÐµÐ»ÑĮÐ½Ð¾Ð¹": 5796,
      "Ġ2021": 5797,
      "ĠÐ½Ð°ÑĩÐ¸Ð½Ð°ÐµÑĤ": 5798,
      "eta": 5799,
      "Ð¾Ð²Ð°Ð½Ñĭ": 5800,
      "ĠÑĦÐ¾ÑĢÐ¼Ñĭ": 5801,
      "ony": 5802,
      "ĠÐ¿ÑĢÐµÐ´Ð»Ð°Ð³Ð°ÐµÑĤ": 5803,
      "Map": 5804,
      "ĠÑĢÐ°Ð·ÑĢÐ°Ð±Ð¾ÑĤÑĩÐ¸ÐºÐ°": 5805,
      "link": 5806,
      "mazon": 5807,
      "ride": 5808,
      "top": 5809,
      "web": 5810,
      "ĠÑģÐ¼Ð¾ÑĤÑĢÐµÑĤÑĮ": 5811,
      "ĠÑģÐ»ÑĥÑĪ": 5812,
      "ÐµÐ¹Ñģ": 5813,
      "IG": 5814,
      "ĠÐ¸Ð·Ð¼ÐµÐ½ÐµÐ½Ð¸Ðµ": 5815,
      "ĠÑĨÐµÐ»ÑĮÑİ": 5816,
      "ÑģÑĤÐ²Ð¸Ðµ": 5817,
      "ĠÐ¸ÑģÐ¿Ð¾Ð»ÑĮÐ·Ð¾Ð²Ð°Ð»Ð¸": 5818,
      "ĠÑģÑĤÐ°Ð´": 5819,
      "Ġdefault": 5820,
      "ĠÑģÐ°Ð¼Ð°": 5821,
      "ĠÐ¸Ð½Ð¶ÐµÐ½": 5822,
      "Ð¾Ð²Ð»ÐµÑĤ": 5823,
      "ĠÐ°ÑĤ": 5824,
      "Ð²ÑĤÐ¾ÑĢÑĭÑħ": 5825,
      "ĠÐ¿ÑĢÐ¾ÑĢ": 5826,
      "Ð¾ÑĩÐºÑĥ": 5827,
      "unter": 5828,
      "ÐµÑĢÐ°Ð¼Ð¸": 5829,
      "ĠÐ¿Ð¾ÑıÐ²Ð¸Ð»Ð°ÑģÑĮ": 5830,
      "ĠÑģÑĤÐ°Ð±Ð¸Ð»ÑĮ": 5831,
      "ors": 5832,
      "ĠÐºÐ¾Ð¼Ð°Ð½Ð´Ð¾Ð¹": 5833,
      "ĠÑĨÐ²ÐµÑĤÐ°": 5834,
      "ĠÐºÐ¾Ð¼Ð¼ÐµÐ½ÑĤÐ°ÑĢÐ¸ÑıÑħ": 5835,
      "ĠÐ¼ÐµÑĪ": 5836,
      "ĠÐ¿Ð°ÑĢÐ¾Ð»ÑĮ": 5837,
      "ĠÐ¿Ð¾ÑģÐ²ÑıÑī": 5838,
      "ĠÐ¾ÑĪÐ¸Ð±ÐºÐ°": 5839,
      "ĠÑĤÐ°ÑĢ": 5840,
      "Ġinit": 5841,
      "ĠÐľÐ½Ð¾Ð³Ð¸Ðµ": 5842,
      "ĠDes": 5843,
      "ramework": 5844,
      "Ġsub": 5845,
      "da": 5846,
      "ĠÑĤÑĢÐ°Ð´Ð¸ÑĨÐ¸Ð¾Ð½": 5847,
      "ĠÐ³ÑĢÐ°Ð´": 5848,
      "ÑĥÑģÑĤÐ¸ÑĤÑĮ": 5849,
      "ĠÐ¿ÑĢÐµÐ´Ð²Ð°ÑĢ": 5850,
      "Request": 5851,
      "02": 5852,
      "ĠÐ¸ÑģÐ¿Ð¾Ð»ÑĮÐ·Ð¾Ð²Ð°ÑĤÑĮÑģÑı": 5853,
      "ĠÑģÐºÐ»Ð°Ð´": 5854,
      "ĠÐ²Ð¾ÑģÐ¿Ð¾Ð»ÑĮÐ·Ð¾Ð²Ð°ÑĤÑĮÑģÑı": 5855,
      "Ð¾Ð¼ÐµÑĤÑĢ": 5856,
      "CL": 5857,
      "BM": 5858,
      "Ð¼Ð¾Ñģ": 5859,
      "ĠÐŀÐ±ÑĢÐ°ÑĤ": 5860,
      "ÑĥÑĢÐ¾Ð²": 5861,
      "ender": 5862,
      "ĠÐ¿ÑıÑĤÑĮ": 5863,
      "ĠÑģÐ¼Ð¾Ð³ÑĥÑĤ": 5864,
      "On": 5865,
      "Â»:": 5866,
      "Ġ||": 5867,
      "ĠÐºÐ¾Ð»Ð»ÐµÐº": 5868,
      "ĠÑĢÐµÐ°Ð»Ð¸Ð·Ð°ÑĨÐ¸Ñı": 5869,
      "Lo": 5870,
      "ctiv": 5871,
      "Ð°Ð½Ð½ÑĭÐ¼": 5872,
      "XX": 5873,
      "ĠÐºÐ°Ð¼ÐµÑĢÑĭ": 5874,
      "ĠÐļÐ¾Ð¼Ð¿Ð°Ð½Ð¸Ñı": 5875,
      "ĠÐºÐ»Ð°Ð²Ð¸ÑĪ": 5876,
      "Ð¸ÑĤÐµÑĢ": 5877,
      "ĠÑĢÐ°ÑģÐ¿Ð¾Ð·Ð½Ð°Ð²": 5878,
      "cs": 5879,
      "98": 5880,
      "ĠÐ·Ð½Ð°Ð½Ð¸Ð¹": 5881,
      "ĠÐµÐ¹": 5882,
      "ĠÑıÐ²Ð½Ð¾": 5883,
      "ĠÑĦÐ»Ð°Ð³": 5884,
      "tes": 5885,
      "ĠÐ°Ð¿ÑĢ": 5886,
      "ĠNULL": 5887,
      "ĠÐºÐ²Ð°ÑĢÑĤ": 5888,
      "ÑĤÐµÑģÑĮ": 5889,
      "ĠÑĩÑĤÐµÐ½Ð¸Ñı": 5890,
      "ĠÐ½ÐµÐ¿ÑĢÐ°Ð²": 5891,
      "nection": 5892,
      "Ð°ÑĩÐ°": 5893,
      "Ġ+=": 5894,
      "ĠÐ¾Ð¿ÑĭÑĤÐ°": 5895,
      "ĠÐ¾ÑīÑĥÑī": 5896,
      "ĠÐ¾Ð±ÑĥÑĩÐµÐ½Ð¸Ðµ": 5897,
      "ÑĥÐ¼ÑĭÑĪÐ»ÐµÐ½": 5898,
      "Ð¸Ð·Ð°ÑĨÐ¸Ñİ": 5899,
      "Ð¾Ð²Ð»ÐµÑĤÐ²Ð¾ÑĢ": 5900,
      "ĠÐ°ÑĢÑħÐ¸Ð²": 5901,
      "ĠÐ¢Ð°Ð¼": 5902,
      "ĠÐ¿Ð¾Ð¼ÐµÐ½": 5903,
      "ĠÐ·Ð°Ð½Ð¸Ð¼Ð°ÐµÑĤ": 5904,
      "Ð»ÑıÐµÑĤ": 5905,
      "ĠÐ²Ð¾Ð·Ð½Ð¸ÐºÐ°ÐµÑĤ": 5906,
      "ĠÐ¾ÑĤÐ´ÐµÐ»ÑĮÐ½Ð¾": 5907,
      "ĠÑģÐµÑģÑģ": 5908,
      "Ġmax": 5909,
      "ĠÑģÐ»ÐµÐ´ÑĥÑİÑīÐµÐ¹": 5910,
      "ĠÑĢÐµÐ´Ð°ÐºÑĤ": 5911,
      "ÑıÑĩ": 5912,
      "ÑĢÑĭÐ²": 5913,
      "ĠÑģÑģÑĭÐ»ÐºÑĥ": 5914,
      "ĠÐ¾ÑĤÐ»Ð¸ÑĩÐ°ÐµÑĤÑģÑı": 5915,
      "ÑģÐ¿ÐµÐºÑĤ": 5916,
      "ĠWh": 5917,
      "ÑĢÐ´": 5918,
      "ĠÑģÑĤÐ¾ÑĢÐ¾Ð½Ðµ": 5919,
      "ĠÐ²ÑĭÐ±Ð¾ÑĢÐ°": 5920,
      "dir": 5921,
      "velop": 5922,
      "Ġobject": 5923,
      "CO": 5924,
      "Query": 5925,
      "ĠÐ¾Ð±ÑĬÑĳÐ¼": 5926,
      "ĠÐ½Ð¾Ð²Ð°Ñı": 5927,
      "Ð»ÑİÑĩÐµÐ½Ð¸Ðµ": 5928,
      "ĠÑĢÐ°Ð·Ð¾Ð±ÑĢÐ°ÑĤÑĮÑģÑı": 5929,
      "Size": 5930,
      "ĠÑģÑĤÑĢÑĥÐºÑĤÑĥÑĢÑĥ": 5931,
      "ĠÑĢÐ°Ð±Ð¾ÑĤÐ°Ð»": 5932,
      "ĠÐ¾Ð¿ÑıÑĤÑĮ": 5933,
      "ĠÑĢÑıÐ´Ð¾Ð¼": 5934,
      "eed": 5935,
      "api": 5936,
      "ster": 5937,
      "ĠÑĤÐµÐ¿": 5938,
      "ĠÐ§ÐµÐ¼": 5939,
      "ĠÑĨÐ¸ÐºÐ»": 5940,
      "osition": 5941,
      "lean": 5942,
      "raph": 5943,
      "Ġem": 5944,
      "Ġover": 5945,
      "ĠÐºÐ»Ð°ÑģÑģÐ¾Ð²": 5946,
      "ĠÐ½ÐµÑĢ": 5947,
      "ĠÐ¿ÐµÑĢÐµÐ¿Ð¸Ñģ": 5948,
      "ĠÐ¥Ð¾ÑĢÐ¾ÑĪ": 5949,
      "ĠÐ¿Ð¾ÑĢÑıÐ´ÐºÐµ": 5950,
      "ĠÐ¸Ð·Ð±ÐµÐ¶Ð°ÑĤÑĮ": 5951,
      "way": 5952,
      "ĠÐŁÐ¾Ð¼Ð¸Ð¼Ð¾": 5953,
      "ĠÑįÐ½ÐµÑĢÐ³Ð¸Ð¸": 5954,
      "Ð»Ð¾ÑĤ": 5955,
      "ÑĭÐ»ÑĮ": 5956,
      "ĠÐ½Ð°ÑĪÐ°": 5957,
      "ĠÐ¾ÑģÑĤÐ°Ð»ÑĮÐ½ÑĭÐµ": 5958,
      "Ð½ÑĥÑĤÑĮÑģÑı": 5959,
      "ĠÐ½Ð¸Ð¶": 5960,
      "led": 5961,
      "ĠAmazon": 5962,
      "31": 5963,
      "ĠGitHub": 5964,
      "ÑĬÐµÐºÑĤ": 5965,
      "ement": 5966,
      "true": 5967,
      "source": 5968,
      "ĠÐ½ÐµÑĳ": 5969,
      "ĠÑĪÑĥÐ¼": 5970,
      "Ġ2017": 5971,
      "ĠÐ±Ð»Ð¾ÐºÐ°": 5972,
      "ÑĦÐ¾ÑĢ": 5973,
      "IR": 5974,
      "ĠÐ°ÑĥÑĤÐµÐ½ÑĤ": 5975,
      "sk": 5976,
      "ĠÐ¿Ð»Ð°Ð½ÑĪ": 5977,
      "ĠÐ¿ÑĢÐ¾ÑģÐ¼Ð¾ÑĤ": 5978,
      "Ð¾ÑĤÑĢÐµÐ±": 5979,
      "ĠÐ¾ÑĤÐ²ÐµÑĤÐ°": 5980,
      "ĠÐ²ÑĭÑĩÐ¸ÑģÐ»Ð¸ÑĤÐµÐ»ÑĮ": 5981,
      "ĠÑħÐ¾Ð»": 5982,
      "ĠÐ¾ÑĤÐ²ÐµÑĩÐ°ÐµÑĤ": 5983,
      "Ð¸Ð½ÑĪ": 5984,
      "Ġandroid": 5985,
      "ĠÐ¿ÑĢÐµÐ´Ð¿ÑĢÐ¸ÑıÑĤ": 5986,
      "ĠÐ¡Ð½Ð°ÑĩÐ°Ð»Ð°": 5987,
      "ĠÐ¡ÑĥÑīÐµÑģÑĤÐ²": 5988,
      "ÑĨÐµ": 5989,
      "yp": 5990,
      "ÑĢÐµÑĪ": 5991,
      "ĠÐ²ÐµÑīÐµÐ¹": 5992,
      "ĠÐĺÐĺ": 5993,
      "ĠÐ±ÑĥÐ´ÐµÑĤÐµ": 5994,
      "ĠÐ¼ÐµÐ½ÑıÑĤÑĮ": 5995,
      "ero": 5996,
      "ĠÑĦÐ¸ÑĢ": 5997,
      "ĠÐ³Ð¸Ð³": 5998,
      "LT": 5999,
      "Ð¿ÑĢÐ¾ÑĨÐµÑģÑģ": 6000,
      "fs": 6001,
      "ĠÑĦÐ¾ÑĢÐ¼ÑĥÐ»": 6002,
      "ÑģÐºÑĥÑİ": 6003,
      "Ð°ÑĢÐ¸ÐµÐ²": 6004,
      "ĠÑĢÐµÐ¹ÑĤ": 6005,
      "ĠÐ¾ÑģÑĤÐ°ÐµÑĤÑģÑı": 6006,
      "ĠÐ±Ð¾Ð»ÑĮÑĪÐ¸Ðµ": 6007,
      "ĠÐĴÐ¼ÐµÑģÑĤÐ¾": 6008,
      "ĠÑĥÐ¿Ð¾Ð¼Ð¸Ð½": 6009,
      "Code": 6010,
      "ĠÐ¢ÐµÑģÑĤ": 6011,
      "ĠÐ´Ð¾ÐºÑĥÐ¼ÐµÐ½ÑĤÐ¾Ð²": 6012,
      "ĠÐ²ÑĭÐºÐ»ÑİÑĩ": 6013,
      "ĠÐ±ÐµÑģÐº": 6014,
      "ĠÐ°Ð±ÑģÐ¾Ð»ÑİÑĤÐ½Ð¾": 6015,
      "ĠAzure": 6016,
      "bit": 6017,
      "ĠÑĢÐ¾Ð»": 6018,
      "Ġserver": 6019,
      "Ð½Ð°Ð´": 6020,
      "ĠStudio": 6021,
      "Ġstr": 6022,
      "ĠCore": 6023,
      "uilder": 6024,
      "ĠÑģÐ»Ð¾Ð¶Ð½ÐµÐµ": 6025,
      "ĠMS": 6026,
      "ĠÐ£ÑģÑĤÐ°Ð½Ð¾Ð²": 6027,
      "${": 6028,
      "ĠÐ¿Ð¾Ð±ÐµÐ´": 6029,
      "Ġstruct": 6030,
      "ĠÐ§ÐµÑĢ": 6031,
      "ÑģÐºÐ¾Ðµ": 6032,
      "cept": 6033,
      "Ð¸ÑĩÐ½ÑĭÑħ": 6034,
      "ĠÑģÐ»ÑĭÑĪ": 6035,
      "ally": 6036,
      "ĠÐ²ÐºÐ»ÑİÑĩÐ°ÐµÑĤ": 6037,
      "core": 6038,
      "JS": 6039,
      "ĪĴ": 6040,
      "Ð¾ÑĩÐ½Ð¸Ðº": 6041,
      "ĠÐķÑīÑĳ": 6042,
      "ĠÐ³Ð¾ÑĤÐ¾Ð²Ñĭ": 6043,
      "ĠÐ¾Ð±Ð»Ð°ÑģÑĤÑĮ": 6044,
      "ĠView": 6045,
      "Ð´Ð»Ñı": 6046,
      "ĠÑĩÐµÑĤÑĭÑĢ": 6047,
      "ÑĥÐ½Ð°ÑĢÐ¾Ð´": 6048,
      "ĠÐ½ÑĢÐ°Ð²Ð¸ÑĤÑģÑı": 6049,
      "Ġ2018": 6050,
      "ĠÑģÐ»Ð¾": 6051,
      "ĠÐºÐ°ÐºÐ¾Ð¼": 6052,
      "Array": 6053,
      "omain": 6054,
      "ĠÐ¿Ð¾Ð·Ð´": 6055,
      "ĠÑģÐ¸Ð½ÑĤÐ°ÐºÑģ": 6056,
      "ĠUser": 6057,
      "ĠÐ£Ð´": 6058,
      "ĠÐ¿Ð¾ÑĢÑıÐ´ÐºÐ°": 6059,
      "ĠÐŀÐ±ÑĭÑĩÐ½Ð¾": 6060,
      "ĠÐ¿ÑĢÐ¾Ð¸Ð·Ð²Ð¾Ð´ÑģÑĤÐ²Ð°": 6061,
      "ÐµÐ½Ð½Ð¾ÑģÑĤÑĮ": 6062,
      "Ġrequest": 6063,
      "ĠÐ½Ð¾ÑĥÑĤÐ±Ñĥ": 6064,
      "ĠÐĴÐ¾Ð·": 6065,
      "ĠÐ²Ð°ÑĪÐ¸Ñħ": 6066,
      "########": 6067,
      "ĠPh": 6068,
      "ĠÑģÑĤÐ¾Ð»Ð±": 6069,
      "ĠTele": 6070,
      "ĠÑĢÐµÐ²": 6071,
      "ĠÑĢÐ¾": 6072,
      "ĠÐ²ÐµÑĢÐ¾ÑıÑĤÐ½Ð¾ÑģÑĤÑĮ": 6073,
      "ground": 6074,
      "ĠÑĢÐ°Ð·Ð½Ð¾": 6075,
      "ĠÑĥÑģÑĤÑĢÐ¾": 6076,
      "ĠÑģÐ¸Ð´": 6077,
      "00000000": 6078,
      "ĠÑĢÐ°Ð·Ð³Ð¾Ð²Ð¾ÑĢ": 6079,
      "ĠÐºÐ°ÐºÐ¾Ð³Ð¾": 6080,
      "ÑĳÐ¶": 6081,
      "ĠÑĩÐ°ÑģÑĤÑĮÑİ": 6082,
      "ÑģÑĤÐ°": 6083,
      "ĠÐ¿ÑĢÐµÐ´ÑĥÑģ": 6084,
      "Ð°Ð´Ð»ÐµÐ¶": 6085,
      "andom": 6086,
      "Ð¸Ð»ÐµÑĤ": 6087,
      "Ġstate": 6088,
      "LS": 6089,
      "ĠÐ´Ð¾Ð±ÑĢ": 6090,
      "const": 6091,
      "Ð¾Ð²Ð°": 6092,
      "ÑıÐ»Ð°": 6093,
      "ĠÐ°Ð»Ð³Ð¾ÑĢÐ¸ÑĤÐ¼Ð°": 6094,
      "ĠÐĿÑĥÐ¶Ð½Ð¾": 6095,
      "ÐµÐ¹ÑĤÐ¸": 6096,
      "Ġconfig": 6097,
      "Ð°ÑĤÐµÐ»ÑĮÐ½ÑĭÐ¹": 6098,
      "ĠÐ¿ÑĢÐµÐ´ÑģÑĤÐ°Ð²Ð»ÐµÐ½Ð¸Ðµ": 6099,
      "He": 6100,
      "main": 6101,
      "ĠÐ¿ÑĢÐ¾ÑĪÐ¸Ð²": 6102,
      "fl": 6103,
      "ĠÐ´Ð¾Ð¿Ð¾Ð»Ð½Ð¸ÑĤÐµÐ»ÑĮÐ½ÑĭÑħ": 6104,
      "ĠJSON": 6105,
      "Controller": 6106,
      "ĠÐ²ÑĭÐ¿Ð¾Ð»Ð½ÐµÐ½Ð¸Ðµ": 6107,
      "ĠÐ¿ÑĢÐ¾Ð·": 6108,
      "ĠÐ¢ÐµÑħÐ½": 6109,
      "ĠÐ¿ÑĢÐ¸Ð²ÐµÑģÑĤÐ¸": 6110,
      "ĠÐ´Ð¸ÑģÐº": 6111,
      "ĠÑģÐ¾ÐºÑĢÐ°Ñī": 6112,
      "Ġsup": 6113,
      "ĠÐ°Ð´ÑĢÐµÑģÐ°": 6114,
      "create": 6115,
      "ĠÐ²ÑĭÑıÐ²": 6116,
      "flow": 6117,
      "ĠÐ¿ÑĢÐ°Ð²Ð°": 6118,
      "ĠÐºÐ°Ð·": 6119,
      "ĠÐ¿Ð°ÐºÐµÑĤÐ¾Ð²": 6120,
      "MD": 6121,
      "ĠÐ´ÐµÐ»Ð°ÐµÐ¼": 6122,
      "For": 6123,
      "ĠÐ°Ð¼ÐµÑĢÐ¸ÐºÐ°Ð½": 6124,
      "xml": 6125,
      "ĠÐ¾ÑĤÑĢÐ°Ñģ": 6126,
      "ĠÐ¿Ð¾Ð½ÑĢÐ°Ð²": 6127,
      "ÐµÐ´Ð½ÐµÐ²": 6128,
      "Ð°Ð½Ð´Ð°": 6129,
      "ĠURL": 6130,
      "ĠÑĥÑģÐ»ÑĥÐ³Ð¸": 6131,
      "irtual": 6132,
      "ict": 6133,
      "ĠÐ²ÑĭÐ¿Ð¾Ð»Ð½ÑıÐµÑĤÑģÑı": 6134,
      "ĠÑģÐ»Ð¾Ð²Ð°Ð¼Ð¸": 6135,
      "Ġarray": 6136,
      "ĠÐ¾Ð±ÐµÑģÐ¿ÐµÑĩÐ¸ÑĤÑĮ": 6137,
      "ern": 6138,
      "ĠÑģÐµÐºÑĥÐ½": 6139,
      "ĠÐ¼Ð¾Ð´ÑĥÐ»ÐµÐ¹": 6140,
      "ĠÑģÑĦÐµÑĢÐµ": 6141,
      "Ð¸ÑĢÐ¾Ð²Ð°Ð½Ð¸ÐµÐ¼": 6142,
      "Form": 6143,
      "ĠDis": 6144,
      "ĠÑħÑĢÐ°Ð½Ð¸Ð»Ð¸Ñī": 6145,
      "ĠÐľÐ¾Ð¶ÐµÑĤ": 6146,
      "ization": 6147,
      "root": 6148,
      "168": 6149,
      "!!": 6150,
      "ĠÐ±Ð¾Ð»ÑĮÑĪÐ¸Ð½ÑģÑĤÐ²Ðµ": 6151,
      "ĠÐŁÐļ": 6152,
      "ĠÑģÑĤÐ°Ð»Ðº": 6153,
      "ĠÐ·Ð½Ð°Ðº": 6154,
      "ĠÑģÐ¾Ð±ÑģÑĤÐ²ÐµÐ½Ð½Ð¾": 6155,
      "ĠÐ¿ÑĢÐ¾Ð¼ÐµÐ¶": 6156,
      "ĠÐ¼Ð¾Ð»Ð¾Ð´": 6157,
      "ĠÐ°Ð³ÐµÐ½ÑĤ": 6158,
      "Net": 6159,
      "ĠÑĢÐµÑĪÐ°ÑĤÑĮ": 6160,
      "ĠÑĥÑĩÐµÐ±": 6161,
      "ĠÐ´Ð¾ÑģÑĤÑĥÐ¿ÐµÐ½": 6162,
      "ĠÐ¿ÐµÑĢÐµÐ¼ÐµÐ½Ð½Ð¾Ð¹": 6163,
      "Ġ28": 6164,
      "ĠÑĢÐ°ÑģÑĪÐ¸ÑĢÐµÐ½Ð¸Ñı": 6165,
      "ĠÐ³Ð¾Ð´Ñĭ": 6166,
      "ĠÐ¿ÑĢÐ¸Ð¼ÐµÑĢÐ¾Ð²": 6167,
      "ĠÐ¿ÑĢÐ°Ð²Ð¾": 6168,
      "ĠÑĨÐµÐ»ÐµÐ¹": 6169,
      "ĠÑħÑĢÐ°Ð½Ð¸ÑĤÑĮ": 6170,
      "Ġsystem": 6171,
      "ĠÑĢÐµÐ°Ðº": 6172,
      "ĠÑģÐ»ÐµÐ´ÑĥÑİÑīÐµÐµ": 6173,
      "ape": 6174,
      "ĠQu": 6175,
      "ÑİÑīÐ¸Ð¹": 6176,
      "Ð¾ÑĤÑĥ": 6177,
      "ĠÐ¼Ð»ÑĢÐ´": 6178,
      "ĠÐ¿ÑĢÐ¸ÑĩÐ¸Ð½": 6179,
      "ĠÐ¾ÑĪÐ¸Ð±ÐºÑĥ": 6180,
      "ĠÐŁÑĢÐµÐ´ÑģÑĤÐ°Ð²": 6181,
      "ĠÐ¾Ð±ÐµÑī": 6182,
      "ĠÑĤÐµÑĢÑĢ": 6183,
      "Ġcreate": 6184,
      "ĠÐ·Ð°ÑĢÐ¿Ð»Ð°ÑĤ": 6185,
      "ĠÐľÐµÐ½": 6186,
      "ĠÐŁÐ¾Ð´Ð´ÐµÑĢÐ¶": 6187,
      "Ð¾Ñħ": 6188,
      "Ð°ÐµÐ¼ÑĭÐµ": 6189,
      "ĠÑĥÐ¿Ð¾Ð¼ÑıÐ½": 6190,
      "ĠÑĢÐ°ÑģÑģÐºÐ°Ð¶Ñĥ": 6191,
      "group": 6192,
      "ĠÐ½Ð°ÑĪÑĥ": 6193,
      "ĠÐ½ÑĥÐ»Ñı": 6194,
      "ĠÐ½Ð°Ð³ÑĢÑĥÐ·ÐºÐ¸": 6195,
      "ĠÑĤÑĢÑĥ": 6196,
      "ĠÑįÐ½": 6197,
      "ĠÐĺÐ½ÑĤÐµÑĢÐ½ÐµÑĤ": 6198,
      "ĠÑħÐ²Ð°ÑĤÐ°ÐµÑĤ": 6199,
      "Ð¿ÑĢÐ¾Ñĩ": 6200,
      "ÑįÑĦÑĦ": 6201,
      "ĠÐ±Ð¾Ð»ÑĮÑĪÑĥÑİ": 6202,
      "ĠÑĤÐ¸Ð¿Ñĭ": 6203,
      "state": 6204,
      "ĠÐ²ÑĭÑĩÐ¸ÑģÐ»ÐµÐ½Ð¸Ñı": 6205,
      "Ġwhile": 6206,
      "ĠÐ½Ð°Ð¾Ð±Ð¾ÑĢÐ¾ÑĤ": 6207,
      "ĠÐĴÑĭÐ²": 6208,
      "Ġnode": 6209,
      "ĠÐ½Ð°Ð¿Ð¸ÑģÐ°Ð»": 6210,
      "ĠÑĦÑĢÐ¾Ð½": 6211,
      "ÑģÑĤÑĢÐ°": 6212,
      "ĠÐ¸Ð´ÐµÐ½ÑĤÐ¸ÑĦÐ¸ÐºÐ°ÑĤÐ¾ÑĢ": 6213,
      "ĠÑħÐ¾Ð´Ðµ": 6214,
      "ret": 6215,
      "untu": 6216,
      "ĠÐºÐ¾Ð¼Ð¿Ð°Ð½Ð¸Ñİ": 6217,
      "ĠÐ·Ð½Ð°ÐµÐ¼": 6218,
      "Message": 6219,
      "ĠÐ¿ÑĢÐµÐ¶Ð´Ðµ": 6220,
      "ĠÑģÐ»Ð¾Ð²Ð°Ð¼": 6221,
      "ĠÑģÐ¾ÑģÐµÐ´": 6222,
      "ĠÐ¿Ð¾ÑģÑĢÐµÐ´": 6223,
      "ĠÐĿÐµÑģÐ¼Ð¾ÑĤÑĢÑı": 6224,
      "dat": 6225,
      "abr": 6226,
      "ĠÐ¿Ð¾ÑģÐ»ÐµÐ´Ð½Ð¸Ð¹": 6227,
      "pm": 6228,
      "ÑıÑĤÐ¾": 6229,
      "ĠÐ²ÐµÑĢÑĪ": 6230,
      "rypt": 6231,
      "ĠÐ¾ÑĤÑģÑĥÑĤÑģÑĤÐ²Ð¸Ðµ": 6232,
      "ung": 6233,
      "Point": 6234,
      "ĠÑĤÐµÐ¼Ñĭ": 6235,
      "ĠÐ¸Ð·Ð½Ð°ÑĩÐ°Ð»ÑĮÐ½Ð¾": 6236,
      "ĠÐ½Ð°Ð²Ð¸Ð³": 6237,
      "eter": 6238,
      "Manager": 6239,
      "ĠÑįÐºÑĢÐ°Ð½Ðµ": 6240,
      "CS": 6241,
      "ĠÐ¿ÑĥÐ±Ð»Ð¸ÐºÐ°ÑĨÐ¸Ð¸": 6242,
      "Ð°Ð»Ð¸Ð·Ð¾Ð²Ð°Ð½": 6243,
      "ĠÐ½Ð¾Ñĩ": 6244,
      "ÑģÐ¼": 6245,
      "input": 6246,
      "ĠÐ·Ð°ÐºÐ°Ð·ÑĩÐ¸Ðº": 6247,
      "ĠÐ°Ð³ÑĢ": 6248,
      "ĠSet": 6249,
      "ÑįÑĦÑĦÐ¸ÑĨÐ¸": 6250,
      "ĠÑĢÐ°Ð·Ð²Ð¸ÑĤÐ¸Ðµ": 6251,
      "ĠÐ´ÐµÑıÑĤÐµÐ»ÑĮÐ½Ð¾ÑģÑĤÐ¸": 6252,
      "ĠÐ²ÐµÑĩ": 6253,
      "ĠÐ¼ÑĭÑģÐ»": 6254,
      "ĠÑģÐ¾Ð¾ÑĤÐ²ÐµÑĤÑģÑĤÐ²ÑĥÐµÑĤ": 6255,
      "ĠÐ¿Ð¾Ð´Ð¾Ð±Ð½ÑĭÑħ": 6256,
      "ĠÐ½ÐµÐ´ÐµÐ»Ð¸": 6257,
      "ĠÑģÐ¾ÑĢ": 6258,
      "ĠÐ¢Ð¾Ð»ÑĮÐºÐ¾": 6259,
      "Ð°ÑİÑīÐµÐµ": 6260,
      "length": 6261,
      "ĠÐŀÑĢ": 6262,
      "ĠÐ±ÑĢÐ°ÑĥÐ·ÐµÑĢÐ°": 6263,
      "ĠNew": 6264,
      "ĠÐµÐ²": 6265,
      "Ġindex": 6266,
      "ĠÐ¿ÑĢÐ¸Ð½Ð°Ð´Ð»ÐµÐ¶": 6267,
      "ĠÐ¿Ð¾ÑĤÑĢÐµÐ±ÑĥÐµÑĤÑģÑı": 6268,
      "ka": 6269,
      "ĠÐ²ÐµÑĢÑģÐ¸Ð¹": 6270,
      "ĠÐ½Ð°ÑĪÐµ": 6271,
      "ÑĢÐ°Ð»Ð¸": 6272,
      "Ð¸ÑģÑĤÐµÐ¼Ñĭ": 6273,
      "ĠÑĥÑģÑĤÑĢÐ°Ð½": 6274,
      "ĠÑĥÐ´Ð¾Ð²Ð»ÐµÑĤÐ²Ð¾ÑĢ": 6275,
      "Ġ23": 6276,
      "ĠÑģÑħÐµÐ¼Ñĭ": 6277,
      "ĠÐ¿Ð¾Ð¼ÐµÑī": 6278,
      "ĠÑģÑĤÑĢÐ°Ð½Ñĭ": 6279,
      "ĠÐºÑĥÐ»ÑĮÑĤ": 6280,
      "ĠÑģÐ¸Ð¼Ð²Ð¾Ð»Ð¾Ð²": 6281,
      "ĠÐ¸Ð½ÑĤÐµÑĢÐ²ÑĮÑİ": 6282,
      "ĠÐºÑĢÑĥÑĤ": 6283,
      "Ð½Ð¸ÐºÑĥ": 6284,
      "her": 6285,
      "ĠDE": 6286,
      "ĠÐºÐ¾Ð¼Ð¿ÑĮÑİÑĤÐµÑĢÐ°": 6287,
      "ĠÐ°Ð²ÑĤÐ¾Ð¼Ð°ÑĤÐ¸Ð·Ð°ÑĨÐ¸Ð¸": 6288,
      "Ð¸Ð²Ð¸Ð´": 6289,
      "Ġsp": 6290,
      "man": 6291,
      "ĠÐ´Ð¸ÑģÐºÐ¾Ð²": 6292,
      "ĠÐ¿Ð¾Ð»Ð½ÑĭÐ¹": 6293,
      "ĠÐ¾ÑĤÐ´ÐµÐ»ÑĮÐ½ÑĭÑħ": 6294,
      "ĠÑĤÑĢÐ°ÑĦÐ¸Ðº": 6295,
      "ĠÐ¼ÐµÑħÐ°Ð½": 6296,
      "ĠÐ¿ÑĢÐ¸Ð³Ð»": 6297,
      "ĠÐ¿Ð¾ÑıÐ²Ð»ÑıÐµÑĤÑģÑı": 6298,
      "tings": 6299,
      "Ð¿Ð¾Ð½": 6300,
      "){": 6301,
      "ĠÑĤÑĢÐµÐº": 6302,
      "ĠÐ¾ÑĤÐ´ÐµÐ»ÑĮÐ½ÑĭÐ¹": 6303,
      "Element": 6304,
      "ND": 6305,
      "ĠÐ»ÑİÐ±ÑĭÐµ": 6306,
      "ĠÐ·ÐµÐ¼": 6307,
      "otal": 6308,
      "ĠÐŁÐµÑĢÐµÐ´": 6309,
      "ĠÐ´ÐµÐ¿": 6310,
      "ÑīÐ¸ÐºÐ°": 6311,
      "ÑĥÑģÐ»Ð¾Ð²": 6312,
      "ĠÐ¾ÑģÐ¾Ð±ÐµÐ½Ð½Ð¾ÑģÑĤÐ¸": 6313,
      "Count": 6314,
      "ĠÐºÑĥÐ¿Ð¸ÑĤÑĮ": 6315,
      "ĠÐļÑĤÐ¾": 6316,
      "ĠÐ·Ð°ÑĢÑıÐ´": 6317,
      "ÐµÐ´ÐµÑĢ": 6318,
      "ÑĢÐ°Ð·ÑĢÐ°Ð±Ð¾ÑĤÑĩÐ¸Ðº": 6319,
      "ĠÑĢÐµÐ³Ð¸ÑģÑĤÑĢÐ°ÑĨÐ¸Ð¸": 6320,
      "Ġms": 6321,
      "Ð½Ð¾ÑĢ": 6322,
      "ĠÐ·Ð°Ð¿ÑĥÑģÐºÐ°ÑĤÑĮ": 6323,
      "ĠÐ²Ð¾ÑģÐ¿ÑĢÐ¾": 6324,
      "LECT": 6325,
      "ÑĢÐ¸Ð¿": 6326,
      "ank": 6327,
      "ĠÑģÐ¾Ð¾ÑĤÐ²ÐµÑĤÑģÑĤÐ²Ð¸Ð¸": 6328,
      "ĠÐ¿ÑĢÐ¾Ð´Ð°Ð²": 6329,
      "apt": 6330,
      "ĠÐ´ÐµÑĦ": 6331,
      "ram": 6332,
      "lete": 6333,
      "ĠÐ²ÑĭÑģÐ¾ÐºÐ¾Ð¹": 6334,
      "AME": 6335,
      "ĠÐ¿ÑĥÑĤÐµÐ¼": 6336,
      "ĠÑĤÐµÐ»ÐµÑĦÐ¾Ð½Ð°": 6337,
      "ÑĢÐ°Ð±Ð¾ÑĤÐºÐ°": 6338,
      "ÑĨÐµÐ¿": 6339,
      "ĠÐ½Ð°ÑĩÐ¸Ð½Ð°ÐµÑĤÑģÑı": 6340,
      "An": 6341,
      "node": 6342,
      "ecurity": 6343,
      "ĠÐĶÐ°Ð»ÑĮ": 6344,
      "define": 6345,
      "ĠÐ¾Ð¿Ð¸ÑģÐ°Ð½Ð¸Ñı": 6346,
      "ari": 6347,
      "ĠÐ¿Ð¾ÑģÐ¼Ð¾ÑĤÑĢÐ¸Ð¼": 6348,
      "ĠÐ¿ÑĢÐ¾Ð²ÐµÑģÑĤÐ¸": 6349,
      "ĠÐ²Ð¾Ð·Ð´ÑĥÑħ": 6350,
      "ĠÐ½Ð°Ð¿ÑĢÐ°Ð²Ð»ÐµÐ½Ð¸Ñı": 6351,
      "ĠÐ¸Ð½Ð´ÑĥÑģÑĤÑĢ": 6352,
      "ĠÐ¿ÑĢÐµÐ´ÑģÑĤÐ°Ð²Ð¸ÑĤÑĮ": 6353,
      "ared": 6354,
      "Ð¸ÑĢÑĥÑģ": 6355,
      "ĠÑģÐ¿Ð¾ÑģÐ¾Ð±Ð¾Ð¼": 6356,
      "TR": 6357,
      "ĠType": 6358,
      "CE": 6359,
      "ĠÐºÐ²Ð°Ð½ÑĤ": 6360,
      "ĠÐ»ÑİÐ´ÑıÐ¼": 6361,
      "Info": 6362,
      "ĠÐ¿Ð°Ð½ÐµÐ»Ð¸": 6363,
      "ĠÐ¸ÑģÐºÑĥÑģÑģÑĤÐ²ÐµÐ½": 6364,
      "ĠSk": 6365,
      "Ð¸Ð»Ð¾ÑĤ": 6366,
      "anc": 6367,
      "char": 6368,
      "ĠÐ½Ð°Ð¿Ð¸ÑģÐ°Ð½Ð¸Ñı": 6369,
      "`:": 6370,
      "ĠChrome": 6371,
      "ĠÐ¸Ð½ÑĦÑĢÐ°ÑģÑĤÑĢÑĥÐºÑĤÑĥÑĢÑĭ": 6372,
      "lection": 6373,
      "ĠÐ¿ÑģÐ¸Ñħ": 6374,
      "ĠÑĥÐ¼ÐµÐµÑĤ": 6375,
      "Ð¸ÑĩÐµÑģÑĤÐ²Ð¾": 6376,
      "ĠÐ±Ð°Ð½ÐºÐ¾Ð²": 6377,
      "ĠÑĦÐ¾Ð½": 6378,
      "ĠÐ¿ÐµÑĢÐ²ÑĭÐ¼": 6379,
      "ĠÐ´Ð¶": 6380,
      "Ð±ÐµÑĢ": 6381,
      "Ð¸Ð²ÐµÑĤ": 6382,
      "Ġ26": 6383,
      "ĠÐ¼Ð¸ÐºÑĢÐ¾": 6384,
      "ient": 6385,
      "ĠÐ¿ÐµÑĢÐµÐ¹ÑĤÐ¸": 6386,
      "ĠÐ¾ÐºÑĤ": 6387,
      "ĠPostg": 6388,
      "ience": 6389,
      "ĠÐºÑĢÑĥÐ¿Ð½ÑĭÑħ": 6390,
      "Ð²ÐµÐ´ÐµÐ½Ð¸Ðµ": 6391,
      "Ð²Ð¾Ð¹": 6392,
      "ĠÑģÑĤÐµÐ¿ÐµÐ½Ð¸": 6393,
      "Ð¸ÑĤÐµÐ»ÐµÐ¼": 6394,
      "Ð¾ÑĩÐºÐ°": 6395,
      "Ð½ÑĥÐ»ÑģÑı": 6396,
      "ĠÐ²Ð½Ð¸Ð¼Ð°Ð½Ð¸Ñı": 6397,
      "ĠÐ½ÐµÐ²ÐµÑĢ": 6398,
      "ĠÑģÑģÑĭÐ»ÐºÐµ": 6399,
      "ĠÐ¼Ð¾Ð½Ð¸ÑĤÐ¾ÑĢÐ¸Ð½Ð³Ð°": 6400,
      "ĠÑģÐ³ÐµÐ½ÐµÑĢ": 6401,
      "ĠÑģÑĩÐ°ÑģÑĤ": 6402,
      ":\\": 6403,
      "ĠÐ´ÐµÑĪÐµÐ²": 6404,
      "Ġno": 6405,
      "Ġip": 6406,
      "result": 6407,
      "ĠÑĨÐ¸ÐºÐ»Ð°": 6408,
      "ĠÐŀÐ±Ñī": 6409,
      "rop": 6410,
      "ĠComm": 6411,
      "ĠÐ¿ÑĢÐ¾Ð¼ÑĭÑĪÐ»ÐµÐ½": 6412,
      "OP": 6413,
      "arg": 6414,
      "ĠÑĤÐµÑħÐ½Ð¾Ð»Ð¾Ð³Ð¸Ñı": 6415,
      "ĠÐ¿ÑĢÐ°Ð²Ð´Ð°": 6416,
      "Ð¿ÑĢÐ¾ÑĩÐµÐ¼": 6417,
      "ĠÐ¾Ð±ÑĢÐ°ÑĤÐ½Ð¾": 6418,
      "****************": 6419,
      "Ġ2014": 6420,
      "());": 6421,
      "ĠÐ¿Ð¾Ð´Ð´ÐµÑĢÐ¶Ð¸Ð²Ð°ÑĤÑĮ": 6422,
      "Ġq": 6423,
      "ĠCPU": 6424,
      "Ġ70": 6425,
      "Ð¾Ð¶Ð¸Ð´": 6426,
      "ÑĦÐ¸ÐºÑģ": 6427,
      "ĠÑĩÐ°ÑģÐ°": 6428,
      "ĠÐ¿ÑĢÐ¾Ð³ÑĢÐ°Ð¼Ð¼Ðµ": 6429,
      "ÑĥÑĤÐ¾Ñĩ": 6430,
      "ĠÑĢÐ°Ð·Ð´": 6431,
      "obile": 6432,
      "Ġlocal": 6433,
      "hed": 6434,
      "Ð³Ð°": 6435,
      "als": 6436,
      "ĠÐ½ÐµÑģÐ¼Ð¾ÑĤÑĢÑı": 6437,
      "ĠÑĢÐ°Ð·Ð½ÑĭÐ¼Ð¸": 6438,
      "HT": 6439,
      "Ð¾ÑĢÐ¾Ð½": 6440,
      "ĠÑĥÐ³ÑĢÐ¾Ð·": 6441,
      "Ð°ÑģÑĤÑĥÑİ": 6442,
      "erson": 6443,
      "ĠÑĥÑĪ": 6444,
      "ĠÐ¿Ð¾Ð´ÑħÐ¾Ð´Ð°": 6445,
      "ools": 6446,
      "hell": 6447,
      "ĠÐŁÐ¾ÑĤÐ¾Ð¼Ñĥ": 6448,
      "ĠÑĤÑĭÑģ": 6449,
      "we": 6450,
      "ĠÑģÐ¸ÑĤÑĥÐ°ÑĨÐ¸Ñİ": 6451,
      "ĠÑģÐ¿ÐµÑĨÐ¸Ð°Ð»Ð¸Ð·": 6452,
      "ĠÐ·Ð°ÑĪ": 6453,
      "ocket": 6454,
      "ÑĮÐ¼": 6455,
      "function": 6456,
      "aly": 6457,
      "ĠÐ½Ð°Ð·Ð²Ð°Ð½Ð¸Ñı": 6458,
      "ĠÑģÑħÐµÐ¼Ð°": 6459,
      "ĠDocker": 6460,
      "ĠÐ²ÑĭÑģÑĤÐ°Ð²": 6461,
      "Ġthen": 6462,
      "ĠÐ·Ð°Ð½Ð¸Ð¼Ð°ÑĤÑĮÑģÑı": 6463,
      "ĠÐĺÑħ": 6464,
      "ĠÐ¾Ð±ÑıÐ·Ð°ÑĤÐµÐ»ÑĮ": 6465,
      "Ġbreak": 6466,
      "Ġsudo": 6467,
      "ĠÑĤÐµÐ¾ÑĢÐ¸Ð¸": 6468,
      "ĠÐ·Ð»Ð¾ÑĥÐ¼ÑĭÑĪÐ»ÐµÐ½": 6469,
      "ĠÑĢÑĥÐºÐ¸": 6470,
      "ĠÐ±Ð¾Ð»ÑĮÑĪÐ¾Ð³Ð¾": 6471,
      "Ġmodel": 6472,
      "ĠÐ°ÑĢÑħÐ¸ÑĤÐµÐºÑĤÑĥÑĢÑĭ": 6473,
      "ĠÐ¿Ð°ÑĢÑĤÐ½": 6474,
      "ĠÐĺÑģÐ¿Ð¾Ð»ÑĮÐ·Ð¾Ð²Ð°Ð½Ð¸Ðµ": 6475,
      "05": 6476,
      "len": 6477,
      "Ġyour": 6478,
      "Up": 6479,
      "ĠÑħÐ¾ÑĤÑıÑĤ": 6480,
      "Ð²Ð¸ÑĤ": 6481,
      "ngine": 6482,
      "ĠÐ·Ð°ÑģÑĤÐ°Ð²": 6483,
      "ĠÑī": 6484,
      "ĠÐ¾ÑĤÐ¿": 6485,
      "PC": 6486,
      "andle": 6487,
      "97": 6488,
      "ĠÐ²ÑĭÐ·Ð¾Ð²Ð°": 6489,
      "Ð¸ÑĢÑĥÑı": 6490,
      "Ð»ÐµÐ½Ð½ÑĭÐ¹": 6491,
      "Ð¸ÑĨÐ°": 6492,
      "ĠÐ¸Ð½ÑĤÐµÑĢÐ½ÐµÑĤÐµ": 6493,
      "Ð¶ÐµÑĤ": 6494,
      "ĠÐºÐ¾ÑĢÐ°Ð±": 6495,
      "ĠFile": 6496,
      "ĠThis": 6497,
      "Ġpre": 6498,
      "ĠÐ·Ð½Ð°ÐµÑĤÐµ": 6499,
      "object": 6500,
      "ĠÑĤÐ°": 6501,
      "ĠÐ¿ÐµÑĢÐ²Ð°Ñı": 6502,
      "ĠÐ²ÐµÐ»Ð¸Ñĩ": 6503,
      "run": 6504,
      "ĠÐ¼Ð½ÐµÐ½Ð¸Ñİ": 6505,
      "ĠÐ¢Ð°ÐºÐ¾Ð¹": 6506,
      "ĠÐ¿ÑĢÐ¾ÑģÑĤÑĢÐ°Ð½ÑģÑĤÐ²Ð°": 6507,
      "ĠÐ´ÐµÐ¼": 6508,
      "ÑĭÐ²Ð°Ð½Ð¸Ðµ": 6509,
      "ĠÐ§Ð°ÑģÑĤ": 6510,
      "ÑĤÐ¸Ðº": 6511,
      "ĠÐ¼Ð°ÑĤÐµÑĢÐ¸Ð°Ð»Ð¾Ð²": 6512,
      "Ð¾ÐµÐ´Ð¸Ð½": 6513,
      "uf": 6514,
      "ĠÐ±ÐµÑģÐ¿Ð»Ð°ÑĤÐ½Ð¾": 6515,
      "ĠÐ¾Ð´Ð½": 6516,
      "ĠÐ¼Ð¸ÑĢÐ¾Ð²": 6517,
      "ĠÑĢÐ¸ÑģÑĥÐ½": 6518,
      "ĠÐ²Ð¸ÑĢÑĤÑĥÐ°Ð»ÑĮÐ½Ð¾Ð¹": 6519,
      "call": 6520,
      "ĠÑģÑĤÐµÐ½": 6521,
      "ĠSam": 6522,
      "47": 6523,
      "ference": 6524,
      "ĠÑĢÐ°Ð·ÑĢÐ°Ð±Ð¾ÑĤÐºÐ°": 6525,
      "ĠÑĤÐµÐ±Ñı": 6526,
      "Ð¾ÐºÐ¾Ð¹": 6527,
      "ĠÑħÐ¾ÑĢÐ¾ÑĪÐ¸Ð¹": 6528,
      "Ð´ÐµÐºÑģÐ°": 6529,
      "ĠÑĩÐ¸ÑģÐµÐ»": 6530,
      "ĠÐ½ÐµÐ³": 6531,
      "Ġcheck": 6532,
      "ĠÐºÐ¾Ð»Ð¸ÑĩÐµÑģÑĤÐ²Ð¾Ð¼": 6533,
      "Ġ....": 6534,
      "Log": 6535,
      "ĠÐ¾ÑĨÐµÐ½Ð¸ÑĤÑĮ": 6536,
      "ĠÐĽÑİÐ±": 6537,
      "Ð»Ð»Ñİ": 6538,
      "ĠÐ½Ð°ÑģÐ»ÐµÐ´": 6539,
      "ĠÑģÐ°Ð¼Ð°Ñı": 6540,
      "content": 6541,
      "ĠNode": 6542,
      "ĠÐºÐ²Ð°Ð´ÑĢÐ°ÑĤ": 6543,
      "Ð´Ð°ÑİÑĤ": 6544,
      "ĠÐ¿ÑĢÐ¾ÑĨÐµÑģÑģÐ¾ÑĢÐ°": 6545,
      "color": 6546,
      "ĠÐ¿ÑĢÐ¸Ð½Ð¸Ð¼Ð°ÑĤÑĮ": 6547,
      "ĠÑģÐ¸Ð³Ð½Ð°Ð»Ð°": 6548,
      "ctive": 6549,
      "mark": 6550,
      "ideo": 6551,
      "ĠÐ´Ð»Ð¸ÑĤÐµÐ»ÑĮ": 6552,
      "Ð¾ÑģÐ»ÐµÐ´": 6553,
      "ends": 6554,
      "ÑıÐ´Ð°": 6555,
      "az": 6556,
      "ould": 6557,
      "85": 6558,
      "ÑĥÐ¶Ðµ": 6559,
      "ose": 6560,
      "ĠÐºÐ¾Ð½ÑĤÐµÐ¹Ð½ÐµÑĢ": 6561,
      "Ġnet": 6562,
      "ĠÐ¿Ð¾ÑıÐ²Ð¸Ð»ÑģÑı": 6563,
      "std": 6564,
      "ĠÐ¿ÑĢÐ¸Ð³Ð¾Ð´": 6565,
      "ĠÑıÑĩÐµÐ¹": 6566,
      "Ġ()": 6567,
      "Ð¾Ð²Ð°Ð»Ð°": 6568,
      "Ð°ÑĤÐµ": 6569,
      "]:": 6570,
      "ĠÐ¼Ð°ÑĤÐµÑĢÐ¸Ð°Ð»Ñĭ": 6571,
      "trans": 6572,
      "ĠÑıÐ½": 6573,
      "open": 6574,
      "Index": 6575,
      "ĠÐ¿Ð¾ÑģÑĤÐµÐ¿": 6576,
      "Ġ27": 6577,
      "Of": 6578,
      "ĠÐ²ÑĭÐ¹": 6579,
      "ĠÐ¡Ð¿Ð°ÑģÐ¸Ð±Ð¾": 6580,
      "info": 6581,
      "Param": 6582,
      "ĠÑĨÐµÐ½Ð°": 6583,
      "Config": 6584,
      "ĠÑģÐ¾Ð²ÑĢÐµÐ¼ÐµÐ½Ð½ÑĭÑħ": 6585,
      "ÑīÐ¸ÐºÐ¾Ð²": 6586,
      "({": 6587,
      "ĠÐºÐ°ÑĢÑĤÐ¸Ð½ÐºÐ¸": 6588,
      "FS": 6589,
      "post": 6590,
      "ĠÐ¸Ð´ÑĳÑĤ": 6591,
      "ĠÐ¸ÑģÐ¿Ð¾Ð»ÑĮÐ·Ð¾Ð²Ð°Ð»": 6592,
      "ÐµÐ½Ñĩ": 6593,
      "enu": 6594,
      "ĠÐķÐ²ÑĢÐ¾Ð¿": 6595,
      "ĠÐ¼Ð¼": 6596,
      "ĠÑģÐµÐ½ÑĤ": 6597,
      "ĠÑĤÐ²Ð¾ÑĢ": 6598,
      "ĠÐ·ÑĢ": 6599,
      "ĠÐ²ÑĭÐ·ÑĭÐ²Ð°ÐµÑĤ": 6600,
      "Ð¸Ð¼ÑĭÐµ": 6601,
      "inst": 6602,
      "Ð¸Ð´ÐµÐ½ÑĤ": 6603,
      "ken": 6604,
      "model": 6605,
      "fox": 6606,
      "ĠÑĢÐ°ÑģÑģÑĭÐ»": 6607,
      "ĠÐ¾Ð´Ð½Ð¾Ð¼Ñĥ": 6608,
      "ÑģÐ°Ð¹ÑĤ": 6609,
      "ĠÐ½Ð°ÑģÑĤÑĢÐ¾ÐµÐº": 6610,
      "Ġ300": 6611,
      "ĠÐ´ÐµÑĤÐ°Ð»Ð¸": 6612,
      "ĠTest": 6613,
      "ĠÐ½Ð°Ð±Ð¾ÑĢÐ°": 6614,
      "ĠÐ¿ÑĢÐµÐ´ÑģÑĤÐ°Ð²Ð»ÐµÐ½Ð¸Ñı": 6615,
      "ĠÑĢÐ¾Ð±Ð¾ÑĤ": 6616,
      "ove": 6617,
      "ĠÑģÐ¾Ð»Ð½": 6618,
      "ĠÐ¾ÑĤÑĤ": 6619,
      "ĠÑģÐµÑĢÐ¸Ð¸": 6620,
      "Ġ($": 6621,
      "ĠÑĤÐµÐ¼Ðµ": 6622,
      "ĠÐ¡Ð¾Ð·Ð´Ð°Ð½Ð¸Ðµ": 6623,
      "ĠÐ±Ð¸Ð±Ð»Ð¸Ð¾ÑĤÐµÐºÐ°": 6624,
      "ĠÐ¿Ð¾Ð¼Ð½": 6625,
      "ÑĦÐµÑĢÐµÐ½": 6626,
      "ĠIBM": 6627,
      "ĠÑģÐ½Ð¸Ð·": 6628,
      "ĠÐ¿ÑĢÐ¾Ð´ÑĥÐºÑĤÑĭ": 6629,
      "ĠÐ¥Ð°Ð±ÑĢÐµ": 6630,
      "ĠÑĥÐ³Ð¾Ð´Ð½Ð¾": 6631,
      "ĠÐļÐ°ÐºÐ¸Ðµ": 6632,
      "src": 6633,
      "Ð¸ÑĤÐµÐ»ÑĮÐ½Ð¾Ðµ": 6634,
      "Ġcom": 6635,
      "ĠÐ¾ÐºÐ½Ð¾": 6636,
      "ĠÐ²Ð¸Ð´ÐµÐ¾Ðº": 6637,
      "Ġhave": 6638,
      "Ð¸Ð²Ð°Ð»Ð¸": 6639,
      "att": 6640,
      "ÑĪÐµÐ¼": 6641,
      "ĠSSD": 6642,
      "ĠÐ¾Ð±ÐµÑģÐ¿ÐµÑĩÐ¸Ð²Ð°ÐµÑĤ": 6643,
      "Ð¸ÑĢÐ¾Ð²Ð°Ð½Ð½Ð¾Ð³Ð¾": 6644,
      "ĠÐĳÐ»Ð°Ð³Ð¾Ð´Ð°ÑĢÑı": 6645,
      "ĠÐĴÐ¾Ð·Ð¼Ð¾Ð¶": 6646,
      "ĠEd": 6647,
      "03": 6648,
      "Ð»ÑıÐµÐ¼": 6649,
      "ĠÐĺÐ½ÑĤÐµÑĢÐµÑģ": 6650,
      "ĠÐ½Ð°ÑĤ": 6651,
      "ĠÐ´ÐµÑĤÐ°Ð»": 6652,
      "ther": 6653,
      "ĠÑıÑģ": 6654,
      "ĠÐ³ÑĢÐ¾Ð¼": 6655,
      "ĠÐ²ÑĢÐµÐ´Ð¾Ð½Ð¾Ñģ": 6656,
      "ĠObject": 6657,
      "ĠÐ°ÑģÐ¿ÐµÐºÑĤ": 6658,
      "ino": 6659,
      "ĠÐ¿Ð¾Ð²Ð¾Ð´Ñĥ": 6660,
      "mit": 6661,
      "ĠÐ´ÑĢÑĥÐ³ÑĥÑİ": 6662,
      "ÑģÐµÑĢÐ²Ð¸Ñģ": 6663,
      "title": 6664,
      "base": 6665,
      "ĠÐ¿ÑĢÐ¾Ð¿ÑĥÑģÐº": 6666,
      "ĠÐ·Ð°ÑīÐ¸ÑĤ": 6667,
      "ĠÐ¿Ð¾Ð½ÑıÐ»": 6668,
      "Ð¸ÑĩÐ½Ð¾Ð¹": 6669,
      "ĠÐĺÐ½Ð¾Ð³Ð´Ð°": 6670,
      "Ð¾Ð³Ð»Ð°ÑĪ": 6671,
      "ĠÐ¸Ð³ÑĢÐµ": 6672,
      "ĠÐĹÐ°Ñĩ": 6673,
      "ments": 6674,
      "Hel": 6675,
      "ĠÐ³Ð°Ð»": 6676,
      "ĠÐ·Ð°Ð¼ÐµÑĤÐ¸ÑĤÑĮ": 6677,
      "Ð¾ÑĢÐ¾Ð¶": 6678,
      "ĠÐĴÐµÐ´ÑĮ": 6679,
      "ĠÐ¿ÐµÑĢÐµÐ¼ÐµÐ½Ð½ÑĭÑħ": 6680,
      "ĠList": 6681,
      "table": 6682,
      "ĠÐ¾Ð±ÑīÐµÐ³Ð¾": 6683,
      "wait": 6684,
      "ĠÐ¾ÑĤÐ»Ð¸ÑĩÐ½Ð¾": 6685,
      "ĠÐ¿Ð°ÐºÐµÑĤÐ°": 6686,
      "ĠÑģÐµÐ½Ñģ": 6687,
      "ĠÐ¼Ð¾Ð´ÑĥÐ»Ð¸": 6688,
      "ĠÐĶÐ¾Ðº": 6689,
      "txt": 6690,
      "ĠTech": 6691,
      "ĠÑįÐ»ÐµÐºÑĤÑĢÐ¾Ð½Ð½Ð¾Ð¹": 6692,
      "ÐºÐ°ÑĤ": 6693,
      "ĠÐºÐ¾Ð¼Ð¼ÐµÐ½ÑĤÐ°ÑĢÐ¸Ð¸": 6694,
      "auth": 6695,
      "Ð»Ð¸Ñı": 6696,
      "Ġlib": 6697,
      "ĠÐºÐ¾Ð¼Ð½": 6698,
      "Ð»Ð°Ð¹": 6699,
      "ĠÐ»Ð¸Ð½Ð¸Ð¸": 6700,
      "ĠÑģÑĥÑīÐµÑģÑĤÐ²ÑĥÑİÑĤ": 6701,
      "ĠÐ¿Ð¾Ð¶Ð°Ð»ÑĥÐ¹": 6702,
      "Ð°ÑĤÐµÐ»ÐµÐ¼": 6703,
      "ĠÐ¿Ð¾Ð·Ð¸ÑĨÐ¸Ð¸": 6704,
      "ĠTwitter": 6705,
      "ĠÑģÑĢÐµÐ´Ñĭ": 6706,
      "ĠÐ¿ÑĢÐ¾ÑģÑĤÑĢÐ°Ð½ÑģÑĤÐ²Ð¾": 6707,
      "ĠÐ·Ð½Ð°ÑİÑĤ": 6708,
      "ĠÐ´Ð¾Ñģ": 6709,
      "ĠÐ´Ð¸ÑģÑĤÑĢ": 6710,
      "ayout": 6711,
      "ĠÐ»Ð°Ð±Ð¾ÑĢÐ°ÑĤÐ¾ÑĢ": 6712,
      "Ð¾ÑģÐ¾Ð±Ñĭ": 6713,
      "ĠÐ¿Ð¾Ð´ÐµÐ»Ð¸ÑĤÑĮÑģÑı": 6714,
      "ĠÐ¿ÑĢÐµÐ²ÑĢÐ°Ñī": 6715,
      "ĠÐ½ÐµÐ¾Ð±ÑħÐ¾Ð´Ð¸Ð¼Ð¾ÑģÑĤÑĮ": 6716,
      "ĠÐ¿Ð¾ÑĤÐ¾ÐºÐ°": 6717,
      "Ð°ÑĳÑĤÑģÑı": 6718,
      "ĠÐ¾Ð±ÑħÐ¾Ð´": 6719,
      "ĠÑĤÐµÐ¼Ð°": 6720,
      "ÑĥÐ¼ÐµÐµÑĤÑģÑı": 6721,
      "Inter": 6722,
      "ĠÑĥÑĩÐ°ÑģÑĤÐ¸Ðµ": 6723,
      "ĠÐ¾Ð¿ÑĭÑĤÐ¾Ð¼": 6724,
      "ĠÐ¿Ð¾ÑģÑĤÐ°Ð²Ð¸ÑĤÑĮ": 6725,
      "ĠÐ²Ð°Ð»Ð¸Ð´": 6726,
      "ĠÐ½Ð°Ð¿Ð¾Ð¼Ð¸Ð½": 6727,
      "ÑĥÑģÑĤÑı": 6728,
      "ĠÐ¾Ð¿ÑĢÐµÐ´ÐµÐ»ÑıÐµÑĤ": 6729,
      "Ð°ÑĤÐ¾ÑĢÑĭ": 6730,
      "ĠOn": 6731,
      "ĠÐŀÑĤÐºÑĢ": 6732,
      "Ð¿ÑĢÐ¾Ð²Ð¾Ð´": 6733,
      "Ġrequire": 6734,
      "ĠÐºÐ¾Ð½ÑĤÑĢÐ°ÐºÑĤ": 6735,
      "ĠÐ´ÐµÐºÐ°Ð±": 6736,
      "very": 6737,
      "Ð¸ÑĦÑĢÐ¾Ð²": 6738,
      "ĠÐ±ÐµÑģÐºÐ¾Ð½": 6739,
      "ĠÐ¸ÐºÐ¾Ð½": 6740,
      "ĠÐ¸Ð¼ÐµÐµÑĤÑģÑı": 6741,
      "lear": 6742,
      "ĠÐ¡ÐºÐ¾ÑĢ": 6743,
      "Al": 6744,
      "lease": 6745,
      "Ġ2012": 6746,
      "ĠÐ¿ÑĢÐµÐ²ÑĭÑĪ": 6747,
      "ÐµÐ·Ð´Ðµ": 6748,
      "Ð¸ÑĢÐ¾Ð²Ð°Ð½Ð½Ð¾Ð¹": 6749,
      "ÑģÑĤÐ°Ð½ÑĤ": 6750,
      "UR": 6751,
      "ÐµÑı": 6752,
      "ĠÐºÐ¸Ð±": 6753,
      "ĠÐĹÐ°ÐºÐ»ÑİÑĩÐµÐ½Ð¸Ðµ": 6754,
      "ĠIDE": 6755,
      "ĠÑģÐ¾ÐµÐ´Ð¸Ð½ÐµÐ½Ð¸Ñı": 6756,
      "ĠÐ¾Ð±Ð¾ÑĢÑĥÐ´Ð¾Ð²Ð°Ð½Ð¸Ðµ": 6757,
      "ĠÑģÐ¾Ð¼Ð½": 6758,
      "ĠÐºÐ°Ð¶Ð´Ð¾Ð¼Ñĥ": 6759,
      "lobal": 6760,
      "Ġass": 6761,
      "ĠÐ´Ð¾Ð±Ð°Ð²Ð»ÑıÑĤÑĮ": 6762,
      "Ð°ÑĢÐ°": 6763,
      "ĠÐ°ÑģÐ¸Ð½ÑħÑĢÐ¾Ð½": 6764,
      "ĠÐ¿ÑĢÐ¾ÑĪÐ»Ð¾Ð¼": 6765,
      "ĠÐ¿ÑĢÐ¸Ð½Ð¸Ð¼Ð°ÐµÑĤ": 6766,
      "ĠÐ¼Ð°ÑģÑģÐ¸Ð²Ð°": 6767,
      "uter": 6768,
      "light": 6769,
      "off": 6770,
      "Ð¾Ð¿ÑĢÐ¾": 6771,
      "Ð¸ÑĪÐµÐ¼": 6772,
      "ÑĪÑĥÑİ": 6773,
      "ÐµÑģÑĤÐ½Ð¾": 6774,
      "ĠÐ²ÑĭÐ¿Ð¾Ð»Ð½ÑıÐµÑĤ": 6775,
      "ĠÑĨÐµÐ½Ñĭ": 6776,
      "ÐµÑĢÐº": 6777,
      "ĠÐŁÑĢÐ¾Ð±Ð»ÐµÐ¼Ð°": 6778,
      "ÑĦÑĥÐ½Ðº": 6779,
      "image": 6780,
      "pre": 6781,
      "ĠÐ³Ð¾ÑĢÐ¸Ð·": 6782,
      "ĠÑĢÐµÐ°Ð»ÑĮÐ½Ð¾ÑģÑĤÐ¸": 6783,
      "Ð²ÐµÐ¹": 6784,
      "ĠVisual": 6785,
      "cod": 6786,
      "ĠÐŁÑĢÐ¾Ð´": 6787,
      "ÐĲÐ¡": 6788,
      "ĠÐ¿Ð¾Ð²ÐµÑĢÑħÐ½Ð¾ÑģÑĤÐ¸": 6789,
      "Ġ2022": 6790,
      "ĠÑĤÐµÑĢÑĢÐ¸ÑĤÐ¾ÑĢ": 6791,
      "94": 6792,
      "Ad": 6793,
      "ĠÑģÐ»ÐµÐ´ÑĥÑİÑīÐµÐ¼": 6794,
      "Dis": 6795,
      "Ð¿Ð¾ÑĢÑĤ": 6796,
      "ĠÑįÐ¼Ð¾": 6797,
      "ĠÐĴÑĤÐ¾ÑĢÐ¾Ð¹": 6798,
      "ĠÑĩÐµÐ¼Ñĥ": 6799,
      "uch": 6800,
      "ĠUPD": 6801,
      "ĠÐ¼ÐµÐ´Ð¸": 6802,
      "ĠÐ·Ð°ÐºÐ°Ð½": 6803,
      "ternal": 6804,
      "ĠÐ¿ÑĢÐ¾Ð´Ð°Ð¶Ð¸": 6805,
      "Ð²Ð°Ð½": 6806,
      "Ð¾Ð¿Ð¾Ð»Ð¾Ð¶": 6807,
      "ĠÐ¿ÐµÑĢÐ²Ð¾Ðµ": 6808,
      "ĠÐ°ÑĢÐ³ÑĥÐ¼ÐµÐ½ÑĤ": 6809,
      "ĠÐ·Ð°Ð½Ð¸Ð¼Ð°ÐµÑĤÑģÑı": 6810,
      "ĠÐ´ÐµÐ»Ð°": 6811,
      "Ġnumber": 6812,
      "ĠÐ¸ÑģÑĤÐ¾ÑĩÐ½Ð¸Ðº": 6813,
      "ÑħÐ¾Ð¶Ð´ÐµÐ½Ð¸Ñı": 6814,
      "ĠÐ¿ÑĢÐ¸ÑĩÐµÐ¼": 6815,
      "ĠÐ´ÑĢÐ°Ð¹Ð²ÐµÑĢ": 6816,
      "ĠÐ¼Ð½Ð¾Ð¶ÐµÑģÑĤÐ²": 6817,
      "ĠÐ¼Ð¸Ð³ÑĢ": 6818,
      "Ð¾Ð½Ð°Ñĩ": 6819,
      "TO": 6820,
      "ÑĥÑĢÐ¾Ð¹": 6821,
      "ĠÑĢÐ¾ÑĥÑĤ": 6822,
      "Ġ(!": 6823,
      "ĠÐŁÑĢÐ¾ÐµÐºÑĤ": 6824,
      "ÑĳÑĢÑĤ": 6825,
      "ĠÑĤÐ°ÐºÐ¸Ð¼Ð¸": 6826,
      "mm": 6827,
      "ĠÐ¾ÐºÐ½Ð°": 6828,
      "ĠLe": 6829,
      "Ġsrc": 6830,
      "Ġfunc": 6831,
      "ĠÐ½ÐµÐºÐ¾ÑĤÐ¾ÑĢÐ¾Ðµ": 6832,
      "Ð¾Ð±ÑĭÑĩ": 6833,
      "ĠÐ½Ð°Ð»Ð¾Ð³": 6834,
      "ĠÐ¿ÑĢÐ¸ÑħÐ¾Ð´Ð¸ÑĤ": 6835,
      "ĠÐ¿Ð¾ÑĢÑıÐ´Ð¾Ðº": 6836,
      "ĠÑĢÐ¾Ð´Ð°": 6837,
      "ĠÐ¾Ð·Ð½Ð°ÐºÐ¾Ð¼": 6838,
      "ĠÑģÐµÐºÑĥÐ½Ð´Ñĥ": 6839,
      "ĠÐºÐ¾Ð½ÑģÐ¾Ð»ÑĮ": 6840,
      "ĠÑģÑĤÐ¾Ð»ÑĮÐºÐ¾": 6841,
      "ĠÐºÐ¾ÑįÑĦÑĦÐ¸ÑĨÐ¸": 6842,
      "nder": 6843,
      "()`": 6844,
      "ĠÑĤÐ°Ð±Ð»Ð¸ÑĨÑĥ": 6845,
      "width": 6846,
      "ĠÑģÐ¿ÐµÑĨÐ¸Ð°Ð»ÑĮÐ½Ð¾": 6847,
      "ĠÐ¡Ð¾Ð³Ð»Ð°Ñģ": 6848,
      "ĠÐ¼Ð°ÑĢÐºÐµÑĤÐ¸Ð½Ð³": 6849,
      "ĠÑħÑĥÐ´": 6850,
      "ĠÑģÐ¾ÑĢÑĤ": 6851,
      "ĠÑĢÐµÐ±ÑıÑĤ": 6852,
      "ÑĥÐ¼ÐµÐ²": 6853,
      "ĠÐŁÑĢÐ¾ÑģÑĤÐ¾": 6854,
      "ĠÑģÐ¿ÐµÐºÑĤ": 6855,
      "OL": 6856,
      "ÑĢÐµÐ´Ð¸ÑĤ": 6857,
      "Node": 6858,
      "ĠÐĹÐ½Ð°Ñĩ": 6859,
      "ures": 6860,
      "igital": 6861,
      "Ð¾ÑĤÐµ": 6862,
      "ĠÐ¿ÑĢÐ¾Ð¿Ð¸Ñģ": 6863,
      "ĠÐ´Ð°ÑĳÑĤ": 6864,
      "ĠÐŁÐ»Ñİ": 6865,
      "ĠÐ·Ð°Ð´Ð°ÑĤÑĮ": 6866,
      "Ð»ÑĥÐ¶": 6867,
      "ĠÐ²ÑĭÑħÐ¾Ð´Ð°": 6868,
      "ĠÐ¿Ð»Ð°Ð³Ð¸Ð½": 6869,
      "Write": 6870,
      "ĠÑĤÑĢÑĳÑħ": 6871,
      "ĠÐ¾ÑĤÐ´ÐµÐ»ÑĮÐ½ÑĭÐµ": 6872,
      "Ġtry": 6873,
      "ĠÐ¼ÐµÐ´Ð¸ÑĨ": 6874,
      "ĠÐ¸Ð½ÑĤÐµÑĢÐ½ÐµÑĤÐ°": 6875,
      "ĠÑģÐ¿Ð¾ÑģÐ¾Ð±Ð¾Ð²": 6876,
      "event": 6877,
      "ĠÐ¿ÐµÑĢÐµÐ¼ÐµÐ½Ð½ÑĭÐµ": 6878,
      "ĠÐłÐ°ÑģÑģÐ¼Ð¾ÑĤÑĢÐ¸Ð¼": 6879,
      "ĠÐ¾ÑĩÐµÑĢÐµÐ´Ð¸": 6880,
      "ĠÐ³Ð¾ÑģÑĥÐ´Ð°ÑĢÑģÑĤÐ²ÐµÐ½": 6881,
      "down": 6882,
      "Ġ(Â«": 6883,
      "Ð¿Ð¾Ð»Ð½": 6884,
      "ĠÑģÐ²Ð¾Ñĳ": 6885,
      "ĠÑĢÐµÐºÐ»Ð°Ð¼Ñĭ": 6886,
      "ĠÑĢÐµÐ·ÑĥÐ»ÑĮÑĤÐ°ÑĤÐ°": 6887,
      "ĠÑħÐ¾ÑĤÐµÐ»Ð¸": 6888,
      "https": 6889,
      "ÐµÐ»ÐµÐ½": 6890,
      "ÑĢÐ¸ÑģÑĤ": 6891,
      "ĠÑĤÐ¾Ð²Ð°ÑĢÐ¾Ð²": 6892,
      "IF": 6893,
      "Color": 6894,
      "Ð¸Ð½ÑĤ": 6895,
      "ĠÐ¾ÑģÑĤÐ°Ð»ÑĮÐ½ÑĭÑħ": 6896,
      "ĠÑĥÑħÐ¾Ð´": 6897,
      "Ð°ÑĤÐµÐ»ÑıÐ¼": 6898,
      "ĠÑģÐºÑĢÐ¸Ð½ÑĪ": 6899,
      "abase": 6900,
      "ĠÐ±Ð°Ð»Ð°Ð½Ñģ": 6901,
      "ÑĳÐ½Ð½ÑĭÑħ": 6902,
      "MI": 6903,
      "ĠÑģÐ¿ÐµÑĨÐ¸ÑĦÐ¸Ðº": 6904,
      "Ð¾Ð²Ð°Ð½Ð¸ÐµÐ¼": 6905,
      "ĠÐ¿ÐµÑĢÐµÑĢ": 6906,
      "ĠÐ¿ÑĢÐµÐ´Ð»Ð¾Ð¶ÐµÐ½Ð¸Ñı": 6907,
      "ÑĨÐ¾Ð²": 6908,
      "array": 6909,
      "ĠÐ½Ð¾Ð²ÑĭÐ¼": 6910,
      "ĠÐ²ÐµÐ´ÑĥÑī": 6911,
      "ĠÐ²ÐµÑĢÐ¾ÑıÑĤÐ½Ð¾": 6912,
      "rix": 6913,
      "ĠÐ¸Ð½ÑĤÐµÑĢÐ¿ÑĢ": 6914,
      "ĠÐĿÐ°ÑģÑĤÑĢÐ¾Ð¹": 6915,
      "ĠÐ¾Ð±ÑīÐµÑģÑĤÐ²": 6916,
      "Ð¸Ð²Ð¸Ð´Ñĥ": 6917,
      "ĠÐĶÐµÐ»Ð¾": 6918,
      "Ġconsole": 6919,
      "ĠÐ´Ð°Ð»ÑĮÐ½ÐµÐ¹ÑĪÐµÐ¼": 6920,
      "Ð½Ð¾ÑģÑĤÑıÑħ": 6921,
      "ĠÐ¡ÑģÑĭÐ»": 6922,
      "ĠSource": 6923,
      "ĠÑģÑĤÑĢÑĥÐºÑĤÑĥÑĢÐ°": 6924,
      "ÑĮÐ¼Ð¸": 6925,
      "ĠÐ¿ÐµÑĢÑģÐ¾Ð½Ð°Ð¶": 6926,
      "ĠÑģÐ»ÐµÐ´ÑĥÑİÑīÐ¸Ñħ": 6927,
      "ĠÐ¿Ð¸ÑģÑĮÐ¼Ð°": 6928,
      "ĠÑĢÐµÐ¹ÑĤÐ¸Ð½Ð³": 6929,
      "Ð¼Ð°Ð³": 6930,
      "ĠÐ¸Ð½ÑĦÐ¾ÑĢÐ¼Ð°ÑĨÐ¸ÐµÐ¹": 6931,
      "ĠÐ¿Ð»Ð°Ð½Ðµ": 6932,
      "ĠÐ¿ÑĢÐ¾ÐµÐºÑĤÐ°Ñħ": 6933,
      "Ġ2013": 6934,
      "Ġbuild": 6935,
      "DP": 6936,
      "ĠÑĢÐµÐ½Ð´ÐµÑĢ": 6937,
      "Component": 6938,
      "Ð½Ð¾ÑĤ": 6939,
      "Ð°ÑİÑīÑĥÑİ": 6940,
      "ĠÐ¿Ð¾Ð½Ð°Ð´Ð¾Ð±Ð¸ÑĤÑģÑı": 6941,
      "ÑĢÐ°Ð³": 6942,
      "Line": 6943,
      "ĠÑĢÐ°Ð±Ð¾ÑĩÐ¸Ñħ": 6944,
      "Ð´Ð°ÐµÐ¼": 6945,
      "ĠUp": 6946,
      "angu": 6947,
      "ĠÐ¼ÐµÐ¶Ð´": 6948,
      "ĠÐºÑĥÑģ": 6949,
      "OST": 6950,
      "sung": 6951,
      "ĠÐ¿Ð°ÑĢÑģ": 6952,
      "Ð½ÑıÐºÐ°": 6953,
      "ĠÐ·Ð°Ð¿Ð¸ÑģÐµÐ¹": 6954,
      "ĠÑĢÐ°Ð·Ð½Ð¾Ð¾Ð±ÑĢÐ°Ð·": 6955,
      "Ġview": 6956,
      "?Â»": 6957,
      "ÑĢÐµÐ¹": 6958,
      "Ð°Ð¶Ð´Ð°Ð½": 6959,
      "ĠÑĢÐ°Ð·Ð´ÐµÐ»Ðµ": 6960,
      "ĠÐ¿Ð¾Ð»ÑĥÑĩÐ¸Ð¼": 6961,
      "Ġgit": 6962,
      "ĠÑĦÐ¾ÑĢÐ¼Ðµ": 6963,
      "ĠÑģÑĭ": 6964,
      "Ð¸Ð·Ð°Ð¹Ð½": 6965,
      "PA": 6966,
      "ĠÐ²ÑĤÐ¾ÑĢÐ¾Ð³Ð¾": 6967,
      "ĠÑĤÑĢÐµÐ±Ð¾Ð²Ð°Ð½Ð¸Ð¹": 6968,
      "ĠÑģÐ¾Ð±ÑģÑĤÐ²ÐµÐ½Ð½ÑĭÐ¹": 6969,
      "ĠÐĴÐ°Ñģ": 6970,
      "ĠÐ¿Ð¾Ð´ÑģÐºÐ°Ð·": 6971,
      "ART": 6972,
      "ÐµÑĢÐ°Ð¼": 6973,
      "EX": 6974,
      "Ġitem": 6975,
      "ĠÐ½ÑĥÐ»": 6976,
      "ĠÑģÐ¾ÑĤÑĢÑĥÐ´Ð½Ð¸Ñĩ": 6977,
      "Image": 6978,
      "ĠÐ¿ÑĢÐ¾Ð³ÑĢÐµÑģÑģ": 6979,
      "eger": 6980,
      "UM": 6981,
      "Comm": 6982,
      "ĠÐ¸Ð½ÑĤÐµÐ³ÑĢÐ°ÑĨÐ¸Ð¸": 6983,
      "Result": 6984,
      "Ð¾Ð²Ð¾Ð¼": 6985,
      "Ð°Ð½Ð¸ÐµÐ¹": 6986,
      "Ð±ÑĥÐº": 6987,
      "ĠInst": 6988,
      "ĠÐŀÐ±ÑĢÐ°ÑĤÐ¸ÑĤÐµ": 6989,
      "Ops": 6990,
      "ÐµÑĢÐ¾": 6991,
      "ĠÑģÐ¾ÑħÑĢÐ°Ð½Ð¸ÑĤÑĮ": 6992,
      "Ð¾ÐºÑĢÐ°ÑĤ": 6993,
      "ĠÑģÐµÐºÑĢÐµÑĤ": 6994,
      "Ð¸ÑĢÐ¾Ð²Ð°Ð½Ð°": 6995,
      "ĠÑģÐ²ÐµÑĤÐ¾Ð´": 6996,
      "ĠÐ¡ÑĤÐ¾Ð¸ÑĤ": 6997,
      "Le": 6998,
      "EM": 6999,
      "ĠÐ½Ð¾ÑĢÐ¼Ð°Ð»ÑĮÐ½Ð¾": 7000,
      "ĠÐ¿Ð¾Ð´Ð¾Ð±Ð½ÑĭÐµ": 7001,
      "46": 7002,
      "ĠÑĦÐ¾ÑĢÐ¼Ñĥ": 7003,
      "ĠÐ¼Ð°ÑĤÑĢÐ¸ÑĨ": 7004,
      "message": 7005,
      "ĠÐ¿ÑĢÐ¾ÑģÑĤÑĭÑħ": 7006,
      "ĠÑģÐ¾ÑĩÐµÑĤ": 7007,
      "Ġmake": 7008,
      "Ġpack": 7009,
      "ÐµÐ¾": 7010,
      "ĠÐłÐ°Ð·ÑĢÐ°Ð±Ð¾ÑĤÑĩÐ¸Ðº": 7011,
      "ĠÐ°ÑĤÐ°ÐºÐ¸": 7012,
      "arse": 7013,
      "ĠÐ¿Ð¾ÑıÐ²Ð¸Ð»Ð¸ÑģÑĮ": 7014,
      "ĠÑģÑĥÑīÐµÑģÑĤÐ²ÐµÐ½Ð½Ð¾": 7015,
      "Ð¸Ð»ÐµÐ¹": 7016,
      "ĠÐºÐ°Ð¶Ð´Ð°Ñı": 7017,
      "ĠÐ¼Ð½ÐµÐ½Ð¸Ðµ": 7018,
      "++)": 7019,
      "ats": 7020,
      "ĠÑĤÐ¾ÐºÐµÐ½": 7021,
      "ĠSw": 7022,
      "ĠÑģÐ¾Ð·Ð´Ð°ÐµÑĤ": 7023,
      "ĠÐŀÑĤÐ²ÐµÑĤ": 7024,
      "ĠÐ¿ÑĢÐ¾ÑħÐ¾Ð´Ð¸ÑĤ": 7025,
      "ĠÑģÐ»Ð¾Ð¶Ð½ÑĭÑħ": 7026,
      "ĠÑģÐ¿Ð¸ÑģÐºÐµ": 7027,
      "ĠÐ¾ÑģÐ¾Ð±Ð¾": 7028,
      "mary": 7029,
      "ĠFROM": 7030,
      "Ð°ÑĢÐ¸Ð¹": 7031,
      "ĠÐ¿Ð¾ÑıÐ²Ð¸ÑĤÑģÑı": 7032,
      "ĠÐ¸Ð½ÑĤÐµÑĢÐµÑģÐ½ÑĭÐµ": 7033,
      "Button": 7034,
      "ĠÑģÐ°Ð¹ÑĤÑĭ": 7035,
      "]+": 7036,
      "08": 7037,
      "Ð¾Ð²Ð°Ð½Ð½ÑĭÑħ": 7038,
      "ĠÑģÐ²ÑıÐ·Ð°Ð½Ð½ÑĭÐµ": 7039,
      "âĪĴ": 7040,
      "ĠÐ¾ÑĤÐºÑĢÑĭÑĤÑĮ": 7041,
      "ĠÐ¡Ð¸ÑģÑĤÐµÐ¼Ð°": 7042,
      "ĠÐ¸ÑģÑĤÐ¾ÑĢÐ¸Ñİ": 7043,
      "ĠÑĢÐ¸ÑģÐº": 7044,
      "ĠÑģÐµÐ³Ð¾Ð´Ð½ÑıÑĪ": 7045,
      "annel": 7046,
      "current": 7047,
      "ĠÐ±Ð¾Ð»ÑĮÑĪÐµÐ¹": 7048,
      "ĠÑįÐ¼": 7049,
      "ĠÐ¿ÐµÑĢÐµÐ¼ÐµÑī": 7050,
      "ĠÑĥÑģÑĤÐ°Ð½Ð°Ð²Ð»": 7051,
      "ĠGroup": 7052,
      "ĠÐ¿Ð»Ð°ÑĤÑĭ": 7053,
      "ĠÐ¿ÑĢÐ¾ÑĩÐ¸ÑĤÐ°ÑĤÑĮ": 7054,
      "ĠÑģÐ¸Ð»Ñĥ": 7055,
      "Ġbool": 7056,
      "fore": 7057,
      "Ð¾ÑĢÐ¾Ð´": 7058,
      "500": 7059,
      "ĠÐ¿ÐµÑĢÐµÐ±": 7060,
      "Ġ///": 7061,
      "ĠÐ¿Ð¾ÑģÑĤÑĢÐ¾ÐµÐ½Ð¸Ñı": 7062,
      "ĠÐ¿ÑĢÐ¾ÑĤÐµÑģÑĤ": 7063,
      "ade": 7064,
      "ĠÐ²Ð¸Ð´Ñĥ": 7065,
      "ĠÑģÐºÐ°ÑĩÐ°ÑĤÑĮ": 7066,
      "last": 7067,
      "ĠÑĢÐ°Ð·ÑĥÐ¼": 7068,
      "ĠÑģÐ¿Ð¾ÑģÐ¾Ð±Ñĭ": 7069,
      "ĠÐºÐ°Ð¶Ð´ÑĥÑİ": 7070,
      "Ð¸ÑĩÐ½ÑĭÐ¼": 7071,
      "ĠÐ¿Ð¾ÑĩÑĤÐ¾Ð²": 7072,
      "request": 7073,
      "ĠÐĿÐ¸Ð¶Ðµ": 7074,
      "ision": 7075,
      "ĠÐ¿ÐµÑĢÐµÐ´Ð°ÑĤÑĮ": 7076,
      "ĠDNS": 7077,
      "ĠÐ·Ð°Ð¼ÐµÐ½Ð¸ÑĤÑĮ": 7078,
      "ĠÐ°Ð»Ð³Ð¾ÑĢÐ¸ÑĤÐ¼Ñĭ": 7079,
      "ĠÐ¸ÑģÐºÐ»ÑİÑĩÐ¸ÑĤÐµÐ»ÑĮÐ½Ð¾": 7080,
      "Ð¸ÐºÐ°Ð¼Ð¸": 7081,
      "bot": 7082,
      "ĠÐºÐ¾Ð¼Ð¿Ð¸Ð»ÑıÑĤÐ¾ÑĢ": 7083,
      "ĠÐ¿Ð¾ÑģÑĤÐ°ÑĢ": 7084,
      "VE": 7085,
      "ĠÐ±Ð¸Ð±Ð»Ð¸Ð¾ÑĤÐµÐºÑĥ": 7086,
      "acle": 7087,
      "ĠÐ¾Ð±Ð½Ð¾Ð²Ð»ÐµÐ½Ð¸Ðµ": 7088,
      "ply": 7089,
      "ĠÐĶÐµÐ»": 7090,
      "ĠÐ½Ð°ÑĩÐ°Ð»Ð¾": 7091,
      "ĠÑĢÐµÐ°Ð³": 7092,
      "ĠÐ¿Ð¾Ð»ÐµÐ¹": 7093,
      "sl": 7094,
      "ĠÐ²Ð¾ÑģÑĤ": 7095,
      "Ġob": 7096,
      "ĠÑģÑĤÑĢÐ¾ÐºÐ°": 7097,
      "ĠÐĺÐ´Ðµ": 7098,
      "ĠÐŁÑĢÐ¾ÑĨÐµÑģÑģ": 7099,
      "ĠÐºÐ»Ð°ÑģÑĤÐµÑĢ": 7100,
      "ÑįÑĤÐ¾": 7101,
      "II": 7102,
      "ĠÐ¿ÑĢÐ¸Ð´ÑĳÑĤÑģÑı": 7103,
      "ĠÐ¾Ð¿ÐµÑĢÐ°ÑĨÐ¸Ð¾Ð½Ð½Ð¾Ð¹": 7104,
      "Ð»ÐµÑĩÑĮ": 7105,
      "ÑıÑīÐµÐ³Ð¾": 7106,
      "ÑĤÑĮÑģÑı": 7107,
      "ĠÑĤÐ°Ð±Ð»Ð¸ÑĨÐµ": 7108,
      "ĠÐ¾Ð±ÐµÑģÐ¿ÐµÑĩÐµÐ½Ð¸Ðµ": 7109,
      "ĠÐ¿Ð°Ð»ÑĮ": 7110,
      "ĠÑģÐ¾Ð³Ð»Ð°ÑĪ": 7111,
      "ĠÑĩÐµÐ»Ð¾Ð²ÐµÑĩÐµÑģÐº": 7112,
      "Ð¾Ð½ÑıÑĤÐ½Ð¾": 7113,
      "ĠÐ¶ÐµÐ½": 7114,
      "ĠÐ»ÑİÐ±Ð¸Ð¼": 7115,
      "ĠÐºÐ°Ð»": 7116,
      "ĠAp": 7117,
      "Ð°Ð±Ð°Ð¹ÑĤ": 7118,
      "ĠÑģÐ²Ð¾Ð¹ÑģÑĤÐ²Ð¾": 7119,
      "ĠÐ²Ð·Ð»Ð¾Ð¼": 7120,
      "ĠÐ¸Ð¼Ð¿Ð¾ÑĢÑĤ": 7121,
      "Ð»Ð¸Ð¼": 7122,
      "write": 7123,
      "ĠÐ¿Ð»Ð¾ÑĤ": 7124,
      "Ð°Ð¶Ð´Ñĭ": 7125,
      "ĠÐ¸Ð»Ð»Ñİ": 7126,
      "ĠÐ¾Ð¿ÑĢÐ¾Ñģ": 7127,
      "ĠÐ´Ð¾ÑģÑĤÑĥÐ¿Ð½Ð°": 7128,
      "ĠÐ´ÐµÐ²Ð°Ð¹": 7129,
      "ĠÐ¿Ð°Ð¿ÐºÑĥ": 7130,
      "Ð¾Ð»Ð¾Ð³Ð¸Ñı": 7131,
      "ĠÑģÐ¾Ð´ÐµÑĢÐ¶Ð¸Ð¼Ð¾Ðµ": 7132,
      "255": 7133,
      "ĠÐĿÐµÐ´": 7134,
      "ĠÐ¿ÑĢÐ¾Ð±Ð»ÐµÐ¼Ð¾Ð¹": 7135,
      "........": 7136,
      "ĠÐ¾Ð±Ð¼ÐµÐ½Ð°": 7137,
      "ÐºÑĥÑİ": 7138,
      "ĠÑģÐ»Ð¾Ð¶Ð½ÑĭÐµ": 7139,
      "ÑıÐ»ÑģÑı": 7140,
      "ĠÑĢÐ°Ð·ÑĢÐ°Ð±Ð¾ÑĤÑĩÐ¸ÐºÐ°Ð¼": 7141,
      "Trans": 7142,
      "Ð¾Ð´Ð°Ð²": 7143,
      "ĠÐ²ÐºÐ»ÑİÑĩÐ¸ÑĤÑĮ": 7144,
      "ĠÑģÑĥÐ¿ÐµÑĢ": 7145,
      "ĠÑĤÐµÐ±Ðµ": 7146,
      "ront": 7147,
      "ĠÑģÐ¾Ð·Ð´Ð°Ð½": 7148,
      "ĠÐ»ÐµÐ¶Ð¸ÑĤ": 7149,
      "Ð²Ð¾Ð»Ñİ": 7150,
      "ĠÐĲÐ»": 7151,
      "ĠÑĢÐ°Ð·Ð²ÐµÑĢÑĤ": 7152,
      "Ð´ÐµÐ¹ÑģÑĤÐ²": 7153,
      "exe": 7154,
      "ĠÑĦÐ¾ÑĤÐ¾Ð³ÑĢÐ°ÑĦÐ¸Ð¸": 7155,
      "ails": 7156,
      "ĠÐ·Ð°Ð´Ð°Ð½Ð¸Ñı": 7157,
      "ĠÑĥÐ²ÐµÑĢ": 7158,
      "ĠÑĢÐ¾ÑģÑĤÐ°": 7159,
      "mart": 7160,
      "ĠÐ¿Ð¾Ð¼Ð¾ÑīÑĮ": 7161,
      "Ð°Ð¹Ð¼": 7162,
      "ĠÐ¸Ð½ÑģÑĤÑĢÑĥÐºÑĨÐ¸Ð¸": 7163,
      "ĠÐ¿Ð¾ÐºÐ°Ð¶": 7164,
      "ĠHe": 7165,
      "ĠÐºÐ°ÑĢÑĤÑĥ": 7166,
      "ĠÐ¼ÐµÐ¶Ð´ÑĥÐ½Ð°ÑĢÐ¾Ð´": 7167,
      "ĠÑĦÑĢÐ¾Ð½ÑĤ": 7168,
      "ÐµÑĢÐ²ÑĭÐµ": 7169,
      "ĠÐ¸ÑģÑĤÐ¾ÑĩÐ½Ð¸ÐºÐ¾Ð²": 7170,
      "ĠÐ¿Ð¾Ð»ÑĮÐ·Ñĥ": 7171,
      "ĠÐºÑĢÐ°Ð¹Ð½ÐµÐ¹": 7172,
      "Ð¾Ð´Ð°ÑĢ": 7173,
      "ĠÐ½Ð°Ñĥ": 7174,
      "ĠÐ´ÐµÐ¹ÑģÑĤÐ²Ð¸Ðµ": 7175,
      "ĠÐ½ÐµÐ¸Ð·Ð²ÐµÑģÑĤ": 7176,
      "ĠÐ¿ÑĢÐ¸Ð·Ð½Ð°Ðº": 7177,
      "ĠÐ³Ð¸Ð¿Ð¾ÑĤ": 7178,
      "ĠÐ¡Ð¾Ð¾ÑĤÐ²ÐµÑĤÑģÑĤÐ²": 7179,
      "Ð»Ð¾Ð¹": 7180,
      "ĠÑģÐ¾ÑĤÑĢÑĥÐ´Ð½Ð¸ÐºÐ¸": 7181,
      "ĠÑģÑĢÐµÐ´Ðµ": 7182,
      "ĠÐºÐ¾Ð½ÑĤÑĢÐ¾Ð»Ð»ÐµÑĢ": 7183,
      "ÑĮÐµ": 7184,
      "ĠÐ±ÑĥÐ¼Ð°Ð³": 7185,
      "DS": 7186,
      "ĠÐ¿Ð¸ÑĪÐµÑĤ": 7187,
      "Ð°Ð½Ð°Ð»Ð¸Ð·": 7188,
      "ĠÑĢÐµÐ³ÑĥÐ»Ð¸": 7189,
      "ĠÑĢÐ¾Ð»Ð¸": 7190,
      "ĠÐ´Ð¸Ð·Ð°Ð¹Ð½Ð°": 7191,
      "do": 7192,
      "ĠÐķÐ´Ð¸Ð½": 7193,
      "ĠÑģÑĥÑīÐµÑģÑĤÐ²ÑĥÑİÑī": 7194,
      "ĠÑıÐ´ÐµÑĢ": 7195,
      "ĠÑįÑĦÑĦÐµÐºÑĤÐ¸Ð²Ð½Ð¾": 7196,
      "ĠÐ¤Ð¾ÑĢÐ¼": 7197,
      "lose": 7198,
      "ĠÐ½Ð°ÑĪÐ¸Ð¼": 7199,
      "ĠÐ¿Ð¾ÑģÑĤÑĢÐ¾Ð¸ÑĤÑĮ": 7200,
      "ĠÐ¡Ðľ": 7201,
      "board": 7202,
      "ĠÐ±Ð¾Ð»ÑĮ": 7203,
      "ĠÐ²Ð°ÑĪÐµ": 7204,
      "ĠÐ¼Ð½Ð¾Ð³Ð¾Ðµ": 7205,
      "ĠSamsung": 7206,
      "ĠÐ¿ÑĢÐ¾Ð²Ð¾Ð´Ð¸ÑĤÑĮ": 7207,
      "ĠÑĥÑĤÐ¾Ñĩ": 7208,
      "Ð¸ÑĤÐµÐ»ÑĮÐ½Ð¾Ð³Ð¾": 7209,
      "ĠÐ¿ÑĢÐ¸Ð¾Ð±ÑĢÐµÑĤ": 7210,
      "ĠPower": 7211,
      "ĠÐ´Ð°ÑİÑĤ": 7212,
      "âĢľ": 7213,
      "Ð¾Ð½Ð°Ð²": 7214,
      "ĠÐºÐ°ÑĢÑĤÐ¾Ñĩ": 7215,
      "ĠÑģÐ²ÐµÑĤÐ°": 7216,
      "ĠÐ²ÑĭÑħÐ¾Ð´Ðµ": 7217,
      "ÑĢÑĥÐµÐ¼": 7218,
      "ĠÐ¢Ð°ÐºÐ¸Ðµ": 7219,
      "older": 7220,
      "Ð°ÑĤÐ¾ÑĢÐ¾Ð²": 7221,
      "body": 7222,
      "ood": 7223,
      "ĠÑģÐ²ÐµÐ´": 7224,
      "ĠÐ²Ð½Ðµ": 7225,
      "ĠÐ¿Ð¾ÑģÐ»ÐµÐ´ÑģÑĤÐ²": 7226,
      "gn": 7227,
      "rl": 7228,
      "ĠÑģÐºÐ¾Ð¿": 7229,
      "ĠÐ·Ð²ÑĥÑĩ": 7230,
      "ÐŀÐĶ": 7231,
      "ĠÐ¸Ð½Ð´Ð¸Ð²Ð¸Ð´Ñĥ": 7232,
      "Ð»Ð¸ÑĤÑĮ": 7233,
      "ĠÐ±Ð»Ð¾ÐºÐ¾Ð²": 7234,
      "ĠVM": 7235,
      "version": 7236,
      "aaaaaaaa": 7237,
      "ĠÐ·Ð°Ð¿ÑĢÐµÑī": 7238,
      "ĠFor": 7239,
      "ĠÑģÐ²ÑıÐ·Ð°Ð½Ð½ÑĭÑħ": 7240,
      "ĠÑĤÐ¾ÑĩÐºÑĥ": 7241,
      "Ġevent": 7242,
      "Ġselect": 7243,
      "ĠÐ¿Ð¸ÑģÑĮÐ¼Ð¾": 7244,
      "ĠÐ²Ð¿ÐµÑĢÐ²ÑĭÐµ": 7245,
      "Ð½Ð¾Ð·Ð½Ð°Ñĩ": 7246,
      "ĠÑĢÐµÐ°Ð»ÑĮÐ½Ð¾Ð¼": 7247,
      "not": 7248,
      "ĠCol": 7249,
      "ĠÐ·Ð°ÑħÐ¾ÑĤ": 7250,
      "Ð°ÑĩÐ¸": 7251,
      "ĠÑģÐ´ÐµÐ»Ð°Ð½Ð¾": 7252,
      "Ð²ÑĢÐ°ÑĤ": 7253,
      "ĠÐĿÐµÐ¼": 7254,
      "ĠÐ¿Ð¾Ð´Ð´ÐµÑĢÐ¶ÐºÐ¾Ð¹": 7255,
      "Ð°ÐµÐ¼ÑĭÐ¹": 7256,
      "ĠÐ³ÐµÐ½ÐµÑĢÐ°ÑĨÐ¸Ð¸": 7257,
      "Ð°Ð±ÑĢ": 7258,
      "ĠÑĢÐ°Ð·Ð²ÐµÑĢ": 7259,
      "ĠÑĥÐ·Ð½Ð°": 7260,
      "ĠÐŁÑĢÐ°Ð²Ð´Ð°": 7261,
      "ĠÐ¸Ð½ÑĤÐµÑĢÐµÑģÐ½ÑĭÑħ": 7262,
      "ĠÐĲÐ´": 7263,
      "Ġ<=": 7264,
      "umn": 7265,
      "ĠÐĲÐ½Ð´": 7266,
      "tom": 7267,
      "ags": 7268,
      "ĠÐ¿Ð¾ÑģÑĤÐµÐ¿ÐµÐ½Ð½Ð¾": 7269,
      "ĠÐ¿Ð¾Ð²ÑĭÑģ": 7270,
      "ĠÐ³Ð°Ð´": 7271,
      "Ð²Ð¾Ð½": 7272,
      "ĠÐĿÐ°Ð²": 7273,
      "ÑģÐ¿Ð¾ÑģÐ¾Ð±": 7274,
      "Â»)": 7275,
      "Ð°ÑĤÐ¾ÑĢÐ°": 7276,
      "ĠÑħÑĢÐ°Ð½Ð¸Ð»Ð¸ÑīÐµ": 7277,
      "system": 7278,
      "sert": 7279,
      "rad": 7280,
      "ĠÐ¿ÑĢÐ¾Ð¸Ð·Ð²Ð¾Ð»ÑĮ": 7281,
      "\",\"": 7282,
      "ĠÑģÑĤÑĢÐ¾ÐºÐµ": 7283,
      "Ġprocess": 7284,
      "Ð½Ð¸Ð¼Ð¸": 7285,
      "Ġimage": 7286,
      "Def": 7287,
      "ĠÑĥÐº": 7288,
      "ĠÐ¿ÑĢÐ¸ÑĩÐ¸Ð½Ðµ": 7289,
      "Ġone": 7290,
      "ates": 7291,
      "ĠÐ´Ð¸Ð°Ð³ÑĢÐ°Ð¼Ð¼": 7292,
      "ĠÐºÐ°ÑĤÐµÐ³Ð¾ÑĢÐ¸Ð¸": 7293,
      "ĠÐ½Ð°ÑĪÐµÐ»": 7294,
      "Ð¸ÑĤÐµÐ»ÑĮÐ½Ð°Ñı": 7295,
      "ĠPer": 7296,
      "ÑĦÐ¸Ðº": 7297,
      "Ð¸Ð½ÑģÑĤÐ²Ð¾": 7298,
      "ĠÐºÐ¾Ð¼Ð¿Ð°Ð½Ð¸ÐµÐ¹": 7299,
      "ĠÑģÐ¸ÑģÑĤÐµÐ¼Ð°Ñħ": 7300,
      "ĠÑĤÑĢÐ°Ð½ÑģÐ¿Ð¾ÑĢÑĤ": 7301,
      "ĠÑĢÐµÐ°Ð»Ð¸Ð·Ð°ÑĨÐ¸Ñİ": 7302,
      "ÐµÐ¶Ð½ÐµÐ¼Ñĥ": 7303,
      "ĠÐµÐ´Ð¸Ð½Ð¸ÑĨ": 7304,
      "Ð¾Ð»ÐµÐ²": 7305,
      "ĠÐ´Ð¸Ð°Ð»Ð¾Ð³": 7306,
      "ĠÐ¿ÑĢÐ¸ÑģÑĤÑĥÐ¿": 7307,
      "cel": 7308,
      "ĠÐ¿ÑĢÐµÐ´ÑĥÐ¿ÑĢÐµÐ¶Ð´": 7309,
      "ĠÑģÐ¾Ð±ÑĭÑĤÐ¸Ðµ": 7310,
      "Ġ{}": 7311,
      "ĠÐ°Ð»Ð³Ð¾ÑĢÐ¸ÑĤÐ¼Ð¾Ð²": 7312,
      "ĠÐ²ÑĭÐ²Ð¾Ð´Ð°": 7313,
      "ÑįÐºÐ¾Ð½Ð¾Ð¼": 7314,
      "================": 7315,
      "Ġmethod": 7316,
      "ĠÐĶÐ¾Ð¿Ð¾Ð»Ð½": 7317,
      "client": 7318,
      "ĠÑģÐ¾ÑĦÑĤ": 7319,
      "ĠÑģÑģÑĭÐ»ÐºÐ°": 7320,
      "ING": 7321,
      "ĠÐºÑĢÐ°": 7322,
      "Box": 7323,
      "Ġ})": 7324,
      "ĠÑģÐ¾Ð±ÑģÑĤÐ²ÐµÐ½Ð½ÑĭÐµ": 7325,
      "ÑĢÐµÐ¶Ð´": 7326,
      "Ġparam": 7327,
      "ÑĥÑĢÐ³": 7328,
      "ĠÐºÑĢÐ¸ÑĤÐµÑĢ": 7329,
      "PL": 7330,
      "ĠÐ¿Ð¾ÑıÑģÐ½": 7331,
      "oftware": 7332,
      "ĠÐ¼Ð¾Ð¸": 7333,
      "Ð¾ÑĢÐ°Ñĩ": 7334,
      "Ġqu": 7335,
      "vo": 7336,
      "ÐµÐºÑĤÐ¾ÑĢÐ°": 7337,
      "ĠÐ½Ð°ÑĩÐ¸Ð½Ð°Ñı": 7338,
      "ĠÐ°ÑĥÐ´Ð¸ÑĤÐ¾ÑĢÐ¸Ð¸": 7339,
      "ĠÐ¿ÑĢÐ¸Ð½ÑĤÐµÑĢ": 7340,
      "Ð±Ð»": 7341,
      "ĠFirefox": 7342,
      "ĠÐ³ÑĢÑĥÐ·": 7343,
      "uby": 7344,
      "Ġinput": 7345,
      "isco": 7346,
      "ĠÐ»ÑİÐ´ÑĮÐ¼Ð¸": 7347,
      "ĠÑģÐ¼ÑĭÑģÐ»Ð°": 7348,
      "head": 7349,
      "ars": 7350,
      "ĠÐ¿Ð¾Ð´ÑĢÐ¾Ð±Ð½ÐµÐµ": 7351,
      "ĠÐĿÐ°Ðº": 7352,
      "Ð¸ÑĤÑĥÑĤ": 7353,
      "ÑĭÐ²Ð°Ñİ": 7354,
      "ĠÐŁÐ¾ÑĤÐ¾Ð¼": 7355,
      "ĠÐ²ÑĭÐ¿ÑĥÑģÑĤ": 7356,
      "ĠÐ¾Ð±ÑīÐ¸Ð¹": 7357,
      "ĠÑģÑĤÑĢÐ°Ñħ": 7358,
      "ÐµÐ½Ð¸ÑıÐ¼": 7359,
      "ĠÐ¿Ð¾Ð»Ð½Ð¾Ð¹": 7360,
      "move": 7361,
      "Ð°ÑĤÐµÐ»ÑĮÐ½ÑĭÐµ": 7362,
      "WS": 7363,
      "ĠÐłÐ°Ð±Ð¾ÑĤÐ°": 7364,
      "\\\\": 7365,
      "ĠÑĤÐµÑģÑĤÐ°": 7366,
      "ĠStore": 7367,
      "ÐµÐ²ÑĭÐ¼": 7368,
      "ĠÑĤÐµÐºÑĥÑīÐ¸Ð¹": 7369,
      "Ġhas": 7370,
      "42": 7371,
      "ĠÐ¿Ð¾ÑĤÐ¾ÐºÐ¾Ð²": 7372,
      "ĠÐ±ÑĢÐ°ÑĤÑĮ": 7373,
      "Ð¾Ð²Ð°Ð½Ð½ÑĭÐµ": 7374,
      "ÑģÑıÑĤÑģÑı": 7375,
      "Ð¾Ð²Ð°Ð²": 7376,
      "ĠÐ²Ð°ÐºÐ°Ð½Ñģ": 7377,
      "Stream": 7378,
      "ĠÐ´ÐµÐ»Ð°ÐµÑĤÑģÑı": 7379,
      "ĠÑĥÑĩÐµÑĤÐ¾Ð¼": 7380,
      "ĠÐ¾Ð±Ðµ": 7381,
      "ĠÐ¸Ð½Ð½Ð¾Ð²": 7382,
      "ĠÐ²Ð¾Ð·Ð¼Ð¾Ð¶Ð½ÑĭÑħ": 7383,
      "pg": 7384,
      "ĠÐºÐ¸Ð»": 7385,
      "Ð¾Ð¹Ð´ÑĳÑĤ": 7386,
      "search": 7387,
      "ĠÐ½Ð°ÑģÑĤÐ¾ÑıÑīÐµÐµ": 7388,
      "ĠÑģÑĢÐµÐ´Ð½ÐµÐ¼": 7389,
      "ĠÐ²ÑĭÑĢÐ¾Ñģ": 7390,
      "ĠÑįÑĤÐ¸Ð¼Ð¸": 7391,
      "Ð¸Ð±ÑĥÑĤÐ¸Ð²": 7392,
      "ÑģÐµÑĢÐ²ÐµÑĢ": 7393,
      "ĠÐºÐ»ÑİÑĩÐ°": 7394,
      "([": 7395,
      "ooth": 7396,
      "ÑģÐµÑĤ": 7397,
      "Ð°Ð½ÑģÑĭ": 7398,
      "ĠÐ¿Ð¾ÑģÐ»ÐµÐ´Ð½ÐµÐµ": 7399,
      "default": 7400,
      "ĠÐłÐµÑĪÐµÐ½Ð¸Ðµ": 7401,
      "ĠUnity": 7402,
      "Ð°Ð»ÑĮÐ½Ð¾Ð¼Ñĥ": 7403,
      "ĠÐ¾Ð´Ð¸Ð½Ð°Ðº": 7404,
      "OD": 7405,
      "Ġ35": 7406,
      "ĠÐ±ÑĥÐ´ÑĥÑīÐµÐµ": 7407,
      "ĠÐ¿Ð¸ÑģÐ°Ð»": 7408,
      "ĠÐ»Ð¸ÑĩÐ½Ð¾": 7409,
      "Client": 7410,
      "ĠÐ¿Ð¾Ð½Ð¸Ð¼Ð°Ð½Ð¸Ñı": 7411,
      "ĠÐ²Ð»Ð¸ÑıÐµÑĤ": 7412,
      "ĠÐ¿ÑĢÐ¸Ð¼ÐµÐ½ÑıÑĤÑĮ": 7413,
      "Ð¸ÑĦÐ¸ÐºÐ°ÑĨÐ¸Ñı": 7414,
      "ĠÑģÑĩÐ¸ÑĤÐ°ÐµÑĤ": 7415,
      "vert": 7416,
      "ĠÐ²Ð¾Ð²ÑģÐµ": 7417,
      "={": 7418,
      "ĠÑĢÐµÐ°Ð»ÑĮÐ½Ð¾": 7419,
      "ĠÐ·Ð°ÐºÑĢÑĭ": 7420,
      "ĠÐ¾Ð±Ð»ÐµÐ³": 7421,
      "Ġoff": 7422,
      "Ġpart": 7423,
      "ĠÑģÐ¼Ð¾Ð³Ð»Ð¸": 7424,
      "Ð¾Ð¿ÑĭÑĤ": 7425,
      "ĠÐ²Ð¾Ð´Ñĭ": 7426,
      "ĠÐ´Ð¾ÑĢÐ°Ð±Ð¾ÑĤ": 7427,
      "ĠÐĶÑĥÐ¼": 7428,
      "ĠÑģÐ¾ÑĨ": 7429,
      "KE": 7430,
      "Ð°Ð¼ÐµÐ½ÑĤ": 7431,
      "ĠÐ¾ÑĩÐµÐ²Ð¸Ð´Ð½Ð¾": 7432,
      "ĠÑģÐ¸Ð½ÑĤÐ°ÐºÑģÐ¸Ñģ": 7433,
      "ĠÑģÑĤÐ¾Ð¸Ð¼Ð¾ÑģÑĤÐ¸": 7434,
      "ĠÐºÑĥÐ±": 7435,
      "ĠÐ½Ð°Ð²ÐµÑĢÐ½Ð¾Ðµ": 7436,
      "ĠÐ¿Ð¾Ð¿ÑĥÐ»ÑıÑĢÐ½ÑĭÑħ": 7437,
      "ĠÑĦÐµÐ²": 7438,
      "ĠÐ²Ð°ÑĪÐµÐ¼": 7439,
      "ĠÐ°Ð¼": 7440,
      "ĠÐ¿ÑĢÐ¾Ð²ÐµÐ´ÐµÐ½Ð¸Ñı": 7441,
      "ĠÐ§ÐµÑĢÐµÐ·": 7442,
      "ĠÑģÐ¾Ð³Ð»Ð°ÑģÐ½Ð¾": 7443,
      "ĠÐ²Ð½ÐµÐ´ÑĢÐµÐ½Ð¸Ñı": 7444,
      "reg": 7445,
      "ÐµÐ½Ð´Ð°": 7446,
      "ĠÐ¸ÑģÑģÐ»ÐµÐ´Ð¾Ð²Ð°Ð½Ð¸Ð¹": 7447,
      "ĠÐ³ÑĢÑĥÐ¿Ð¿Ð°": 7448,
      "Ð¾ÑĢÐ³": 7449,
      "ĠÑĤÑĢÑĥÐ´Ð½Ð¾": 7450,
      "ĠÐ¾Ð±ÑīÐµÐ¹": 7451,
      "ĠÐºÐ»Ð°ÑģÑģÑĭ": 7452,
      "ÐµÐ²Ð°Ñı": 7453,
      "ĠÐ¿Ð»Ð°ÑĤÑĦÐ¾ÑĢÐ¼Ð°": 7454,
      "actory": 7455,
      "ets": 7456,
      "abled": 7457,
      "oin": 7458,
      "Ð¼Ð¾ÑģÑĦ": 7459,
      "ĠÐĵÐ´Ðµ": 7460,
      "Ġoper": 7461,
      "ĠÐ¿Ð»Ð°Ð²": 7462,
      "Ð¸ÑĢÐ¾Ð²Ð°Ð½Ð¾": 7463,
      "Ð¾Ð²Ð°Ð»Ð¾": 7464,
      "ĠAdd": 7465,
      "ĠÑĥÑĩÑĳÑĤ": 7466,
      "Ð´Ð¾Ñħ": 7467,
      "gister": 7468,
      "ĠÐ±Ð¾Ð³": 7469,
      "ĠÑĦÐ°Ð·": 7470,
      "ĠÐ¿Ð¾Ð´ÑĢÐ°Ð·ÑĥÐ¼ÐµÐ²": 7471,
      "asp": 7472,
      "ÑĦÐµÐ¹Ñģ": 7473,
      "place": 7474,
      "ĠÐŁÐµÑĢÐ²Ð°Ñı": 7475,
      "build": 7476,
      "Ð¾Ð¶Ð´ÐµÐ½Ð¸Ðµ": 7477,
      "button": 7478,
      "ĠÐĶÐ°Ð»ÑĮÑĪÐµ": 7479,
      "ĠÑĤÑĢÑĥÐ´Ð°": 7480,
      "ĠÑĩÑĳÐ¼": 7481,
      "ĠÐºÐ»Ð¸ÐµÐ½ÑĤÑĭ": 7482,
      "ĠÑĩÐ»ÐµÐ½": 7483,
      "ĠÐ±ÑİÐ´Ð¶ÐµÑĤ": 7484,
      "Tube": 7485,
      "serv": 7486,
      "With": 7487,
      "68": 7488,
      "ĠÐ¼Ð¾ÐµÐ³Ð¾": 7489,
      "ĠÐºÐ¾Ð¼Ð¿Ð¾Ð½ÐµÐ½ÑĤÐ°": 7490,
      "ĠÐ¿ÐµÑĩ": 7491,
      "ĠÐŀÐ¿ÑĢÐµÐ´ÐµÐ»": 7492,
      "ĠÐŁÐ¾ÑģÑĤ": 7493,
      "ĠÑħÑĥÐ¶Ðµ": 7494,
      "ĠÐĲÐ»ÐµÐºÑģÐ°Ð½Ð´": 7495,
      "Web": 7496,
      "cache": 7497,
      "Ð·Ð°Ð¿ÑĢÐ¾Ñģ": 7498,
      "ÐºÑĥÐ¿": 7499,
      "Val": 7500,
      "ln": 7501,
      "Inst": 7502,
      "ĠÑĢÐ¾ÑģÑģÐ¸Ð¹ÑģÐºÐ¸Ñħ": 7503,
      "ÑĦÐ°ÐºÑĤÐ¾ÑĢ": 7504,
      "ĠÐ²Ð¾ÑģÐ¿ÑĢÐ¸Ð½Ð¸Ð¼": 7505,
      "etch": 7506,
      "ĠÐ¾ÐºÐ°Ð·Ð°Ð»ÑģÑı": 7507,
      "ÑĬÑĳÐ¼": 7508,
      "ĠÐ´Ð¾Ð±Ð¸ÑĤÑĮÑģÑı": 7509,
      "ĠÑģÑĩÐ¸ÑĤÐ°ÑİÑĤ": 7510,
      "ĠÐ´Ð¸ÑģÐºÐ°": 7511,
      "ĠÐ³ÑĢÐ°Ð¶Ð´Ð°Ð½": 7512,
      "ÐµÑģÐºÐ¸Ñħ": 7513,
      "irectory": 7514,
      "ĠÑģÐ¶Ð°ÑĤ": 7515,
      "Out": 7516,
      "ateg": 7517,
      "ÐµÑĨÐ¸Ð°Ð»Ð¸ÑģÑĤ": 7518,
      "ĠÐ¿Ð¾ÑģÐ¼Ð¾ÑĤÑĢ": 7519,
      "ĠÐ¿ÐµÑĢÐµÐ´Ð°Ð²": 7520,
      "label": 7521,
      "ĠÐ°ÑĤÐ¾Ð¼": 7522,
      "ĠÐ¼Ð°Ð³Ð°Ð·Ð¸Ð½": 7523,
      "Ġtable": 7524,
      "ĠÐ±Ð°Ð·Ð°": 7525,
      "Ġ2010": 7526,
      "ĠÐºÐ¼": 7527,
      "ĠÐºÐ»Ð¸Ðº": 7528,
      "ĠÐ¿ÑĢÐ¸Ð½ÑıÑĤÑĮ": 7529,
      "ĠÐ¼Ð°ÑĪÐ¸Ð½Ð½Ð¾Ð³Ð¾": 7530,
      "ĠÐ½Ñİ": 7531,
      "ĠÑģÐ¾Ð¾Ð±ÑīÐµÑģÑĤÐ²Ð°": 7532,
      "Ġ######": 7533,
      "ĠÐ½ÐµÑģÑĤ": 7534,
      "ĠÂ": 7535,
      "ĠÐ½Ð¾Ð¼ÐµÑĢÐ°": 7536,
      "ÐĺÐ½": 7537,
      "ĠÑĤÑĢÐ°Ð½ÑģÑĦÐ¾ÑĢÐ¼": 7538,
      "ĠÐ¾ÑĢÐ³Ð°Ð½Ð¸Ð·Ð°ÑĨÐ¸Ñı": 7539,
      "Create": 7540,
      "ouse": 7541,
      "ĠÐ¿ÑĢÐ¾Ð¹ÑĤÐ¸": 7542,
      "ĠÑģÐ²ÐµÐ¶": 7543,
      "ĠÐ¿Ð°ÑĢÐ°Ð¼ÐµÑĤÑĢÐ°": 7544,
      "ĠÐ¿ÑĢÐµÑĤ": 7545,
      "ĠÐ½Ð°Ð³Ð»ÑıÐ´": 7546,
      "ĠÐ»Ð¸ÑĨÐ°": 7547,
      "from": 7548,
      "ĠÐ¿ÑĢÐ¾ÑģÑĤÑĭÐ¼": 7549,
      "Ġfinal": 7550,
      "Ġresp": 7551,
      "ÐµÑĢÐ¼": 7552,
      "ĠÐ´Ð¾ÑģÑĤÐ°ÑĤÐ¾Ñĩ": 7553,
      "ĠÑĢÐ°ÑģÐ¿Ð¾Ð»Ð°Ð³": 7554,
      "ĠTelegram": 7555,
      "ĠÐ¿Ð¾Ð¿ÑĢÐ¾Ñģ": 7556,
      "ginx": 7557,
      "ĠÑħÐ°ÑĢÐ°ÐºÑĤÐµÑĢÐ¸ÑģÑĤÐ¸ÐºÐ¸": 7558,
      "ÐµÐ²Ð¸Ð·": 7559,
      "ĠÐºÐ¾Ð¼Ð¼ÐµÑĢÑĩÐµÑģÐº": 7560,
      "ÐļÐ°Ðº": 7561,
      "ĠÐ¾Ð±Ð°": 7562,
      "Ð²ÐµÑĢÐ³": 7563,
      "go": 7564,
      "ĠÑĢÐµÐºÐ¾Ð¼ÐµÐ½Ð´Ñĥ": 7565,
      "ĠÐ¾Ð¶Ð¸Ð´Ð°Ð½Ð¸Ñı": 7566,
      "ĠÐ·Ð²ÑĥÐº": 7567,
      "Ð¾Ð»ÐµÑĤ": 7568,
      "ĠÐ¶Ð´Ð°ÑĤÑĮ": 7569,
      "ĠÐ¿ÑĢÐ¾ÐµÐºÑĤÐ¾Ð¼": 7570,
      "ĠÑģÐµÑĢÑĮÑĳÐ·": 7571,
      "hel": 7572,
      "âĢĶ": 7573,
      "Ð°ÑģÑĤÐ¾Ð¼": 7574,
      "ating": 7575,
      "ÑĦÐ¾ÑĢÑĤ": 7576,
      "ĠÐ¿Ð¾Ð´Ð±Ð¾ÑĢ": 7577,
      "ÑĥÐ»ÑıÑĨÐ¸Ð¸": 7578,
      "imit": 7579,
      "ĠÐĴÐ°Ð¶Ð½Ð¾": 7580,
      "-+": 7581,
      "Ð¼Ð¾Ð²": 7582,
      "Ġfl": 7583,
      "Ġrow": 7584,
      "OC": 7585,
      "check": 7586,
      "ĠÐ¾ÑĤÐ½Ð¾ÑģÐ¸ÑĤÑģÑı": 7587,
      "ĠÐ¿ÑĢÐ¾Ð²ÐµÑĢÐºÐ°": 7588,
      "Ð¾Ð²Ð°Ð½Ð¸Ñİ": 7589,
      "ĠÐ±Ð»Ð¾Ð³Ðµ": 7590,
      "imple": 7591,
      "alc": 7592,
      "ĠÐ²Ð´ÑĢÑĥÐ³": 7593,
      "ĠService": 7594,
      "ĠÐ¿ÑĢÐ¸Ð³Ð»Ð°ÑĪ": 7595,
      "ĠÐ¢ÑĢ": 7596,
      "ĠÐ»Ð¾Ð¶": 7597,
      "\"]": 7598,
      "ĠÐŀÐ¿Ð¸Ñģ": 7599,
      "wh": 7600,
      "ĠÐ·Ð°ÑĩÐ°ÑģÑĤÑĥÑİ": 7601,
      "ÑĥÐ½Ð¾Ðº": 7602,
      "ons": 7603,
      "ĠÐ¸Ð·Ð¾Ð±ÑĢÐµÑĤ": 7604,
      "ĠÐºÐ¾Ð¾ÑĢÐ´Ð¸Ð½Ð°ÑĤ": 7605,
      "ĠÐ¿Ð¾ÐºÑĢÑĭÑĤ": 7606,
      "ĠÐ¿ÑĢÐ¸Ð¼ÐµÐ½ÐµÐ½Ð¸Ðµ": 7607,
      "ĠÐ¾ÑĤÐ²ÐµÑĤÑĭ": 7608,
      "Be": 7609,
      "mod": 7610,
      "ĠÑģÐ»ÑĥÐ¶Ð±Ñĭ": 7611,
      "Ð´Ð°ÑĩÐ¸": 7612,
      "try": 7613,
      "ĠÐ¿ÑĥÐ»": 7614,
      "ĠÐ²Ð½ÐµÑģ": 7615,
      "ĠÐ¼Ð½Ð¾Ð¶ÐµÑģÑĤÐ²Ð°": 7616,
      "ĠÐ¾ÑĤÐ¿ÑĢÐ°Ð²Ð¸ÑĤÑĮ": 7617,
      "ĠÐ±Ð¾Ð»ÑĮÑĪÐ¸Ð½ÑģÑĤÐ²Ð°": 7618,
      "ĠÐ¢Ðµ": 7619,
      "ĠÐ´Ð¾ÐºÑĥÐ¼ÐµÐ½ÑĤÑĭ": 7620,
      "ĠÐ±ÑĢÐ°ÑĥÐ·ÐµÑĢÐµ": 7621,
      "ĠÐ¿Ð¾Ð»ÐµÐ·Ð½Ð¾": 7622,
      "ĠÑģÑĤÑĢÐ°Ð½Ðµ": 7623,
      "ĠÐºÐ¾Ð½ÑģÑĤÑĢÑĥÐºÑĤÐ¾ÑĢ": 7624,
      "000000": 7625,
      "Ġpath": 7626,
      "Ð°ÑĤÐµÐ»ÑĮÑģÑĤÐ²Ð°": 7627,
      "ĠÑĤÐµÐºÑĥÑīÐµÐ¹": 7628,
      "ĠÐĲÐ²ÑĤÐ¾ÑĢ": 7629,
      "ĠÑĥÑĩÐ¸ÑĤÑĭÐ²Ð°ÑĤÑĮ": 7630,
      "ĠÐ¾Ð¿ÐµÑĢÐ°ÑĤÐ¾ÑĢÐ°": 7631,
      "ĠÐ¡Ð´ÐµÐ»": 7632,
      "ĠÑĦÑĢÐ°Ð·": 7633,
      "ĠÐ¿Ð¾Ð¼Ð¸Ð¼Ð¾": 7634,
      "ĠÐŁÐ¾Ð·": 7635,
      "Ġmessage": 7636,
      "ĠÐ¾ÑĤÑĢÐ¸ÑĨ": 7637,
      "Ð³ÑĥÑģÑĤ": 7638,
      "bug": 7639,
      "ÑİÑĢ": 7640,
      "ĠÐ¿ÐµÑĢÐµÐ´Ð°Ð²Ð°ÑĤÑĮ": 7641,
      "ĠÑĦÐ¾ÐºÑĥÑģ": 7642,
      "ĠÐ½ÑĥÐ¶Ð½ÑĭÐµ": 7643,
      "ĠÐ¾Ð¿ÐµÑĢÐ°ÑĨÐ¸Ñı": 7644,
      "ĠÑĥÐ»ÑĥÑĩÑĪÐ¸ÑĤÑĮ": 7645,
      "Ð²Ð°Ð»": 7646,
      "ĠÐ¸Ð¼Ð¸": 7647,
      "Ġcurrent": 7648,
      "air": 7649,
      "ĠÐ¿Ð»Ð°ÑĤÑĦÐ¾ÑĢÐ¼Ðµ": 7650,
      "Handler": 7651,
      "ĠÐ¼ÐµÐ½ÑıÐµÑĤÑģÑı": 7652,
      "Ð¾Ð½ÑĤÑĢÐ¾Ð»": 7653,
      "ĠÐ¿Ð¾Ð²ÐµÐ´ÐµÐ½Ð¸Ñı": 7654,
      "block": 7655,
      "ĠÐºÑģÑĤÐ°ÑĤÐ¸": 7656,
      "Start": 7657,
      "ĠÐ¿Ð¸ÑĢ": 7658,
      "Ð¾ÑĤÐ½Ð¾ÑĪ": 7659,
      "ÑģÐµÐº": 7660,
      "UE": 7661,
      "ĠÐ¿Ð°ÐºÐµÑĤÑĭ": 7662,
      "Ð¾Ð¼Ð½Ð¸ÑĤÑĮ": 7663,
      "ĠÑĦÐ¾ÑĢÑĥÐ¼": 7664,
      "ense": 7665,
      "ĠÐĺÑģÑħÐ¾Ð´": 7666,
      "ĠÐ¿Ð¾Ð½Ð¸Ð¼Ð°Ð½Ð¸Ðµ": 7667,
      "scription": 7668,
      "________": 7669,
      "Ġjava": 7670,
      "vider": 7671,
      "Ġfirst": 7672,
      "ĠÑģÐ¼ÑĭÑģÐ»Ðµ": 7673,
      "ĠÐ³Ð»Ð°Ð·Ð°": 7674,
      "]-": 7675,
      "Ġuint": 7676,
      "Field": 7677,
      "ĠÐŁÑĢÐ¸ÑĩÐµÐ¼": 7678,
      "Ġ2000": 7679,
      "ÐºÐ¾Ð½ÑĤ": 7680,
      "cre": 7681,
      "ĠÑģÐ°Ð¼Ð¾Ð¼Ñĥ": 7682,
      "ĠÐ¿ÑĢÐµÐ¸Ð¼ÑĥÑīÐµÑģÑĤÐ²Ð°": 7683,
      "ĠÐ½ÐµÐ´Ð¾ÑģÑĤÐ°ÑĤÐ¾ÑĩÐ½Ð¾": 7684,
      "ĠÐ¿Ð¾Ð»Ð°Ð³": 7685,
      "ÑĥÑģÐ¾Ð²": 7686,
      "ÑįÑĦÑĦÐµÐºÑĤ": 7687,
      "ĠÐ¿ÑĢÐ¾ÑģÐ¼Ð¾ÑĤÑĢÐ°": 7688,
      "ĠÐ°ÐºÐºÑĥÐ¼ÑĥÐ»ÑıÑĤÐ¾ÑĢ": 7689,
      "ĠVPN": 7690,
      "Ð¾ÑĢÐ¸Ñı": 7691,
      "Ð¾Ð»Ñİ": 7692,
      "ÐµÐ½Ð½Ð¾Ð¼Ñĥ": 7693,
      "num": 7694,
      "ized": 7695,
      "07": 7696,
      "ĠLog": 7697,
      "ĠÐ³ÑĢÐ°ÑĦÐ¸Ðº": 7698,
      "06": 7699,
      "ĠÑĥÑģÑĤÐ°ÑĢ": 7700,
      "ĠÑģÑģÑĭÐ»Ð¾Ðº": 7701,
      "ĠÐ¿ÑĢÐ¾Ð·ÑĢÐ°Ñĩ": 7702,
      "ĠÐ²ÑħÐ¾Ð´Ð°": 7703,
      "Server": 7704,
      "ĠÐ¢Ð¸Ð¿": 7705,
      "ĠÐ¾ÑĤÐ½Ð¾ÑĪÐµÐ½Ð¸Ñı": 7706,
      "ĠÐ·Ð°Ð´Ð°ÑĩÐµÐ¹": 7707,
      "ĠÐºÐ¾Ð¼Ð¼ÑĥÑĤ": 7708,
      "ĠÐ°ÑĤÐ¼Ð¾ÑģÑĦ": 7709,
      "ĠÐºÐ¾Ð¼Ð¿Ð»ÐµÐºÑģ": 7710,
      "Over": 7711,
      "ĠÑģÐ¿Ð¾ÑĢ": 7712,
      "ĠÐ¿Ð¾Ð²Ð¾ÑĢ": 7713,
      "cd": 7714,
      "ĠÑĦÐ¸Ð»ÑĮÑĤ": 7715,
      "ĠÐ¿Ð¾Ð´ÐºÐ»ÑİÑĩÐ¸ÑĤÑĮ": 7716,
      "Ġupdate": 7717,
      "ĠÐ¿Ð°ÑĢÐ°Ð»Ð»ÐµÐ»ÑĮ": 7718,
      "ÐµÑĤÑĢ": 7719,
      "ĠÐ¿Ð¾ÑħÐ¾Ð¶Ðµ": 7720,
      "SM": 7721,
      "ount": 7722,
      "ĠÐ³Ð¾ÑĢÐ¾Ð´Ð°": 7723,
      "Ð°ÑĤÐµÐ»ÑĮÐ½ÑĭÑħ": 7724,
      "Ġ29": 7725,
      "ĠÐ½Ð°Ð¿ÑĢÐ°Ð²Ð»ÐµÐ½Ð¸Ð¸": 7726,
      "ĠÐ»ÑİÐ±Ð¾Ðµ": 7727,
      "cur": 7728,
      "ah": 7729,
      "System": 7730,
      "Ð°ÑĨÐ¸Ð¾Ð½Ð½ÑĭÐµ": 7731,
      "ĠÐ±ÐµÐ·Ð¾Ð¿Ð°ÑģÐ½Ð¾ÑģÑĤÑĮ": 7732,
      "ĠÑģÐºÑĢÑĭÑĤ": 7733,
      "ĠÑĢÐ¾Ð²": 7734,
      "ĠÐ²ÐµÑĢÑĤÐ¸Ðº": 7735,
      "ĠÐ±Ð¸ÑĢ": 7736,
      "ĠWe": 7737,
      "ĠÑģÑĢÐ°Ð²Ð½ÐµÐ½Ð¸Ñı": 7738,
      "ĠÐºÐ¾Ð¼Ð¿ÑĮÑİÑĤÐµÑĢÐ¾Ð²": 7739,
      "reSQL": 7740,
      "Ð¾Ð»ÑĮÑĪÐµ": 7741,
      "ĠÐºÐ¾Ð½ÑģÐ¾Ð»Ð¸": 7742,
      "Ð¾Ð²ÑĭÐ²Ð°ÑĤÑĮ": 7743,
      "ĠÑģÐ¾ÑĤÐ½Ð¸": 7744,
      "ĠÐ¼Ð°ÐºÑģÐ¸Ð¼ÑĥÐ¼": 7745,
      "ĠÐ²ÑģÑĤÑĢÐµÑĤ": 7746,
      "Ð¸ÑĤÐµÐ»ÑĮÐ½ÑĭÐ¼": 7747,
      "ĠÑĤÐµÑħÐ½Ð¸ÐºÐ¸": 7748,
      "ĠÐ½ÐµÐ³Ð°ÑĤÐ¸Ð²": 7749,
      "ervices": 7750,
      "Ġcount": 7751,
      "54": 7752,
      "Des": 7753,
      "ĠÑģÐ¾Ð¾Ð±ÑīÐµÑģÑĤÐ²": 7754,
      "ĠÑĥÐ²ÐµÐ»Ð¸ÑĩÐ¸ÑĤÑĮ": 7755,
      "ĠÐ½ÐµÐ¹ÑĢÐ¾Ñģ": 7756,
      "ĠIE": 7757,
      "ĠÐĽÑĥÑĩ": 7758,
      "Ð¼Ð°Ð³Ð°Ð·": 7759,
      "ĠÐ¼Ð¾ÑīÐ½Ð¾ÑģÑĤÐ¸": 7760,
      "Ð¾ÑıÑĤÐ½Ð¾": 7761,
      "Ġcontext": 7762,
      "river": 7763,
      "Ġwidth": 7764,
      "ÑĦÐ°": 7765,
      "ĠÐ¿Ð¾Ð´ÑĢÐ°Ð·Ð´ÐµÐ»": 7766,
      "ĠÐ¿ÑĢÐ¾Ð¸Ð·Ð¾ÑĪÐ»Ð¾": 7767,
      "ĠÑģÐ¿ÐµÑĨÐ¸Ð°Ð»Ð¸ÑģÑĤÑĭ": 7768,
      "ĠÐ½Ð¾Ð²Ð¾Ð¼": 7769,
      "ĠÐ¿Ð°Ð½ÐµÐ»ÑĮ": 7770,
      "ĠXML": 7771,
      "Ġme": 7772,
      "Ġline": 7773,
      "ĠÐ¿ÑĢÐ°Ð²Ð¸ÑĤÐµÐ»ÑĮ": 7774,
      "ĠÐ¸Ð´ÐµÑİ": 7775,
      "ÑĢÐµÐ¿": 7776,
      "Content": 7777,
      "ĠÐ°Ð±Ð¾Ð½": 7778,
      "ĠÐ²ÑĢÐ°Ñī": 7779,
      "ĠÐ¼ÑĥÑģ": 7780,
      "Ð½Ð¸Ñı": 7781,
      "over": 7782,
      "Ð¸ÑĢÑĥÐ¹ÑĤÐµ": 7783,
      "ĠÐ¿ÑĢÐ¸Ð²ÐµÑĤ": 7784,
      "ĠÐºÑĥÑĢÑģÐ°": 7785,
      "ĠUb": 7786,
      "ĠÐ¾ÑĤÐ¾Ð±ÑĢÐ°Ð¶ÐµÐ½Ð¸Ñı": 7787,
      "Ð¾ÑĩÐ½ÑĭÑħ": 7788,
      "ĠÑİÐ·": 7789,
      "ĠÐľÐµÑĤÐ¾Ð´": 7790,
      "ĠÐ»Ð°Ð·": 7791,
      "ĠÐ¼ÐµÐ½ÐµÐ´Ð¶ÐµÑĢ": 7792,
      "ĠÐ¶Ð°Ð»": 7793,
      "ĠÐ¸Ð½ÑĤÐµÑĢÐ°ÐºÑĤÐ¸Ð²": 7794,
      "ctivity": 7795,
      "ĠÐ¿ÑĢÐ¾ÑĨÐµÐ½ÑĤ": 7796,
      "ĠÐ¾Ð±ÑĬÑıÑģÐ½Ñı": 7797,
      "ĠSDK": 7798,
      "tmp": 7799,
      "ĠÐ³ÑĢÐ°Ð½Ð¸ÑĨ": 7800,
      "posit": 7801,
      "ĠÐ¼Ð°ÑĤÐµÑĢ": 7802,
      "ĠÐ¾ÑĤÐ²ÐµÑĤÐ¸ÑĤÑĮ": 7803,
      "ĠÐ¼Ð¸ÐºÑĢÐ¾Ðº": 7804,
      "ĠâĶĤ": 7805,
      "ĠÐ°Ð²ÑĤÐ¾Ð½Ð¾Ð¼": 7806,
      "ĠÐ¼Ð°ÑĤÐµÑĢÐ¸Ð°Ð»Ð°": 7807,
      "github": 7808,
      "ĠÐ±Ð¸Ð»": 7809,
      "ĠIS": 7810,
      "NAME": 7811,
      "ĠÑĥÐ´Ð°Ð»Ð¸ÑĤÑĮ": 7812,
      "Ġ192": 7813,
      "ĠÐ²Ð¿ÐµÑĢÐµÐ´": 7814,
      "less": 7815,
      "DD": 7816,
      "Action": 7817,
      "><": 7818,
      "anguage": 7819,
      "ls": 7820,
      "Ġurl": 7821,
      "1000": 7822,
      "uccess": 7823,
      "ĠÐ¿ÑĢÐ¸Ð¾ÑĢÐ¸ÑĤÐµÑĤ": 7824,
      "ĠÑĢÐµÐ°Ð»ÑĮÐ½Ð¾Ð³Ð¾": 7825,
      "ĠÐ¿Ð¾Ð»Ð¾Ð¶ÐµÐ½Ð¸Ðµ": 7826,
      "ĠÑĥÐ´Ð¾Ð²Ð¾Ð»ÑĮ": 7827,
      "Ð»Ð¸ÐµÐ½ÑĤ": 7828,
      "Ð°Ð»ÑİÑĤ": 7829,
      "Ð¸ÑĤÐµÐ»ÑıÐ¼": 7830,
      "ĠÐ²Ð¸Ð´Ð¸ÑĤÐµ": 7831,
      "ĠÐ¿Ð¾ÑģÑĭÐ»": 7832,
      "ÑİÐ¼Ðµ": 7833,
      "ĠÐ¾Ð±Ð»ÐµÐ³Ñĩ": 7834,
      "Ð¸ÑĤÐµÐ»ÑĮÐ½Ð¾ÑģÑĤÑĮ": 7835,
      "VS": 7836,
      "ĠÐ´Ð¾Ð±Ð°Ð²Ð»ÑıÐµÐ¼": 7837,
      "ĠYouTube": 7838,
      "ÑģÐºÐ¸Ð¼Ð¸": 7839,
      "ĠÐ¿ÑĢÐ¾Ð²ÐµÑĢÑıÑĤÑĮ": 7840,
      "ĠÐ½ÐµÐ¿ÑĢÐµÑĢÑĭÐ²": 7841,
      "ĠÐºÐ¾Ð½ÑĦÐ¸Ð³": 7842,
      "ÑģÑĤÑĢÐ°Ð½": 7843,
      "ĠÐ¾ÑģÑĤÐ°Ð»Ð¾ÑģÑĮ": 7844,
      "amb": 7845,
      "Ġport": 7846,
      "ĠÐ¿ÑĢÐµÐ´ÑģÑĤÐ°Ð²Ð»ÐµÐ½": 7847,
      "Ð¾ÑĩÐ½ÑĭÐ¹": 7848,
      "ĠIt": 7849,
      "ĠÐ¼Ð°ÑĢÑĤÐ°": 7850,
      "Ðĸ": 7851,
      "ĠÑĢÐ°Ð·Ð¼ÐµÑĢÐ¾Ð¼": 7852,
      "Ġcolor": 7853,
      "ĠÑģÐ¾ÑĨÐ¸Ð°Ð»ÑĮÐ½ÑĭÑħ": 7854,
      "ĠÐ¿ÐµÑĢÐµÐ¹Ð´": 7855,
      "ĠÐ¼Ð¸ÐºÑĢÐ¾ÑģÐµÑĢÐ²Ð¸Ñģ": 7856,
      "ĠÐ¸Ð½ÑĦÐ¾ÑĢÐ¼Ð°ÑĨÐ¸Ð¾Ð½Ð½Ð¾Ð¹": 7857,
      "Ð¾ÐºÐ¾": 7858,
      "ĠÑģÑħÐµÐ¼Ðµ": 7859,
      "58": 7860,
      "Ð½Ð¾Ð²ÐµÐ½Ð¸Ñı": 7861,
      "ĠÐ¾ÑģÑĤÐ°Ð½": 7862,
      "ĠÐ½Ð°Ð¿Ð¸ÑģÐ°Ð½Ð¾": 7863,
      "ĠÑĢÐ°Ð±Ð¾ÑĩÐµÐ³Ð¾": 7864,
      "ĠÐ²Ð¸ÑĢÑĤÑĥÐ°Ð»ÑĮÐ½ÑĭÑħ": 7865,
      "ĠÑĢÐµÐ´ÐºÐ¾": 7866,
      "ĠTrans": 7867,
      "Ð°Ð½Ð½ÑĥÑİ": 7868,
      "ÑĥÑģÐºÐ°ÐµÐ¼": 7869,
      "ÑĥÐ¼ÐµÐ½ÑĤ": 7870,
      "Ð¾ÑĤÐ¸Ð¿": 7871,
      "ĠÐ²Ð°ÑĢÐ¸Ð°Ð½ÑĤÐ°": 7872,
      "ĠÐ¿ÑĢÐµÐ´Ð¿ÑĢÐ¸Ð½Ð¸Ð¼": 7873,
      "ĠÑĦÐ°ÐºÑĤÐ¸ÑĩÐµÑģÐºÐ¸": 7874,
      "ĠÐ¿Ð¾ÐºÑĥÐ¿ÐºÐ¸": 7875,
      "ĠÐ¾ÐºÐ°Ð·ÑĭÐ²Ð°ÐµÑĤÑģÑı": 7876,
      "ĠÐ»ÑİÐ±ÑĭÑħ": 7877,
      "ĠÑĤÐµÐºÑĥÑīÐµÐ³Ð¾": 7878,
      "tim": 7879,
      "unk": 7880,
      "ĠÑģÐ¾Ð·Ð´Ð°Ð»Ð¸": 7881,
      "âĪĴâĪĴ": 7882,
      "ENT": 7883,
      "ĠÑĢÐ°Ð¹": 7884,
      "ĠÐĵÐĳ": 7885,
      "ĠÐ¿ÑĢÐ¾ÑģÑĤÑĢÐ°Ð½ÑģÑĤÐ²Ðµ": 7886,
      "Ġmap": 7887,
      "Ð°ÑĨÐ¸Ð¾Ð½Ð½ÑĭÑħ": 7888,
      "idget": 7889,
      "ĠÐ²Ð°ÑĪÐ°": 7890,
      "ÑıÐ±ÑĢÐµ": 7891,
      "ĠÐ¼ÐµÑģÑĤÐ°Ñħ": 7892,
      "ĠÐ´ÑĥÐ¼Ð°ÑĤÑĮ": 7893,
      "ĠÐ´Ð¸ÑģÑĤÑĢÐ¸Ð±ÑĥÑĤÐ¸Ð²": 7894,
      "cor": 7895,
      "Ġversion": 7896,
      "ĠÐĹÐ°ÑĩÐµÐ¼": 7897,
      "New": 7898,
      "ĠÐ¿Ð¾Ð²Ð»Ð¸Ñı": 7899,
      "ĠÑĢÐ°ÑģÑģÐºÐ°Ð·Ð°Ð»": 7900,
      "Ð¿Ð»": 7901,
      "ĠÐ¸Ð½ÑĤÐµÑĢÑĦÐµÐ¹ÑģÐ¾Ð²": 7902,
      "ĠÐ¼Ð°Ñı": 7903,
      "ĠÐ²ÑĭÐ´ÐµÐ»Ð¸ÑĤÑĮ": 7904,
      "ĠÐ¼Ð¸ÑĢÑĥ": 7905,
      "Ð²Ð¸Ð½ÑĥÑĤ": 7906,
      "ĠÑĢÐµÐ³Ð¸ÑģÑĤ": 7907,
      "ĠÐ¿Ð¾Ð¹": 7908,
      "ĠÐ¸Ð½ÑĨ": 7909,
      "ĠÐ¿ÑĢÐ¾Ð¸Ð·Ð²ÐµÐ´": 7910,
      "ĠÐ¾ÑĤÐ¼ÐµÐ½": 7911,
      "now": 7912,
      "ÑĦÐµÑģÑģ": 7913,
      "ĠÐ°Ð²ÑĤÐ¾ÑĢÐ°": 7914,
      "ĠÐ·Ð°Ð¿Ð°Ñģ": 7915,
      "ĠÐ¡Ð¾Ð·Ð´Ð°": 7916,
      "ĠÐ¾ÑģÑĥÑīÐµÑģÑĤÐ²Ð»ÑıÐµÑĤÑģÑı": 7917,
      "ĠÐ±ÐµÑģÐ¿ÑĢÐ¾Ð²Ð¾Ð´": 7918,
      "Ð²ÐµÑĢÑħ": 7919,
      "ĠÐ½Ð°Ð·Ð²Ð°ÑĤÑĮ": 7920,
      "ĠÑįÑĦÑĦÐµÐºÑĤÐ¸Ð²Ð½Ð¾ÑģÑĤÑĮ": 7921,
      "ĠÐ´Ð¾ÐºÑĥÐ¼ÐµÐ½ÑĤÐ°": 7922,
      "ĠÐ±Ð¸Ð½Ð°ÑĢ": 7923,
      "ĠÐ·Ð°Ð±Ð»Ð¾Ðº": 7924,
      "ĠÐ½Ð°Ð»Ð¸ÑĩÐ¸Ð¸": 7925,
      "Ġ./": 7926,
      "PT": 7927,
      "Ð°Ð¹Ð¿": 7928,
      "achine": 7929,
      "ÐµÐ½ÑģÑĤÐ²": 7930,
      "Ð´ÐµÑĤ": 7931,
      "ĠÑĢÐ°ÑģÑĪÐ¸ÑĢÐµÐ½Ð¸Ðµ": 7932,
      "Ġany": 7933,
      "ĠÑĥÐ´ÐµÐ»": 7934,
      "ĠÐ²ÑĭÑĤ": 7935,
      "ÑıÐ¶ÐµÐ½Ð¸Ð¸": 7936,
      "ĠÐŃÐºÑģÐ¿": 7937,
      "signed": 7938,
      "ĠÑĢÐ°Ð±Ð¾ÑĩÐ¸Ð¹": 7939,
      "ĠÑģÐ¾Ð±Ð¸ÑĢÐ°ÑĤÑĮ": 7940,
      "ĠÐ°Ð³ÑĢÐµÐ³": 7941,
      "ĠÐ¸Ð¼ÐµÐµÐ¼": 7942,
      "ĠÐ¾ÑĤÑĢÐ¸Ñģ": 7943,
      "ĠÐŁÑĢÐ¸Ð²": 7944,
      "cast": 7945,
      "ptr": 7946,
      "ĠÑģÐºÐ¸Ð´": 7947,
      "ĠÑĤÑĭÑģÑıÑĩÐ¸": 7948,
      "bar": 7949,
      "ĠÐŁÑĢÐ¸Ð¼": 7950,
      "ÐµÐ·Ð¾Ð¿Ð°Ñģ": 7951,
      "ĠÑĥÑıÐ·Ð²Ð¸Ð¼Ð¾ÑģÑĤÐ¸": 7952,
      "ĠÑĩÐ°ÑģÑĤÐµÐ¹": 7953,
      "ĠÐ»Ð°Ð¼Ð¿": 7954,
      "Ð¸ÑĤÐµÐ»ÑıÐ¼Ð¸": 7955,
      "ÑĦÑĢ": 7956,
      "ĠÐŁÐ¾Ð´ÑĢÐ¾Ð±Ð½ÐµÐµ": 7957,
      "java": 7958,
      "util": 7959,
      "ĠÐ¼Ð°ÑĪÐ¸Ð½Ðµ": 7960,
      "Ð²Ð¾Ð·": 7961,
      "Ġlong": 7962,
      "ĠRT": 7963,
      "field": 7964,
      "ĠÑģÐµÑĢÐµÐ´": 7965,
      "ĠÐµÐ´Ð¸": 7966,
      "Ð°ÐµÐ¼Ð¾Ð³Ð¾": 7967,
      "ĠÐ°Ð²Ð³ÑĥÑģÑĤ": 7968,
      "ĠÐŁÐ¾Ðº": 7969,
      "ĠÑģÐºÐ¾ÑĢÐ¾ÑģÑĤÑĮÑİ": 7970,
      "ĠÐ²Ð·ÑıÑĤ": 7971,
      "CR": 7972,
      "Ġarg": 7973,
      "null": 7974,
      "Ð¾ÑĩÐ½ÑĭÐµ": 7975,
      "ĠÑĤÐµÐ¼Ð°ÑĤ": 7976,
      "ĠÐ²Ð·Ð°Ð¸Ð¼Ð¾Ð´ÐµÐ¹ÑģÑĤÐ²Ð¸Ðµ": 7977,
      "ĠÐ¿ÑĢÐ¸Ð¼ÐµÐ½Ð¸ÑĤÑĮ": 7978,
      "pert": 7979,
      "ĠÐ´ÑĢÑĥÐ³Ð°Ñı": 7980,
      "ains": 7981,
      "ĠÐ¿Ð¾Ð´Ð½Ð¸Ð¼": 7982,
      "ĠÐ²ÑĤÐ¾ÑĢÐ¾Ð¼": 7983,
      "ĠÐ¿ÐµÑĢÐµÐ·Ð°Ð¿": 7984,
      "ĠÐ³Ð¾ÑĢÐ¸Ð·Ð¾Ð½ÑĤ": 7985,
      "ĠÐ½Ð°Ð¶Ð¸Ð¼": 7986,
      "ĠÐ¿ÑĢÐ¾Ð³ÑĢÐ°Ð¼Ð¼Ð¸ÑģÑĤÐ¾Ð²": 7987,
      "Call": 7988,
      "example": 7989,
      "ĠÐ¸Ð·Ð±Ð°Ð²": 7990,
      "Ð¸Ð²Ð½Ð¾": 7991,
      "bl": 7992,
      "ĠÑĥÑĤÐµÑĩ": 7993,
      "cope": 7994,
      "ĠÐºÐ¾Ð½ÐºÑĢÐµÑĤÐ½Ð¾Ð³Ð¾": 7995,
      "ĠÐ²ÑĭÑĩÐ¸ÑģÐ»ÐµÐ½Ð¸Ð¹": 7996,
      "ĠÐ¾Ð±ÑīÐµÐ½Ð¸Ñı": 7997,
      "ĠSELECT": 7998,
      "ĠÐ¿ÐµÑģ": 7999,
      "ĠÐĶÐ°Ð½Ð½ÑĭÐµ": 8000,
      "ĠÐĴÐ¿ÑĢÐ¾ÑĩÐµÐ¼": 8001,
      "ĠÑģÑħÐµÐ¼Ñĥ": 8002,
      "ĠÑĤÐµÑħÐ½Ð¸ÑĩÐµÑģÐºÐ¸Ñħ": 8003,
      "ĠÐ¿Ð°ÑĨ": 8004,
      "ĠÐ±ÑĢÐµÐ½Ð´": 8005,
      "ĠÐºÐ°Ð´ÑĢÐ¾Ð²": 8006,
      "57": 8007,
      "ĠÐ²Ð»Ð¸ÑıÐ½Ð¸Ðµ": 8008,
      "ĠÑĢÐ°ÑģÑĩÐµÑĤ": 8009,
      "Ġ((": 8010,
      "ĠÐĴÐ¾Ð¿ÑĢÐ¾Ñģ": 8011,
      "ĠÑıÐ´ÑĢÐ¾": 8012,
      "void": 8013,
      "ĠÑģÐ²Ð¾Ð´": 8014,
      "ĠOper": 8015,
      "Ġaction": 8016,
      "Ð°ÑĤÐµÐ»ÑıÐ¼Ð¸": 8017,
      "ĠÐĴÐ¾Ð¾Ð±ÑīÐµ": 8018,
      "ĠÐ¸Ð´ÑĤÐ¸": 8019,
      "pression": 8020,
      "Ð²ÑĥÑĩ": 8021,
      "arm": 8022,
      "ĠAng": 8023,
      "Loc": 8024,
      "ĠÐ¡ÐµÑĢÐ³": 8025,
      "Ð°ÑĤÐµÐ»Ñİ": 8026,
      "ĠÐĿÐ°Ð·": 8027,
      "ĠÑģÑĥÐ¼Ð¼Ñĥ": 8028,
      "Ð¸ÑĢÐ¾Ð²ÐºÑĥ": 8029,
      "ĠÐ¸Ð´ÐµÐ¹": 8030,
      "Ð°Ð±ÐµÐ»ÑĮ": 8031,
      "\"\"": 8032,
      "ump": 8033,
      "ĠÐºÑĢÐ¾Ñģ": 8034,
      "ĠÑģÑĢÐ°Ð±Ð°ÑĤ": 8035,
      "Ð¾ÑĢÐ¾Ð¼": 8036,
      "ĠÐ±Ð¾ÑĢÑĮ": 8037,
      "gress": 8038,
      "ĠÐ²Ð°Ð¶Ð½ÑĭÑħ": 8039,
      "Ġexport": 8040,
      "92": 8041,
      "ÑĥÑĢÐ¾Ð²Ð½ÐµÐ²": 8042,
      "ĠDo": 8043,
      "ĠÐ¾Ð±ÑĭÑĩÐ½ÑĭÐ¹": 8044,
      "ÑıÐ»Ð¸ÑģÑĮ": 8045,
      "status": 8046,
      "ĠÐ¸Ð³ÑĢÐ¾ÐºÐ¾Ð²": 8047,
      "ased": 8048,
      "ĠÑģÐ²ÑıÐ·Ð°Ð½Ð¾": 8049,
      "cat": 8050,
      "ĠÐ³Ð¸Ð¿Ð¾ÑĤÐµÐ·": 8051,
      "ĠÐľÐ°ÑĤ": 8052,
      "ĠÐ¾Ð±ÑģÑĥÐ´": 8053,
      "Ð¿ÑĢÐµÐ¶Ð½ÐµÐ¼Ñĥ": 8054,
      "ntity": 8055,
      "ĠÐ¡Ð¾Ð¾ÑĤÐ²ÐµÑĤÑģÑĤÐ²ÐµÐ½Ð½Ð¾": 8056,
      "env": 8057,
      "ĠÐ¿ÑĢÐ¾Ð²ÐµÑĢÐºÑĥ": 8058,
      "penden": 8059,
      "ĠÑĢÐ°Ð·Ð¼ÐµÑģÑĤ": 8060,
      "ength": 8061,
      "ĠÐ¿Ð¾ÑģÐ»ÐµÐ´Ð½Ð¸Ñħ": 8062,
      "ĠÐ¿Ð°ÑĢÑĤÐ½ÐµÑĢ": 8063,
      "ĠPostgreSQL": 8064,
      "ĠÐ¿Ð¾Ð»Ð¾Ñģ": 8065,
      "Date": 8066,
      "ĠÐ½ÐµÑģÐºÐ¾Ð»ÑĮÐºÐ¸Ð¼Ð¸": 8067,
      "ĠÐ½ÐµÐ¿Ð»Ð¾ÑħÐ¾": 8068,
      "ins": 8069,
      "lan": 8070,
      "ĠÐ¿Ð¾Ð´Ð¾Ð·": 8071,
      "ĠÑĥÑģÐ»Ð¾Ð¶": 8072,
      "ĠÐĿÐ¾Ð²": 8073,
      "ĠÑĢÐ°ÑģÑĪ": 8074,
      "ĠÐ¸ÐµÑĢ": 8075,
      "ĠÐ¨Ð°Ð³": 8076,
      "ĠÐ¿Ð¾ÑĩÐ¸ÑĤÐ°ÑĤÑĮ": 8077,
      "ĠÐĿÐ°Ð´ÐµÑİÑģÑĮ": 8078,
      "Â»).": 8079,
      "ĠÐ½ÐµÑĥÐ´Ð¾Ð±": 8080,
      "ĠÐ¾Ð¿ÑĤÐ¸Ð¼Ð¸Ð·": 8081,
      "ĠÐ½Ð¾Ð³": 8082,
      "ĠBit": 8083,
      "ĠÐ²ÑĭÐ±Ð¸ÑĢÐ°ÑĤÑĮ": 8084,
      "ĠÐ¼Ð°Ð½Ð¸Ð¿": 8085,
      "ĠÐ¾ÑĤÐºÑĢÑĭÑĤÑĭÐ¼": 8086,
      "Ð¸ÑĩÐ½Ð¾Ð³Ð¾": 8087,
      "256": 8088,
      "ĠÐ½ÐµÐ¾Ð¶Ð¸Ð´": 8089,
      "oom": 8090,
      "ÑĨÐ¸ÑıÑħ": 8091,
      "ĠÐŃÑĤ": 8092,
      "ĠÐ²Ð·Ð³Ð»Ñı": 8093,
      "Ð¾ÑĩÐµÐº": 8094,
      "43": 8095,
      "ĠÐºÐ¾Ð½ÑģÑĤÐ°Ð½ÑĤ": 8096,
      "Ð»ÐµÑĩÐµÐ½Ð¸Ñı": 8097,
      "ÐºÐ°ÑĢÑĤ": 8098,
      "ÐµÐ½ÑĨÐ¸Ð¸": 8099,
      "ĠÐ²Ð¾Ð»Ð½": 8100,
      "Ð¯Ð½": 8101,
      "ĠCRM": 8102,
      "ĠÑĢÐ°Ð±Ð¾ÑĤÐ°Ð»Ð¸": 8103,
      "ĠÑĩÑĤÐµÐ½Ð¸Ðµ": 8104,
      "ĠÐ¿ÐµÑĢÐµÑħÐ¾Ð´Ð°": 8105,
      "ĠÑĤÐ¾ÑĩÐºÐ°": 8106,
      "ĠÐ¾Ð¿ÑĢÐµÐ´ÐµÐ»ÐµÐ½Ð¸Ðµ": 8107,
[...]
